#version: 0.2
Ġ d
e s
Ã ©
Ġ l
e n
o n
Ġ p
Ġd e
a n
Ġ s
Ġ c
r e
e r
t i
Ġ a
o u
i s
q u
i n
en t
a r
e t
Ġl a
l e
i t
Ġ m
o r
u r
u n
Ġ et
Ġl e
t e
Ġ Ã
i l
Ã ¨
Ġ f
Ġ t
Ġ qu
o m
ti on
ĠÃ ł
Ġ en
r a
č Ċ
Ġd es
u s
Ġ n
a l
r Ã©
e l
Ġ un
Ġl es
an t
ou r
m ent
r i
es t
r o
Ġ L
Ġd u
Ġp ar
Ġ v
on t
c e
Ġ 1
an s
Ġ Ã©
a u
m e
Ġa u
c h
Ġ C
a s
i e
r es
Ġ Â
qu e
a t
v e
n e
Ġ est
Ġ b
s i
Ġd Ã©
. "
o l
a tion
Ġ S
Ġ re
a g
Ġ g
s e
Ã© e
Ġc om
d e
c i
a i
m p
Ġd ans
a is
Ġp l
Ġc on
Ġ M
Ġ P
Ġs e
Ġ (
Ġun e
l i
Ġ j
Ġp our
t Ã©
o i
Ġ rÃ©
Ġc h
Ġqu e
Ġ B
Ġ A
â Ģ
Ġqu i
er s
Ġ in
a it
a in
Ġ 2
Ġs ur
e u
d i
Ġ D
r an
Ġp ro
l es
Ġ1 9
o s
ĠÂ »
a c
Ġpl us
Ã© s
a le
a b
âĢ Ļ
i Ã¨
a m
f f
el le
p p
Ġ r
Ġ T
Ġ e
Ġ h
ur s
Ġ R
Ġ o
t re
en d
Ġ I
ĠÂ «
u l
Ã ª
0 0
ou v
Ġ G
Ġs on
Ã¨ s
or t
Ġ E
Ġ F
u i
i g
u x
Ġ il
t u
i c
o t
ve c
Ġ :
it Ã©
Ġs ont
qu es
Ġ J
v i
p e
Ġa vec
on n
Ã© es
il le
on s
g e
Ġ an
o is
ĠL e
u e
Ġd i
is t
Ġp as
u t
it e
p r
ai re
ag e
un e
Ġ N
or s
Ġs u
m b
Ã© ri
Ġ H
Ã¨ re
Ġs a
Ġp rÃ©
an d
i que
Ġp r
ou s
Ġt r
au x
i er
Ġa v
c es
t er
c tion
i r
Ġc e
et te
Ġ ra
Ġe x
u is
ĠL a
i en
o p
in e
Ġ ou
i m
s t
Ã© n
il l
ch e
Ġpar ti
a p
ĠI l
o g
re m
Ġn e
Ġa l
Ġcom me
ent re
or d
Ġde ux
ĠÃ© t
er t
Ġ V
en ce
Ġt ra
ar d
Ġcom p
Ġau x
Ã §
o c
o in
Ã ´
Ġm ais
i on
a d
Ġp rem
u b
t res
Ġs es
is e
Ġn om
Ã© ra
ou t
) ,
on d
ĠL es
u re
u m
a y
ti que
Ġc ont
en s
an ce
a v
b re
i mp
Ġcom m
m es
Ġa r
Ã© t
s ent
Ġ te
oi r
i v
ĠC h
ti n
a ce
Ġa c
Ġp eu
Ġ W
d u
Ã© r
p h
o y
Ġf or
ĠE n
ale ment
ation s
Ã ®
c t
pr Ã¨s
r u
o it
i d
our s
Ġm ar
Ġ K
Ã ¢
iÃ¨ re
Ãª me
er m
Ġ1 8
Ġf in
oi re
Ġ entre
Ġf ait
ĠdÃ© c
Ġ2 00
Ġ2 0
r it
Ġ ;
a te
l Ã©
Ġa pp
ĠÃ© tÃ©
ro is
in g
ment s
Ġc ette
o b
si on
ant s
Ġcon s
a ti
t es
Ġ 3
Ġd is
o d
p ar
Ġl ui
h e
ou ve
L e
c u
eu x
Ġle ur
Ġc l
Ġch e
Ġan n
c le
ab le
Ġg ran
Ġs t
Ã© d
n es
e ur
Ã ł
Ġ O
ai res
Ġ ont
e x
al l
Ġm on
in si
t s
l is
l le
ĠÃ© g
Ã© m
er re
Ġm Ãªme
c o
Ã© g
Ġ20 1
al is
Ġ es
Ġc ar
ti f
Ġp ers
el les
ci p
Ġ imp
r on
ĠF ran
tion s
an te
p o
i ques
Ġa t
us si
ain e
as s
tu re
a mp
Ġs iÃ¨
U n
i b
an g
Ġ ro
in s
Ġal ors
end ant
ĠÂ» ,
ai ent
on g
s s
Ġp uis
Ġl ors
ou p
L a
ĠÃ© c
o ci
Ġd ont
Ġf il
qu i
Ġt rois
Ġ X
te ur
an n
ĠM ar
Ġnom bre
Ġt out
ĠÃ©g alement
Ġa insi
Ġa ussi
ĠP ar
Ġs ous
ub li
si d
ouv er
Ġde r
Ġ or
e c
Ġ elle
Ġa m
Ġ ti
v en
ou te
on ne
ĠrÃ© g
Ã ¹
Ġ 4
at s
Ġs er
i f
Ġdi ff
Ġre p
Ġ res
or m
mb re
i ci
Ġm il
ri v
our n
Ġc ol
Ã© c
f in
al es
us e
Ġre c
Ġg r
t en
Ġtra v
Ġf ran
Ġpers onn
Ġj u
Ġpr in
Ġc es
l Ã¨
ain s
Ġt er
Ġa prÃ¨s
Ġp os
Ġo Ã¹
ti tu
a Ã®
Ġ 5
or te
en ne
Ġj ou
ag es
iÃ¨ me
Ġte mp
ĠsiÃ¨ cle
) .
Ġ19 9
t a
le ment
i re
Ġj us
Ġg Ã©n
ĠdÃ© b
E n
Ġp e
e mp
l an
ĠÃ ª
ĠÂ» .
Ġr en
Ġ y
s er
Å ĵ
1 9
, .
Ġp erm
it u
Ġder n
Ġin ter
ĠÃª tre
Ġo b
ĠA n
u ti
is te
j et
p uis
t ra
ie urs
ol og
Ã ī
Ġex p
ie u
Ġcont re
Ġse c
on c
Ġac c
it Ã©s
t h
ti s
Ġm e
ĠÃ ī
Ġp ol
m in
Ġprem iÃ¨re
ur es
I I
d es
Ġprem ier
Ġc our
ag ne
is s
l a
Ġe ff
ig n
v ent
ti ques
ig ne
Ġs p
Ġtr Ã¨s
L es
o de
g l
Ã© di
Ġs i
it s
r ent
ag n
Ã© v
Ġpro p
Ã§ ais
ou pe
Ġcon f
Ġc rÃ©
Ġa d
ar i
Ġpeu t
m i
ay s
Ġm an
Ġs ou
au t
v es
Ġm ont
Ġp ubli
v er
Ġm a
Ġann Ã©es
Ġc el
Ġm in
en n
ĠC e
00 0
om m
c l
o pp
Ġm at
ĠdÃ© p
Ġb ien
Ġau t
oin s
u es
en ti
ent s
Ġav ant
Ġre t
ĠgÃ©n Ã©ra
v is
Ã© rÃ©
Ã »
ĠFran ce
Ġs y
Ġs c
ĠD e
ent e
Ġn o
Ġn ot
as se
Ġs ans
i ers
Ã© p
Ġplus ieurs
Ġp h
Ġparti e
i ch
Ġv ers
e au
b le
m an
Ġcon st
ĠprÃ© sent
Ġ 6
Ġp er
r is
a pp
Ġperm et
Ġ 000
re r
ain t
i es
Ã¨ me
Ġv ille
ra ph
l o
Ġc ert
Ġa b
Ã© tÃ©
v ant
Ġg u
ĠÃ©t ait
ch er
Ġf ois
Ġcon n
Ġfran Ã§ais
v el
Ġp o
a ille
Ġ %
ais on
Ġ ans
in t
Ġt h
ch es
Ãª te
Ġde puis
Ġl ong
Ġpl ace
co re
am ment
Ġ 9
Ġp oin
om p
Ġjus qu
Ġ k
ĠÃ© v
e m
el on
Ġp ays
Ġs ui
Ġgran d
en se
Ã¨ ne
g es
Ġ1 7
Ã¨ res
uti lis
Ġre mp
Ġfil m
Ġc ap
Ġ U
qui pe
ĠdÃ© f
ce p
Ġc or
ou l
Ġj e
g n
vi ent
Ġ19 8
ain es
ĠJ e
Ġ âĢ
ĠA l
Ġqu at
t on
Ġprin cip
Ġtr ans
al itÃ©
A n
Ġle urs
Ġn ouv
end re
er n
om b
el s
Ġa ss
Ġn ouve
Ġtemp s
Ġ 7
Ġj eu
Ġcon c
rÃ© sent
a il
Ġm us
Ġc in
an is
ne ment
ol u
Ġqu el
Ġ ent
ie ux
ri b
ci en
mb le
it es
ĠdÃ©b ut
Ġ 8
Ġau tres
u d
Ġche v
Ġv i
op ul
Ġo ff
Ġcomm un
Â «
Ġpol i
Ġpro du
te ment
Ġf ut
, ."
a de
Ġ on
Ġrep rÃ©sent
Ã ¯
tÃ© s
ĠrÃ© p
Ġpro f
Ġin s
ist oire
ĠÃ© p
a re
l u
Ġn i
Ġs itu
ĠE lle
u g
v ers
Ġf aire
Ġpar t
il s
Ġen core
Ġp opul
i ti
Ġ Y
te urs
c c
l er
om me
tion n
at h
ur ant
li g
Ġnot amment
og raph
ĠS aint
Ġs oci
an c
u v
) ."
Ġn ation
Ġmon de
Ġo f
Ġ19 7
Ġa ff
p i
Ġv is
Ġs Ã©ri
ĠÃ Ģ
us es
o h
Ġp ort
a k
Ġimp ort
vel opp
Ġs Ã©
Ġb as
f ois
ve ment
Ġm en
) "
Ġ19 6
Ġm al
Ġs oit
Ġpe ti
Ġra pp
a z
Ġ Q
ar t
Ġdi re
ĠrÃ© alis
o se
Ġre l
ĠdÃ© velopp
ĠR e
Ġv ie
ĠT h
Ġ1 5
a vi
Ġdiff Ã©r
Ġn Ã©
Ġconst ru
iv ers
Ġin f
on de
Ġp Ã©ri
si tion
ouv ent
Ġse p
Ġp ouv
p endant
Ã©ri c
Ġs ol
ĠprÃ© c
y p
Ġc ours
Ġ Un
ti v
ist es
elle ment
Ġv ol
Ġcon sid
Ġcel ui
Ġt ous
Ġav oir
Ġd om
Ġm oins
Ġ utilis
on e
au tres
Ġf a
er g
el l
d re
Ġparti cu
o Ã»
Ġe mp
Ġ "
Ã¨ tres
Ġ19 4
ĠD ans
c ont
ĠC ette
t ats
Ġm ort
ction s
ic t
Ġil s
i a
ri c
ri e
Ġr om
at ure
Ãª tre
s u
c s
Ġc ul
Ġc elle
Ã´ le
Ġes p
Ġpas s
Ġs aison
m Ã©e
Ġgran de
Ġm od
Ġnouve au
Ġd onn
Ġt our
ou le
A r
ch Ã©
ien s
Ġ1 6
2 0
ri Ã¨re
Ġparticu li
po que
Ġf ond
Ġc Ã´
Ġquat re
Ġd onc
Ġav ait
Åĵ uv
Ġt ou
Ġch amp
Ġr est
ĠT he
aÃ® t
ĠÃ© le
in es
Ġ1 0
Ġb at
Ġsu ite
t ant
Ġf am
il les
Ġapp ar
Ġse u
ex p
ĠâĢ Ķ
Ġre m
ais s
ĠPar is
Ġch ar
Ġv er
z e
t ent
Ġl igne
Ġc a
Ã© l
Ġa s
o w
ant es
Ġmat ch
ri g
a que
Ġt oute
re t
rÃ© e
us s
Ã© ro
iÃ¨ res
ist or
ĠrÃ© s
r y
ĠA u
Ġgu erre
Ġfor m
Ġquel ques
ate ur
ĠG u
ĠS t
Ġm et
ĠA r
Ġf em
Ġn on
g anis
Ġparti r
i ent
ci d
o le
ĠsÃ©ri e
Ġd ro
m and
Ġin di
Ġh ab
i x
Ġ z
Ġp res
or ti
Ġre pr
f s
Ġm is
l us
vi ron
Ġ [
ĠrÃ©g ion
ĠG ran
i ons
ĠÂ» ."
Ã© lÃ©
ĠI n
rÃ© s
Ġ19 5
ĠJe an
ac c
Ġro i
Ġm o
Ġdern ier
1 8
Ġcons titu
Ġmil li
Ġc ri
Ġeff et
Ġgr oupe
Ġl ieu
Ġ19 3
eu re
ĠdÃ© m
p er
ra m
Ġc an
Ġme ille
Ġc ent
Ã¨re ment
ab les
Ġres te
Ġ Z
ĠC ar
Ġg ouver
te l
ill et
en ces
" (
Ã© quipe
Ġpro b
Ġc as
tÃ© ri
Ġs elon
ĠP our
Ġ im
enn ent
am b
ĠrÃ© f
pe ct
il i
is on
ri er
ĠrÃ© c
Ġren cont
o re
par t
a h
Ġ ri
Ġau tre
g rÃ©
an ces
oÃ» t
a ur
ĠCh ar
ĠN e
ent es
Ġm Ã©t
Ġsu d
ro p
on om
oi res
Ġl i
Ġl Ã©g
Ġl oc
Ġcont ra
it er
g u
k e
Ġcl ub
Ġnouv elle
ĠpÃ©ri ode
Ã´ t
Ġp endant
Ġm oy
Ġf on
y n
ate urs
Ġt ard
om mes
Ġn ord
Ġd ou
r Ãª
ĠQ u
Ġpro g
Ġm es
Ġ ouv
si ons
f ic
a ch
Ġnombre ux
Ġpl an
I S
t at
an de
ĠS h
vi er
ĠÃī tats
Ġcom b
au l
o v
c ul
Ġro y
Ġpoli tique
ra ge
Ġm ai
Ġs ign
Ġf r
u it
Ġm ois
Ġt he
le x
Ġd oit
Ġin c
s on
Ã© ci
i onn
Ġl iv
is es
e urs
Ġ -
Ġde vient
Ġni ve
u c
te mp
Ġsu cc
l and
ier re
Ġa fin
it aire
m er
ĠgÃ©nÃ©ra l
l ac
ĠÃ©t ant
Ġ1 4
ĠU ne
ra it
Ġth Ã©
e ment
f i
a ill
us t
Ġdis p
Ġ1 3
Ġfor me
ĠdÃ© s
Ġ1 2
Ġti tre
Ġret r
o k
Ġb ut
I e
ĠX V
y ant
in d
j ours
Ġex emp
ces s
Ġs ouvent
op h
ien ne
Ã©ra tion
Ġam Ã©ric
Ġo c
qu er
ur ent
Ġcom pr
tÃ© g
B N
Ġpubli c
Ġen f
Ġre f
ch n
a me
Ġd urant
Ã© li
X e
Ġsu b
h istoire
mb l
Ġche z
Ġcon tin
Ã¨ de
Ġp ri
Ġv ict
Ġsp Ã©ci
Ġdeux iÃ¨me
ĠrÃ© v
ti er
Ġc oup
as si
r il
Ġpouv oir
Ġs al
au me
su ite
ĠJ oh
I n
Ġpro jet
an e
Ã¨ rent
Ġ; "
Ġin st
an ge
is me
Ġa ur
rib u
l ar
Ġma j
Ġcomp os
al if
is se
l ie
Ġn ature
ra tion
b e
ti ent
Ġsec ond
or i
o bre
en c
p s
Ġoff ici
IS BN
Ġju in
ĠÃ© tu
olu tion
oi x
Ġd Ã¨s
s ence
o pe
ran g
Ġt ourn
Ġ: "
Ġl ib
Ġf er
Ġse ul
Ġv oit
ot h
Ã¨ le
l s
Ġtr ouve
ĠÃ©c rit
ac t
ĠprÃ© sid
n ation
Ġa g
Ġl ar
Ġc amp
o ie
v in
Ġpar c
Ġj ourn
Ġ id
Ġg ra
Ġo ct
Ġpos s
ic k
Ġpr Ã¨s
Ġt ot
cu p
a x
Ġb eau
il itÃ©
an vier
Ã© ti
Ġchev al
ĠIl s
Ã¢ ce
Ġtou jours
Ã¨ g
our g
ĠC es
le ction
f orm
te mbre
Ġcin q
Ġm ain
Ġin d
il li
. .
ais e
ra Ã®
Ġ1 1
Ġj anvier
ĠD es
Ġmar s
Ġsu pp
Ġcert ains
ann Ã©e
qui p
a di
Ġf ace
as t
Ġcomm er
un es
Ġj ours
Ġcons er
Ġju illet
Ġfam ille
Ġg ar
a ff
au v
l ace
ĠG e
Ġm Ã¨tres
Ġsep tembre
Ġc o
m a
Ġter rit
Un is
ĠJoh n
ĠdÃ© ce
Ġde v
qu Ã©
Ġh ommes
Ġt erm
Ġes s
Ġat t
y s
oup es
il es
at ri
Ġ19 1
Åĵuv re
and is
Ã¨ te
l in
Ã§ on
Ġr end
ort s
es p
Ġor ig
Ġdes s
ĠP h
ol es
m Ã©
er ie
Ġnive au
ti c
Ġpoin t
po se
olog ie
Ġre Ã§
Ġs orti
Ġoct obre
Ġan im
ve mbre
man de
Ġc eux
Ã© poque
Ġen suite
Ġpr end
Ġsui v
rit ann
Ġo p
Ġa yant
ĠdÃ©ce mbre
Ġapp el
Ġgouver nement
ĠS e
Ġj our
Ġr Ã´le
, ,
it h
li c
Ġcomp te
ser v
Ġno vembre
Ġhab it
Ġc entre
Ġh istor
Ġch aque
Ġpos si
om e
Ġan d
Ġsi x
m is
u te
Ġt ant
Ġcl asse
or ig
Ã© b
Ġte chn
ro s
Ġpeu vent
Ġav ril
Ġpoin ts
Ġser vi
Ġre g
Ġt andis
Ġf l
ou is
Ġfon ction
aÃ® tre
Ġsy st
Ġ19 2
an ti
ĠC l
si onn
b um
Ġnombre uses
ri p
Ġde ven
aiss ance
Ġau c
res s
cid ent
ti ve
ĠÃ©t aient
ti en
d s
Ġt Ãªte
qu el
Ġtrois iÃ¨me
ra g
u li
ĠA prÃ¨s
tif s
Ġat te
Ġl it
y mp
Ġtout es
Ġa oÃ»t
ĠÃ© ch
Ġsucc Ã¨s
Ã¨ ce
en ant
ur ope
ĠdÃ© j
it al
ui re
Ġpopul ation
le y
Ġh um
c teur
l les
ĠO n
o te
Ġor ganis
Ġc ro
Ġqu ar
ĠG r
Ġgr Ã¢ce
pi de
Ġan gl
7 8
ĠM ont
A l
ar ch
Ã©v rier
ri que
Ġp ra
qu ent
Ġl im
Ġr ou
Ġen viron
Ġpersonn es
ap on
Ġtrav ers
re u
di tion
Ġra ison
Ġf ig
b les
i o
Ġf ont
ar c
vis ion
Ġfil s
Ġb Ã¢
c oup
ĠM ais
et s
or is
ons t
Ġp orte
ĠÂ» "
Ġcomm une
Ġprem iers
ro du
Ġc et
ĠdÃ©j Ãł
Ġf Ã©vrier
ĠX I
Ġal le
a Ã¯
Ġpl u
Ġra pide
Ġdi x
eur es
l ise
Ġret our
au tre
Ġcul ture
k i
Ġexemp le
Ġre lig
ĠI I
an ci
ĠS on
Ġlar ge
Ġv oy
di tions
5 0
Ġparti cip
es s
orig ine
Ġs ite
Ġce pendant
is tre
Ã Ģ
a pe
Ġc ou
in ter
Ġh au
Ġg Ã©
Ġs our
ou se
mb res
Ġann Ã©e
Ã¢ te
Ġeff ec
Ġsoci Ã©tÃ©
ĠNe w
ai r
oi gn
Ġm Ã©
or itÃ©
Ġb r
Ġmon di
Ġmilli ons
Ġde vant
Ġcap it
ograph ie
at t
our d
Ġt en
Ġ3 0
ĠM al
Ġp iÃ¨
i le
am ais
ra s
te x
ĠR ob
ĠC ol
ac k
A u
Ġjou eur
on es
Ġdern iÃ¨re
co le
Ġl ang
ĠC an
qu elle
ĠÃ© lÃ©
Ġinter nation
Ġk m
o x
Ġre cher
s p
ĠGran d
Ġpersonn ages
c ture
able ment
ĠfranÃ§ais e
i de
Ġsyst Ã¨me
Ġb lan
ĠC on
ĠChar les
Ġj amais
ĠA m
av ant
Ġchev aux
ne y
Ġd ist
ĠnÃ© cess
Ã¨ se
ati ve
> "
Ġla quelle
" <
ti cle
Ġtrav ail
D ans
Ġv iv
in st
Ġc ir
Ġm er
Ġ 0
Ġte x
Ġrec onn
ĠdÃ© si
Ġch ans
i me
Ġ19 0
m Ãªme
t r
Ġm Ã©di
ĠB ar
Ġbeau coup
Ġprop os
ĠcÃ´ tÃ©
au d
t al
Ġconsid Ã©rÃ©
ĠGe or
ĠN ord
en nes
Ã©r ence
temp s
Ġpersonn age
Ãī tat
u le
Ġje une
Ġsu p
Ġme mbres
Ġ( Â«
Ġf ort
Ġpuis s
ĠÃ©t ab
Ġt Ã©lÃ©
Ġrom an
Ġm om
Ġn ous
Ġr Ã¨g
t out
Ġpar fois
m on
Ġn avi
Ġe ur
ĠCe pendant
Ġconstru ction
tÃ© ra
ĠbÃ¢ ti
y pe
Ġparticuli er
Ġqu alif
ĠM ich
n er
or k
ag it
i k
Ġp u
Ġver sion
Ġen v
ti t
Ġd oc
Ġat ta
Ġcont r
se au
ra in
Ġp Ã¨re
ĠprÃ©sent e
re g
res sion
o ff
c k
v oir
âĢ ¦
j oin
Ġaur ait
li que
Ġb ar
Ġcor ps
ĠdÃ©velopp ement
Ġ ord
Ġc al
ĠÃ© quipe
ĠP e
es se
ĠdÃ© fin
Ġpr om
Åĵ ur
Ġseu lement
op Ã©
Ġpro c
ĠB e
Ġ eux
p l
Ġorig in
Ġchamp ionn
Ġt rop
f or
u el
er ne
Ġfin ale
a prÃ¨s
ĠprÃ©sid ent
ou est
Ġes ti
Ġs imp
as ion
i ce
Ġvict oire
v o
ĠL ouis
Ġprodu ction
ard s
v Ã©
Ġrapp ort
l it
ĠA insi
Ã© qu
Ġm ouve
Ġpl ac
Ġf ais
Ġcour se
Ġc ad
os s
c rit
Ġc r
Ġp al
mp ire
ot s
di c
pe c
Ġnation al
re ur
ĠÃ©c onom
n Ã©
Ġd onne
ur b
min ist
1 0
e ff
tÃ©ri eur
Ġaut our
Ġv ill
Ġpas se
ci de
Ġ eu
riv Ã©e
Ġb ritann
Ã® le
se ment
Ġv ari
Ġm ise
Ġ2 5
un i
ar g
Ġsur tout
Ã¨ nes
Ġrencont re
Ã© tique
Ġin t
ĠÃ© quip
Ġcent ra
C h
i ment
Ġje unes
Ġsc Ã¨ne
ĠL ors
h ui
Ġlong ue
Ġdi vers
end o
Ġm or
x im
ar mÃ©e
ĠrÃ©s ul
Ġcol l
ac tion
p ort
I l
Ġt ent
ĠR oy
Ġenf ants
Ġjou eurs
in c
or n
ĠprÃ©c Ã©d
du it
ĠprÃ© sence
D e
Ã¢te au
cep tion
or tÃ©
Ġse mble
Ġst at
y le
ĠdÃ©c ouv
Ã© ch
Ã© le
Ġ w
Ġ riv
l or
Ġ elles
Ġcon se
on ce
ĠH ar
ĠM e
it aires
in f
b all
Ġca use
h i
Ġcel a
c rip
Ã© cu
g Ã©
ing t
en de
ille urs
li er
od es
Ġfin alement
ic ation
Ġch er
Ġ18 9
Ã¨ ces
Ġdes tin
a w
" Â«
ĠC el
Ġdis c
Ġas se
Ġprob lÃ¨
Ġpar mi
an tin
Ġsec onde
Ġsup Ã©ri
Ġch ap
Ġqu it
Ġplu part
Ġm ag
i tion
ĠS te
Ġmar i
Ġent raÃ®
1 7
Ã©ri que
r ant
d er
ĠcrÃ© ation
Ġde mande
ique ment
Ġgrand s
ac tÃ©
ici le
ab ord
ut es
Ġbas e
Ġsui vant
ĠS u
ĠS ud
Ġt omb
re c
Ġan cien
oc k
en si
ar s
titu de
gl et
Ġtrav aux
Ġre v
u ment
Ġpr is
Ġmom ent
ois e
Ġb ou
Ġ ol
Ġfem me
Ã© f
Ġterrit oire
es tion
ĠS ch
Ġt u
Ġf rÃ©
en ir
Ġf ai
Ġmeille ur
Ġman iÃ¨re
o ot
Ġse m
s y
Ġdis par
ense mble
glet erre
Ġre ven
Ġprem iÃ¨res
ur g
Ġacc ue
id Ã©
Ġpe in
Ã© ment
Ã©r it
t ation
Ġmus ique
Ġse in
ĠprÃ© f
p rÃ©
d am
Ã «
Ġl et
o ine
Ġpeti t
Ġhabit ants
Ã© lÃ¨
Ġc oule
Ġen g
Ġp il
Ġseu le
ou n
Ġ200 7
qu ant
Ġn Ã©g
lu ence
l ant
ĠH en
as e
Ġz one
g ne
Ġ201 0
ti e
g ment
ĠXI Xe
m en
Ġen se
alis te
Ġpo sition
Ġs ort
Ġc at
ĠD is
i an
ĠXV II
l et
a tique
Ġservi ce
Ġche f
oi ent
tiv itÃ©
Ġrapide ment
Ġ2 4
Ġchampionn at
Ġnation ale
au tÃ©
Ġeur opÃ©
Ġprop ri
qu Ã©e
ĠC oupe
Ġa illeurs
Ġmil ieu
ti Ã¨re
us ion
Ġfem mes
r in
ci pe
en g
Ġmoy enne
Ġs cien
Ġcomp agn
Ġim m
Ġd it
r ont
er c
po sition
ĠP ro
Ġ2 2
ĠS a
Ġass oci
Ġo pp
tu di
on y
h t
b ert
ĠS i
Ġcert aines
Ġcomm ence
ait e
p ond
m agne
Ġan ci
Ġmil itaire
Ġmais on
Ġlit tÃ©ra
Ġ18 8
Ġg en
Ġ200 8
ĠP ort
Ġc elles
Ġprop re
al d
ten ir
Ġsu jet
Ġv ingt
j ourd
Ġb i
Ġdro it
rÃª t
Ġf ac
ĠP ierre
Ã©di tion
Ã© on
Ġv a
Ġeffec tu
ul ti
ad es
ar es
ĠM an
Ġcar actÃ©
i ra
Ġalle mand
ĠdÃ© par
Ġprog ram
il is
l l
Ġcol on
1 6
Ġt ype
Ġd at
ĠP aul
ĠJ eux
Ġol ymp
Ġlors que
Ġimport ant
u p
Ġfa Ã§on
1 5
E mpire
o ch
Ġcomp Ã©ti
Ġk il
Ġt Ã©m
Ġtr oupes
end ance
al itÃ©s
el d
Ġbat aille
Ġf ra
Ã ¡
is ion
b y
Ġvi ol
us tra
Ġc li
Ġm oi
Ġqu and
2 00
Ġdom in
Ġ200 6
is sent
am es
ĠI er
iv er
Ġ18 6
ĠS p
Ġparticuli Ã¨rement
Ġ9 78
or ie
Ġcar riÃ¨re
Ġc rois
ĠÃ© poque
ĠdÃ© r
olog ique
Ġsy n
ĠI s
ĠL ond
ĠdÃ© part
Ġdis tin
' s
Ġsu c
ĠdiffÃ©r ents
ne ur
pp e
Ġb ois
Ġser ait
y th
ĠI II
Ġch ange
ĠGu erre
Ġv ue
Ġf av
Ġliv re
Ġpl ut
Ġj eux
Ġdess in
Ġper d
Ġ2 3
Ġa j
Ġpossi ble
et h
Ġgran des
Ġch ois
Ġsitu ation
Ġch Ã¢teau
Ġb on
Ġmondi ale
Ġcomm and
Ġ201 1
Ġf urent
res pond
un ivers
Ġh aut
Ġimport ante
Ġcomb at
Ġs ens
ĠprÃ© v
Ġb ord
Ġn eu
ord re
it y
ĠdÃ© t
Ġcommer ci
m ar
Ġ200 9
Ġnouv elles
Ġs pect
ati ques
Ġt erre
Ġangl ais
Ġsy mb
Ġvoy age
or g
ib le
oi vent
ig nes
ass in
ĠrÃ©g uli
Ġ200 0
Ġle quel
du c
Ġplut Ã´t
ĠP ri
Ġp riv
ar de
j ec
Ġesp Ã¨ces
ouver te
Ġre join
omp agn
Ġdiff ic
al le
Ġter me
ĠS ur
Ã©m in
ĠC or
Ã©t ait
lle magne
er a
Ġs us
an im
Ġst yle
et tes
Ġterm in
Ġtr ouv
Ãª t
ĠRob ert
ĠH e
l oy
Ġmar que
ot te
Ġcor respond
p ons
ĠB el
e reur
us se
ces se
Ġ2 1
Ġser a
Ġasse z
Ġ iss
is sion
ig ue
onn es
i Ã©
Ġc ath
l oit
Ġin tÃ©
Ġpr endre
ort h
ĠY ork
rÃ© es
ĠS elon
Ġposs Ã¨de
Ġl oi
Ġremp orte
A m
Ġkil om
Ġconn u
m oins
Ġpeu p
os Ã©
3 0
Ġmes ure
Ġsorti e
Ġd ate
al y
Ġv ale
Ġst ru
Ã¨ mes
Ġp ens
ĠdiffÃ©r entes
r ist
ous s
oc c
Åĵuv res
ri ch
Ġ201 2
Ġm Ã©d
Ġt able
Ã¢ tre
Ġm eur
ĠdÃ© cide
Ã© an
Ġmal grÃ©
as c
Ġin iti
1 2
ĠgÃ©nÃ©ra lement
ĠreÃ§ oit
1 4
Ġb Ã©n
Ġpro t
Ġprof es
Ġpeti te
Ġp ie
or ation
Ġmouve ment
ĠsÃ© lection
E urope
tal ie
Ġs au
ĠÃ©p is
ĠcaractÃ© ris
Ã Ń
Ġ2 8
au che
Ġres pons
7 0
Ġac tu
avi d
reu ve
ail les
Ġremp lac
Ġpri x
Ġaff ir
Ġdire ction
Ġun ivers
ĠS c
o od
ĠdÃ© n
Ġv ra
. -
ĠÃ ¢
ri d
Ã©c ur
ĠÃ©le ct
d uire
ĠLond res
l y
i z
iss ant
vi ennent
Ġmat Ã©ri
Ġm uni
Ġbritann ique
Ġp le
ag er
Ġra ce
Ġm Ã¨re
ĠM c
Ġdire c
st es
Ġtrav aill
Ġn oir
ur Ã©e
Ã§ ois
Ġconser v
o sition
v ille
Ġsuiv ante
Ġf eu
aille urs
ĠB r
oot ball
Ġde mand
Ġmin utes
ĠJ ac
h ab
Ġprincip alement
ĠDis ney
ĠM on
Ġc y
ĠP lus
U ne
A prÃ¨s
b es
ran d
Ġmatch s
ĠÃ©lÃ© ments
a j
Ã© rer
e ct
Ġc i
ro ph
id es
Ġjou e
Ġ2 6
Ġentre pr
di tionn
1 3
Ġ5 00
Ġsep t
O r
r Ã¨s
en f
Ġcin Ã©m
Ã© tu
Ġab and
Ġsign if
h am
av al
Ġchans on
sy ch
a e
ri ve
ĠÃ© m
Ġtot al
ra ges
Ġcol le
y si
Ġ1 00
Ġprincip al
ad a
ĠÃ©v o
ar n
Ġp ont
} }
ĠV al
Ġrem ar
ĠrÃ© un
Ġ18 4
a ie
ĠdÃ© g
y d
Ġ is
ĠP l
Ġ200 5
Ġb l
des s
Ã©ro s
Ġar ch
Ġnouve aux
Ġv oir
or ganis
ĠÃ© d
Ġs im
Ġf ille
Ġretr ouve
Ġkilom Ã¨tres
Ġf ourn
Ġroy aume
Ġmont re
at ta
Ġcri tique
ĠR en
Ġr ue
ur Ã©
Ġv illes
Ġg rec
ter n
. ,
Ġcontin u
ĠD u
Ġcl ass
Ġn um
Ġauc un
ĠdÃ©par tement
ubli que
Ġv ain
ĠD avid
Ġ201 4
v re
Ġnom mÃ©
illi am
ĠE d
Ġcons ac
ul tÃ©
Ġh omme
Ġde mi
orm ais
ĠdÃ©c la
ĠO r
Ġac cep
qu is
Ġsou h
s se
Ġpro che
ĠJ apon
c on
Ġsu ff
lan de
Ġt aille
ĠR ich
ro che
d y
ne ments
ĠN o
ri ge
Ġ2 7
Ġr oute
Ġlang ue
vi d
Ġcontr Ã´le
an a
Ġfilm s
les s
Ġsitu Ã©
Ġsu per
ert s
Ġv end
Ġsur f
ĠT our
Ġacc ord
Ġv eu
ol d
Ġpro vin
all Ã©e
Ġm ulti
Ġal bum
Ġcl assi
p t
r ite
ab ilitÃ©
ĠdÃ©c rit
ĠC om
a ci
Ġ199 0
ret agne
P our
en viron
Ġh eures
Ġau gment
ari o
as h
Ġcad re
res si
Ġau jourd
Ġ200 4
Ġmet tre
Ġcomp orte
.. .
Ġform ation
ĠamÃ©ric ain
Ġterm ine
Ġen d
Ġutilis Ã©
ouver ture
b er
Ġcon v
Ġh uit
ib li
Ġoc cup
Ġl anc
ob jet
Ġav aient
m ment
ĠD i
es ti
ĠR o
Ġdern iers
Ġrecher che
Ġs omm
Ġen c
ĠT ra
e d
ais sent
ri r
lex and
Ġs ac
ill er
Ġprofes sionn
Ġsc Ã©n
Ġch ac
Ġauc une
ĠdÃ©f ense
ĠpiÃ¨ ces
le u
ĠÃ© qu
ĠdÃ© ta
ic es
Ġp at
19 9
d ats
in tÃ©
t t
ati f
Ã ¼
an i
r om
Ġv idÃ©
Ġl oin
k s
ĠrÃ© par
ert es
crip tion
Ġ201 3
Ġt rib
Ġclasse ment
ĠdÃ©c lar
Ġp Ã©n
Ġad ap
Ġ2 9
ati ves
Ġp sych
Ġ5 0
Ġjourn al
ac itÃ©
ĠâĢ ĵ
ot es
Ġvol ont
ĠÃ©tu di
ais se
Ġser v
ang er
, ,.
ĠrÃ© seau
Ġpoli tiques
Ġar tis
Ġar m
s ur
Ġcri tiques
Ġc itÃ©
Ġcomm enc
Ġappar aÃ®t
Ġ18 5
in te
ĠB ro
Ġscien tif
Ġpass age
Ġtoute fois
ĠF in
Ġfais ant
ĠW illiam
ĠdÃ©cla re
Ġc iv
ĠW al
Ġlors qu
Ġdi rige
Ġ ital
Ġ Åĵuvre
Ġconc ern
ĠC onst
Ġmo di
ay e
tis me
An gleterre
Ġdes c
Ġar riv
Ġ Åĵuvres
Ġprodu it
Ġs ais
ĠM us
Ġqu ant
ĠÃ©t rang
Ġl og
an ne
Ġv ic
ra t
av oir
al bum
Ġm ot
Ġcamp agne
tiv itÃ©s
or me
Ġdom aine
re d
ĠR Ã©p
ĠdÃ©s ormais
Ġ17 9
Ġt o
al ise
Ġpro te
d uis
Ġpres que
g er
ti Ã©
i p
ti l
Ġres s
ĠÃ© l
si tions
Ġfor ces
Ġv Ã©rit
olog iques
Ġmuni cip
Ġpro pose
ou x
ces si
Ġvill age
Ġl ut
ai x
Ġt ri
v al
lÃ© ment
oc ra
Ġres pec
ar a
P ar
Ġd oivent
Ġpro vo
Ġe mb
Ġv en
Ġprob ablement
ot t
Ġpos te
ti vement
O u
Ġ {
Ġcon cl
os er
Ġapp r
Ġatte int
et er
Ġcommun es
ĠÃ©quip es
ui fs
Ġex iste
Ġ200 3
ri ce
ĠGeor ge
Ġte ls
Ġpers onne
Ġz ones
Ġd ol
tex t
Ġ us
at es
Ġpra tique
Ġfig ure
M ar
r est
Ã´ ne
ig e
Ġsitu Ã©e
imp ort
âĢ¦ ]
Ġor ient
u les
Ġau prÃ¨s
Ġfr Ã¨re
Ġ200 2
oci ation
ĠÃ©conom ique
at ur
Ġess enti
Ġc ouv
c les
ust ri
it ation
Ġquar tier
er b
ter min
Ġles qu
ĠG re
ĠX Xe
Ġv oix
Ġch oix
rodu ction
qu Ãªte
ĠP rem
di re
Ġmoi tiÃ©
o vi
oute fois
Ġd ra
Ġph il
y l
' Â«
Ġob jet
Ġvis ite
ar rivÃ©e
Ġf ou
Ġf aut
ti ers
Ġm Ã©c
Ġg agn
en tif
Ġ[ âĢ¦]
Ġ rang
Ġ201 5
ĠS ec
c al
ul t
Ġd yn
ĠA d
Ġl Ãł
tÃ© es
Ġanim aux
ĠG al
Ġref us
Ġ198 0
Ã©g lise
ti stes
Ar ticle
ĠGran de
Ġfor ce
res se
Ġs enti
Ġpour rait
Ġph ysi
Ġ ?
Ġs tudi
b res
ge ment
ĠPh ili
Ġl ance
h omme
Ġst ation
Ã©v olution
Ġprogram me
ven tion
Ã§ ant
ro g
Ġmin istre
ĠÃ ®
Ġnavi re
Ġremp ort
Ġp atri
ti ves
Ġin v
n ent
Ġg auche
or de
Ġsurf ace
a f
ĠB er
ab b
Ġtra ditionn
ĠR ome
f text
| >"
endo ftext
in a
Ġbut s
Ġpres se
ĠK e
"< |
ĠcompÃ©ti tion
Ã¢ ge
Ġconf ir
Ġcomp ar
Ġgen re
Ġ4 0
ĠM ad
ĠrÃ© sid
ĠA b
Ġin cl
Ġ197 0
Ġr u
o e
Ġf Ã©min
Ġmod Ã¨le
ul aire
y m
Ġv it
Ġ uti
h um
Ġcin qu
Ġv oie
ĠE urope
ĠÂ» )
ograph ique
Ġv ites
Ġj apon
Ġ18 7
ai de
ĠrÃ© uss
Ġd oute
Ġn uit
Ġqu estion
Ġcompagn ie
Ġob serv
ci ence
Ġpermet tant
Ġ ir
ĠGr Ã¨ce
Ãª mes
Ã¨ tre
al og
au g
Ġman if
Ġfai ble
ol ique
l am
Ġad minist
Ġcapit ale
Ġdiff icile
ti ce
Ġdi rig
au te
Ġcommun autÃ©
Ġm i
Ġqu alitÃ©
ĠI V
Ġ199 9
Ġpopul aire
Ġcar act
Ġmil itaires
Ġg al
Ġb less
Ġpeti ts
Ġmus Ã©e
ru ction
occ asion
ĠR uss
ĠS al
Ġen reg
Ġob tient
Ġal li
6 0
ĠAn d
Ġrel ations
ĠD ick
Ãª tes
u ments
Ġquat ri
ĠrÃ¨g ne
Ġre tra
Ġfor te
Ġex ist
h a
c an
ĠW e
ati vement
Ġn our
Ġri en
in i
Ġfran ch
Ġprincip aux
es te
Ã ¶
Ġpr ise
ĠX II
ĠMar ie
Ġou tre
ti ne
tit ul
ten tion
Ġc Ã©lÃ¨
ĠdÃ©si gn
Ġconn aÃ®t
ĠvidÃ© o
Ġen fin
Ġ200 1
Ġche min
Ġins pi
r s
c teurs
f rique
k y
ie use
Ġ urb
Ġfin anci
Ġquatri Ã¨me
ĠreprÃ©sent e
arg ent
Ġs ouver
Ġla c
ra d
Ġenv oy
Ġdonn Ã©
Ġder riÃ¨re
os t
Ġf Ã©d
Ġman que
ĠPri x
Ġa li
Ġpro tÃ©g
ol l
Ġmis sion
ĠsiÃ¨ ge
ĠRÃ©p ublique
4 0
Ġcontra ire
id Ã©e
ch ant
Ġcon ditions
ĠHen ri
un g
b ilitÃ©
k a
Ġcomp lÃ¨
ĠsÃ© par
Ġb onne
alis ation
Ġparti cipe
ose ph
Ġsal le
Ġde me
ĠEn fin
ke y
Ġ !
Ġet c
Ġter rain
di que
ĠCh amp
emp ereur
Ġse mbl
Ġpermet tent
Ġm ieux
Ġtechn ique
ĠmÃ©t h
ten ant
y z
Ġdi vision
Ġexp Ã©ri
a el
Ġgr oupes
Ġf ootball
c te
Ġh istoire
Ġdro its
ou g
m at
v age
Ġprin ce
ro it
Ġal l
ati s
Ġdou ble
Ġquel que
Ġmaj oritÃ©
g ue
ĠN ouv
ĠÃ© li
Ġpro l
Ġrou ge
Ġrec ord
l en
ĠnÃ©cess aire
Ġdol lar
ĠB en
ĠN ic
univers itÃ©
ard in
1 1
ĠT ur
s c
l d
ĠcrÃ© Ã©
Ġtrans form
Ġdro ite
ĠS am
Ġa it
Ġcomp lex
Ġann once
Ġ201 6
et Ã©
Ġv oul
Ġa ch
Ġc Ã©rÃ©
ĠM i
Ġvale ur
an che
ac es
ure r
ĠM ac
Ġhistor ique
Ġnavi res
or Ã©
Ġin titul
Ġsol dats
Ġsour ces
ĠFran Ã§ois
oi le
Ġrepr end
Ġcom ment
Ġjou er
Ġdonn er
ĠB ien
Ġst ade
ĠrÃ©g ions
ve ur
A ut
m ont
Ġoc cident
aly se
E st
b erg
at oire
pr it
ex ist
Ã« l
Ġr endre
Ġvi ent
ti enne
Ġcompr end
J e
Ġl iste
Ġmar ch
om as
ĠproblÃ¨ mes
i res
ĠD eux
Ġmus ic
o z
ĠÃ©v Ã©
ĠÃ© n
2 5
Ġc it
Ġv al
Ġt yp
Ãª che
m ain
Ġcomm ande
Ġimp Ã©ri
ag nes
os se
ain te
b ourg
Ġb es
ĠCh e
Ġc er
ĠT outefois
ĠCan ada
ĠS m
ĠcinÃ©m a
Ã ³
ist ance
onom ie
ti Ã¨me
F ran
lÃ© g
Ġblan c
Ġter res
Ġ18 3
Ġl ignes
ur i
lan c
Ġense mble
Ġph ot
Ġtrans port
d it
Ġaut ant
Ġad op
ĠrÃ©alis Ã©
au de
Ġs out
f t
ag in
rit ure
is ation
Ġsou ff
ite ur
Ġliv res
tex te
an cien
Ġv u
i ff
ĠP er
Ġsou tien
et t
y on
Ġtex te
Ġpl ate
ĠM or
Ġm auv
Ġind Ã©p
isse ment
Ġch asse
Ġa mb
Ġchar ge
Ġm ode
Ġpar vient
s es
Ġ196 0
Ġcon temp
am bre
land ais
Ġcert ain
Ġaut or
onne ur
Ġmoy en
is c
Ġacc ompagn
ag Ã©
Ġphil os
in dre
Ġrepr ises
Ġconstitu e
Ġpro xim
age ment
ĠrÃ©p ond
Ġil lus
Ġper form
ĠRoy aume
Ã©ra l
sp agne
ap ol
Ġpas ser
Ġparti es
Ã¨ les
Ġf ron
ĠrÃ© ser
Ġ201 7
ĠFran Ã§ais
Ġconstru it
8 0
qu Ã©s
Ġv ois
ĠamÃ©ric aine
Ġconsid Ã¨re
r un
ru it
Ġdu c
Ġmeur t
_ {
Ġvites se
u tÃ©
ul ture
Ġproxim itÃ©
ol i
che v
Ġconf lit
g g
Ġr is
ĠC ert
Ġan ti
dess us
Ġvic ti
Ġli bre
A llemagne
ent rÃ©e
Ġind ustri
Ġsour ce
Ġpal ais
Ġb an
ten u
Ġemp loy
Ġinf orm
Ġpubli Ã©
Ġch rÃ©
ou re
ĠMich el
c ad
Ġtr ouver
Ġtra itÃ©
li r
Ġdoc ument
Ġren for
ĠT e
ĠConst antin
Ġn aissance
ĠE l
Ã©ra tions
oy en
f ait
de c
ĠF er
Ã¨ ve
Ġm ur
Ġv ous
ĠRich ard
Ġdollar s
ubli c
o ok
ĠT erre
ar ra
Ġb ande
Ġchamp ion
I s
ĠC omm
ĠÃ©tu des
est er
v ie
f ord
Ġc aval
ĠR om
Ġlong temps
ĠP al
Ġ18 0
Ġmari age
erm an
Ġmulti p
ĠprÃ© par
di en
Ġf erm
Ġcommer ce
ĠXVII Ie
ĠF or
Ġmont agne
it re
as te
Ġ199 8
lace ment
Ġ i
Ġra is
c ons
ant Ã©
Ġau teurs
ug us
Ġcher che
Ã¨ que
Ġn av
Ġins crit
ĠR ou
ĠMar c
Ġsimp le
tin g
Ġpuiss ance
Ġaband onn
D es
Ġf ab
Ġg l
Ãª que
Ġst ra
Ġv allÃ©e
Ġre b
Ġatt ribu
Ġre ti
ĠC omme
Ġinf lu
Ġpuis que
Ġpubli que
Ġpass Ã©
Ġch aÃ®
Ġstru cture
re ment
Ġb omb
Ġg ros
Ġcentra le
Ġlarge ment
Ġl y
Ã©r ant
ĠÂ» ),
en sion
Ġconse il
Ġdirec tement
d el
ces sion
Ġsem aines
Ã© cole
g el
Ġdern iÃ¨res
tis te
ne x
ĠD el
Ġm assi
Ġte l
ar itÃ©
ĠS oci
ĠrÃ©f Ã©rence
Ġsim il
Ġc Åĵur
Ġretr ouv
Ġinst all
Ġinternation al
Ġcoule ur
Ġar rive
Ġf ix
Ġstat ut
ĠJac ques
Ġesti me
Ġs Ã©cur
Ġinter prÃ©
Ġtex tes
ĠL u
ĠN ation
Ġp ot
ar di
Ġcaract Ã¨re
it ant
ĠW h
tiv al
Ġte lle
C e
Ġa ra
Ġcontin ue
un is
Ġpeup le
ĠB ra
I talie
L ors
ĠtÃ©m oign
Ġen ti
Ġm Ã©m
Ġprodu its
Ġm ob
ĠDick ens
, ,."
ĠrÃ©sul tats
Ġcons Ã©qu
end u
Ġappel Ã©
om bre
Ġ ant
ĠdÃ© termin
ĠA vec
2 2
ĠÃ©p ouse
vi du
Ġcert aine
out es
ou e
ĠCh rist
y r
Ġprog ressi
Ġimp os
Ġanci ens
Ġaut om
Ġtemp Ã©ra
Ġsomm et
al istes
ĠprÃ©c is
Ġreg r
ĠgÃ©nÃ©ra le
ĠvÃ©rit able
Ġdiff us
ĠD ieu
Ġex c
Ġs auv
ĠÃ©c l
au teur
Ġv Ã©
Ġm as
ol f
ph Ã¨re
ing s
Ġra di
ĠM er
Ġex tra
es tival
Ġl ieux
Ġs oient
ĠMal grÃ©
lis sement
Ġdeven ir
ĠJ uifs
app ar
ent raÃ®
Ġcon cep
ĠrÃ© alise
ĠB al
ou d
ĠbÃ¢ti ment
Ġpar ce
ĠpiÃ¨ ce
ĠB ern
organis ation
Ã´ tel
Ġexp lique
ur y
Ġar rÃª
Ġno te
an o
Ġinf Ã©ri
ri re
Ġsa voir
Ġprincip ale
Ġlet tre
Ġre d
Ġfr ont
ĠmÃ© dec
Ġm Ã¢
Ġolymp iques
ĠSt ar
Ġmeille ure
Ġcontemp or
Ġ &
Ġac tivitÃ©s
Ġpropri Ã©t
ĠNouv elle
19 8
s ui
pr ise
ĠÃ©le v
ĠÃ©li min
qu et
lÃ¨ ve
anis me
ĠP ress
ĠS es
ĠTh omas
Ã© quip
Ġl o
Ã©t ab
ite ment
Ġpie d
Ġo cc
du ction
avant age
ĠsiÃ¨ cles
Ou est
ĠT r
u y
ĠC ap
Ġdi vis
Ġ3 1
Ġlib er
ĠB l
ris ti
s titu
Ġdis pose
ĠthÃ© Ã¢tre
Ġh Ã©ros
fic ation
Ġprote ction
Ġfav or
Ġn os
in tÃ©rieur
fi ce
oc cup
c is
ĠMich ael
yp oth
Ġcont ribu
ib les
j ou
Ġl um
ĠbÃ¢ti ments
Ġs ing
duc ation
s h
ĠE lles
Ġtr ouvent
ĠproblÃ¨ me
ĠdÃ©c ision
Ġperm is
g a
az ine
ĠC our
Ġla isse
ĠrÃ© alitÃ©
f ique
e ction
ra le
Ġpour sui
ĠC ro
Ġdire cteur
Ã¨ ge
gl ise
Ġp aix
l ing
Ã©t at
ĠC et
Ġhau te
ar y
Ġrest aur
Ġproc Ã©d
Ġveu t
jec tif
Ġobjet s
Ã ¤
m et
du ite
ĠJ ack
ĠÃ©t at
ĠsÃ©ri es
Ġb al
a ve
ue il
o ti
ĠdÃ©f aite
ĠUn ivers
ol k
ĠV II
inf luence
Ġpropri Ã©tÃ©
Ġmod erne
Ġen ne
ĠreprÃ©sent ant
Ġn orm
Ġtechn iques
igne ment
e mb
Ġ199 6
i Ã©e
Un i
Ġcir cul
ch Ã©e
Ġ199 7
Ġs orte
Ġvict oires
ĠS er
Ġparti s
Ġcon duit
ro t
Ġneu f
g an
ĠCl ub
Ġmeille urs
Ġfor tement
Ġconn ue
alis me
ru p
Ġl ois
Ġsc ul
ien nes
ill on
Ġcompos Ã©
ĠcrÃ© er
ĠJ ames
Ġtra dition
Je an
ĠdÃ©c or
Ġme mbre
Ġpopul ations
Ġse x
ĠrÃ©g ime
ĠA lexand
ch ent
Ã´ me
Ġs aint
d on
Ġv oire
Ġ /
ĠMar tin
minist ration
Ġdi pl
arch ite
om in
ct ures
Ġins titu
Ġm aÃ®tre
Ġ6 0
ĠM il
Ġchans ons
Ġs ang
ra c
ĠPhili ppe
Ġcap acitÃ©
in di
Ġ199 5
onc Ã©
Ġtrans f
Ġcat Ã©g
Ġmar chÃ©
uis se
Ġcontra t
reu ves
Ã©tu de
Ġinternation ale
ĠÃ® les
Ġimm Ã©di
ri m
and s
Ġcons omm
ma tique
Ġs igne
Ġcon dam
ĠD on
Ġs core
Ġrejoin t
Ġti ent
Ġtable au
Ġchac un
ĠB ourg
ra ient
ver se
Ġcrois s
Ġam Ã©li
Ġmo teur
ĠB on
ol as
ic a
ic s
an moins
Ġg ard
Ġo ise
t or
ĠnÃ© anmoins
Ġadminist ra
ic ations
ari tion
ĠJ oseph
ĠL o
Ġt aux
Ġti tres
i ve
c Ã©e
Ġ â
ĠM ag
Ġroy ale
Ġinst ru
h iver
d ent
ĠF re
Ġprof onde
Ġdivers es
in Ã©
c ar
ol a
est re
ĠG en
ul tÃ©s
ti ennent
Ġpro ven
ĠL ib
Ġm y
ing ton
p in
Ġcour ant
it Ã©e
ct es
Ġrev anche
os ent
Ġri ches
ĠdÃ© cid
Ġre li
un d
Ġdist ribu
Ġ195 0
Ġt re
h ou
Ġp ub
g Ã©e
Ġn ob
av es
Ġc am
Ġjus te
esp ace
Ġm ati
Ġh ors
2 4
Ġph Ã©n
and es
Ġessenti ellement
Ġt ente
Ġar chÃ©
erg ie
ĠsÃ©cur itÃ©
g ique
ĠR h
Ġt est
mbl Ã©e
u f
Ġs oi
Ġju ge
Ġchap elle
Ġin tÃ©g
Ġ199 4
ĠrÃ©c it
ĠL uc
A S
inst all
rÃ©s il
2 7
Ġh ar
Ãī glise
Ġcon Ã§
lic ation
Ġsur n
ende main
w n
ĠK h
Ġcour t
Ġf ant
Ġoff re
ĠrÃ©guli Ã¨rement
c Ã©
g ent
a rer
c tu
int endo
ĠV ict
Ġ3 5
u elle
Ġcapit aine
ri ers
Ġrelig ieux
Ġuti lise
ĠM in
ĠL igue
Ġquit te
Ġsui vi
Ġar mÃ©e
Ġcan di
Ġp ierre
Ġph ase
ĠprÃ© d
Ġgu er
b or
ĠJ us
Ġp or
apol Ã©on
ĠGeor ges
ĠC omp
Ġl endemain
Ġstudi o
h istor
Ġ199 2
ro id
Ġdev ait
Ġserv ices
mon ie
ow n
o rer
ci er
Ġqu in
Ġam i
Ġvolont Ã©
qu Ã©es
utilis ation
ĠthÃ© or
on ie
m oine
Ġre vient
ĠN intendo
Ġanci enne
2 9
ra ine
ĠAl ors
i pp
i ze
Ġb out
Ġconst r
ĠcÃ´ tÃ©s
ch Ã©s
H istoire
Ġy eux
ĠA t
ou b
av ait
Ġid entif
Ġdyn as
t Ã©e
Ġv oi
Ġg raph
ĠthÃ© orie
7 5
enti el
Ġalle mande
2 3
ig h
Ġcolle c
ust rie
w ard
Ġs ites
Ġcoll ab
ĠM et
Ã©r ences
Ġun ique
Ġex cl
Ã©le vage
Ġsouver ain
Ġconsid Ã©ra
ĠPar mi
ustra lie
Ġphilos oph
Ġsec teur
} "
au c
Ã©n ie
2 8
ĠC o
exist ence
Ġdes t
Ġtemp le
Ġth Ã¨me
l ent
Ġa p
ĠÃ©c riv
Ġas pect
Ġstra tÃ©g
Ġconc ur
l Ãł
ĠE x
im age
Ġvain que
exp loit
Ġgar de
Ġma xim
Ġprof ond
Ġesp agn
b el
at re
acc ord
Ġtr ente
ĠÃ© di
ĠCel a
Ġf us
Ġpar ents
Ġc m
ri ques
Ġg are
ĠS im
t rÃ©
on ique
ĠD Ã¨s
Ġprincip ales
ĠdÃ©fin iti
ĠG i
Ġexp loit
ar que
ĠcÃ©lÃ¨ bre
ĠB os
Ġra sse
ĠG l
2 6
che ment
Ġsem aine
oir s
ĠÃ©v olu
ĠS tra
ro y
Ġpour tant
Ġch ute
ĠT om
Ġdi min
ĠK ar
Ġhau teur
f r
Ġindi vidu
on ge
Ġfa ci
Ġc re
ĠCh ine
k er
os es
o Ã¯
Ġfor Ãªt
tÃ©ri eure
Ġlet tres
Ġm oin
Ã©rÃ© s
ĠS ta
ig ht
h er
Ġp ap
tt om
ole il
Ġdisp on
Ġali ment
Ġp iste
Ġb yz
ra y
ĠdÃ©c ouverte
ul g
m y
ĠW il
Ġprof it
Ġrel ativement
ous se
Ġcr ise
Ġse igne
Ġmanif est
C ette
Ġc op
Ġcul te
ĠF orm
ĠnÃ©g oci
ĠÃ©t ape
l oi
g yp
te lle
Ġch ron
Ġrem ont
Ġconv ain
âĢ İ
h Ã©m
fic ie
h ic
Ġcoule urs
Ġch ant
Ġapp rÃ©
ĠP ays
ens es
Ġmort s
Ġjapon ais
Ġ201 8
Ġolymp ique
Ġsouh ait
Ã© tiques
ĠÃ©vÃ© nements
ĠÃ© dition
ab sence
ĠG ame
ĠRuss ie
Ġs it
Un ion
Ġf rag
our ces
ch i
u er
i Ã©s
2 1
Ġphysi que
aire ment
Ġlongue ur
ĠH ol
Ġsc Ã¨nes
v a
ort er
r ons
Ġconcern ant
Ġla iss
ĠB retagne
Ġpub lie
Ġcom te
Ġjourn Ã©e
Ġpro ches
Ġclassi que
ĠC ent
ĠrÃ© serv
Ã©t end
u ff
Ġe aux
ĠSec onde
âĢ ĵ
Ġn u
Ġdonn Ã©es
Ġdeven u
A t
w e
ĠS av
Ġhab itu
Ġm agn
ab eth
Ġ193 0
le ur
Ġmin ist
Ġsuff is
ĠNation al
Ġs ert
ag ue
Ġpeti tes
Ġcompos Ã©e
Ġsp or
o Ã®
use ment
Ġpoli ce
Ġtourn Ã©e
Ã©d er
ti ens
ad ministration
ĠscÃ©n ario
Ġpermet tre
ĠC ons
or mes
ĠrÃ© cup
ĠcÃ´ te
ur a
Ã©s ie
ĠM oyen
tr Ãªme
ĠM aur
Ġref use
li re
Ãª tres
ĠN or
p ital
at a
Ġat ti
Ġesp Ã¨ce
a ment
ĠB eau
Ã©rÃ© e
Ġloc aux
Ġch ante
Ġpr on
Ġhistor iques
ĠfrÃ© qu
Ġ3 00
tic les
ar k
Ġpuis qu
Ġutilis Ã©e
Ġnum Ã©ro
Ġliber tÃ©
, âĢİ
Ġt end
en u
Ġp ense
Ġrel ation
ĠlittÃ©ra ture
m Ã©di
og ne
aul t
Ġaffir me
iv es
Ġ199 3
Ġloc ale
n a
Ġf id
Ġdou ze
ĠF C
ut er
Ġtomb e
Ã¨ tes
Ġs antÃ©
Ġqu as
Ġdisc ours
ĠC as
cu pe
ĠdÃ©velopp e
Ġvoit ure
ĠP at
ĠD urant
Ġcontr Ã´
t ures
ĠS an
Ġprovin ce
Ġcinqu iÃ¨me
Ġdi men
Ġ199 1
Ġpo si
rÃ© t
Ġcan adi
r ou
ĠSu per
E spagne
Ġper du
ĠP ol
Ġindi que
Ġlut te
Ġplac es
ti g
Ġrest ent
esp Ã¨ce
ĠD an
Ġd Ã»
ill aume
Ġsecond es
Ġsu gg
oi ds
ler ie
ĠÃ©tu de
Ġpr ennent
ĠdÃ©r oule
Ġcontin ent
Ġs h
Ġob lig
Ġen vers
d ou
Ġen vis
ĠC al
Ġmon ument
Ġc ra
ĠR os
Ġar mes
Ġfl otte
ony me
r ise
Ġd urÃ©e
Ġcol lection
ĠDe puis
Ġsoci ale
Ġpra ti
ĠrÃ©sul tat
ĠXVII e
che c
Ã©b ec
Ġr Ãª
Ġnom s
ĠchaÃ® ne
Ã©d ie
Ġnouv el
6 5
U S
ĠrÃ© t
omm age
intÃ© rÃªt
P ierre
Ġcompr is
h onneur
Ġt Ã´t
ĠB ri
t y
Ġpar all
Ġsupp lÃ©ment
Ġ8 0
Ġ4 5
Ġsp ort
Ġter mes
Ã©ri e
ĠprÃ©sent s
Ġfin it
ĠÃ©pis ode
se ments
se il
3 5
par avant
ĠphÃ©n om
w ood
Ġspect ac
C l
Ã©r itÃ©
ibli oth
9 0
Ġl our
ati fs
Ġun iquement
Ãī c
Ġno tre
ri ent
Ġor gan
Ġfa Ã§
Ġd os
ĠÃ Ĥ
w ay
Ġcon ver
n o
Ġcol lÃ¨
n ov
ĠrÃ©alis er
ĠCel ui
b on
p ol
ĠT rois
4 5
ici ens
Ġmen tionn
qu in
Ġmais ons
Ġriv iÃ¨re
del Ãł
Ġte lles
Ġenti Ã¨rement
Ġg la
m ann
is ser
Ġb ron
a une
Ġg ens
Ġar ticle
Ġdis cip
Ã©m ie
m ond
Ġt ours
Ġimport ants
A frique
Ġsu it
ĠP rin
ĠsupÃ©ri eur
Ġarch ite
cess us
ĠvÃ© hic
Ġc Ã©lÃ©
Ġpil ote
y cl
ven ir
ĠF l
on te
ill Ã©
ar is
ĠcaractÃ©ris tiques
ĠrÃ©ser ve
Ġf u
ac tivitÃ©
ie uses
ass er
ay er
ĠdÃ©c is
Ġdiffic ultÃ©s
o tion
Ġla tin
os ant
ric k
Ġmoy ens
O n
Ã© ran
Ġrencont res
Ġnature lle
Ġexp lo
Ġseul s
l ine
Ġj ui
s ie
it an
ĠimmÃ©di ate
Ġqu oti
ĠdÃ© li
ĠS uisse
iv al
Ã¨ dent
Ġexp li
ĠeuropÃ© enne
Ġp ois
Ġp auv
oy er
Ġmes ures
Ġfr Ã¨res
Ġat h
Ġtrans p
ti m
ers on
op le
Q u
Ġpro cessus
ĠcrÃ© Ã©e
Ġs ovi
Ġm yth
Ġv on
Ġs ensi
um es
Ġlesqu els
ĠB as
Ġtra in
or ld
Ġsais ons
Ġapp ro
c er
Ġimport antes
ra l
atta que
âĢ Ķ
Ãª ts
ol s
Ġprop res
Ġinf luence
Ġfam illes
Ġmag azine
ul ation
Ġfut ur
Ġmauv ais
or a
te in
Ġintitul Ã©
m os
ĠCon seil
t he
ac tu
Ġfor mes
Ġdeme ure
a vec
n Ã©e
cu le
Ġpres sion
g in
ist er
ĠrÃ©par ti
Ġl ire
ĠG ar
Ġpar ois
ĠP endant
on se
Ġaccue illi
Ġcentra l
or y
emp le
ĠAn gl
ĠÃ©tab lis
Ġcomplex e
Ġch ose
ĠfranÃ§ais es
Ġcoup le
Ġreg ard
Ġm ots
ĠMar y
ĠrÃ©p ublic
Ġplan Ã¨te
Ġav anc
Ġdist ance
Ġre ine
tionn aire
Ġp oids
ĠB ou
Ġterrit oires
e k
Ġrecher ches
Ġenreg ist
ĠRe ich
Ġg az
Ġutilis Ã©s
ĠPlus ieurs
arch ie
op Ã©ration
ĠW ar
ir ent
h ors
ilis ation
Ġf it
Ġb e
ĠCert ains
Ġm Ãªmes
Ġgra v
olog ue
di a
Ġb re
Ġscientif ique
Ġrec onst
Ġpersonn el
Ġsp ati
Ġoffici ellement
Ã©p endance
ĠV en
Ġpein tre
r en
Ġp ape
Ġh eure
Ġr ares
ud g
Ġmen tion
Ġacc us
ĠB ay
Ġbl oc
ĠB ritann
ĠreÃ§ u
t ur
Ġf our
ĠC amb
Ġ17 8
ĠbÃ©n Ã©f
Ġa mp
ĠtÃ©lÃ© vision
o Ã¹
Ġfa veur
Ã©an moins
Ġcon texte
Ġad vers
Ġar tistes
ĠamÃ©ric ains
Ġpouv ant
Ġb ate
Ġac tivitÃ©
Ġaut oris
Ġ198 9
Ġc ab
ĠÃ©le ctions
import ance
Ġdra pe
Ġpriv il
Ġprogressi vement
Ġres se
6 7
Ġ198 8
or b
ĠB ill
ĠrÃ©c omp
Ġrejoin dre
Ġvoi es
Ġv ont
Ġcommand ant
Ġ19 20
Ġpour su
ĠH er
Ġc ant
i ant
anci enne
Ġclub s
is ode
Ġra t
or es
Ġn ul
ce au
au re
Ġ194 0
ĠÃ©le vÃ©
Ġdou b
Ġrais ons
Ġspect ateurs
ĠV er
ĠPrem iÃ¨re
ĠRe d
Ġr yth
Ġex Ã©cu
ĠVict or
ĠÃĤ ge
Ġs Åĵur
ĠspÃ©ci alis
Ġoise aux
es prit
po sitions
Ġma ch
ĠdÃ© ch
ĠB ru
l aires
Ġg lace
ĠA ss
Ġlim ite
ĠB at
Ġsit ue
Ġex cep
ĠPh il
i ance
Ġ4 00
Ġpouv ait
Ġmati Ã¨re
li ers
for me
Ġeffet s
onn Ã©
ĠreprÃ©sent ation
Ġg estion
Ġrespec tivement
ĠmÃ©t ro
Ġm m
v an
Ġqu anti
Ġouv ert
ĠS ainte
Ġam is
ĠTh Ã©
Ġb our
Ġprin cipe
l ymp
r itÃ©
ĠMar io
Ġcours es
Ġorigin ale
Ġcon ception
Ġpris onn
Ġchange ment
ĠM a
ĠrÃ© d
ĠsupÃ©ri eure
E x
Ġpe ine
Ġrelig ion
anim ation
Ġm asse
Ġbes oin
Ġr usse
Ġtr Ã´ne
Ġin aug
po le
ĠBel gique
Ġautor itÃ©s
Ġs ouv
Ġcomb ats
Ġconstr uire
ri che
Ġh a
li ge
Ġad ul
ĠE m
ord s
ĠHen ry
ĠrÃ© di
ĠB lac
Ġatte indre
ĠAn gel
d a
Ġt al
Ġ201 9
Ġm ine
omm Ã©
Ġmaj or
p ire
Ġarm Ã©es
Ġm ass
ĠcrÃ© e
Ġfran c
Ġpatri moine
Ġdynas tie
Ġpar le
Ġouv rage
Ġsc ol
Ġac qu
Ġdi vin
exploit ation
Ġf un
ĠJ ane
Ġport ant
Ġrel ie
ĠGu illaume
Ã©p reuve
Ġpublic ation
ĠdÃ© v
ĠK ing
Ġconc ours
Ġremplac Ã©
4 7
ĠA ugus
Ġrespons able
Ġrepr ise
as tique
in o
Â °
Ġb el
ĠT im
Ġhistor iens
Ġm ains
it z
il m
fi eld
Ġfron tiÃ¨re
ĠQu el
Ġv e
Ġch in
Ġc os
ĠQu Ã©bec
C on
Ġf leu
Ġab s
ath er
ĠUnivers ity
rÃ© g
ol ie
am our
Ġma tin
Ġaccue ille
ĠH am
Ġatta que
Ġsouh aite
Ġd ur
al titude
Ġv ent
it ent
Ġb assin
Ġmar quÃ©
Ġrom aine
tel l
ind Ã©pendance
" âĢĶ
ar re
ĠN orm
Ġdis s
Ã©d Ã©ration
Ġprojet s
atri ce
Ġse ction
19 5
ar ie
ĠentraÃ® ne
ce voir
Ġg agne
Ġob tenir
ind ustrie
er nes
ĠR og
Ġscul p
p es
Ġt op
Ġb asse
Ġprin cesse
4 8
ĠB ob
Ġh om
te ments
Ġvol can
us crit
4 3
ĠÃ©vo que
ĠN apolÃ©on
Ġ7 0
Ġchar gÃ©
ag Ã©e
Ġcir cu
Ġc ru
ĠM at
g Ã©n
Ġjou Ã©
gyp te
ĠR Ã©volution
lle mand
Åĵ urs
tionn elle
Ġau paravant
is h
Ġbron ze
ĠL Ã©on
Ġdi ver
Ġch au
ĠL ille
ĠE t
Ġprof esse
ur ation
is l
Ġb udg
6 8
ĠD ou
ĠV i
Ġfait s
6 3
Ġtr ou
ĠFran k
ay ant
Ġsoci al
Ġsus p
Ġg ui
aut om
abb aye
Ġa vi
ĠL iv
ĠB rÃ©sil
Ġa Ã©ri
Ġsp orti
ĠdÃ©r oul
ĠÃ©pis odes
Ġvainque ur
Ġmouve ments
Ġ Î
am a
Ġconc ent
Ġappel Ã©e
an ique
ĠmatÃ©ri el
Ġv oc
Ġas si
Ġpossi bilitÃ©
Ã©c onomie
rib ue
ĠconsidÃ©rÃ© e
Ġaj oute
P h
Ġcro ise
ĠPort ail
Ġfav oris
Ġgl ob
a uss
ĠA g
ĠA th
Ġdom es
Ġnob les
Ġc oupe
Ġvis ion
ĠrÃ©v ol
h eure
Ġmen ace
ag o
ĠdÃ©m ocra
Ġnive aux
rÃ© d
ĠM ax
Ġdi v
De puis
ustra li
ar ts
ĠC ont
ĠB an
ĠdÃ©m ont
Ġv esti
ag ent
Ã©p isode
Ġtot ale
Ġmal ad
Ġint rodu
B retagne
er ies
im m
tionn el
ypoth Ã¨se
ĠrÃ©alis ation
Ġlum iÃ¨re
Ġch iff
gu er
Ġch ambre
f red
k h
Ġp i
ĠAn gleterre
ob ile
Ġpass ant
Ġca us
ĠfrÃ© quent
n Ã©es
Ġid Ã©
Ġb ure
ĠdÃ©c enn
alif orn
u z
Ġc oÃ»
Ġnature l
Ġprot est
j e
Ġh os
ĠXV Ie
Ġfonction n
Ġpoursu it
id er
s ons
Ġpe int
ĠL or
ĠdiffÃ©r ence
Ġancien nes
titu tion
ĠdÃ©c lin
Ġde hors
Ġcomp osition
ĠbÃ©nÃ©f ici
Ġv ite
k in
ĠE r
Ġbritann iques
Ġfran cs
19 7
Ġfra pp
in tÃ©g
Ġoffici el
f ort
Ġid Ã©es
mis sion
ti Ã¨res
ĠT ou
ĠA llemagne
Ġentrepr ises
Ġenf ant
ĠÃ©tab li
Ġ198 6
o iles
ĠS y
Ġproc Ã¨s
Ġci vi
T h
Ġre le
Ġport es
S elon
Ã©n ergie
Ġconn aissance
Ġparticip ation
oc key
Ġhum aine
g Ã©s
Ġscientif iques
Ġtyp es
P lus
r ence
ĠG ra
3 7
Ġviv ant
Ġman uscrit
A d
ĠrÃ©v Ã¨le
ĠbÃ©n Ã©
s ki
Ġo ttom
Ġqu art
Ġ194 5
c re
lan tique
Ġf i
ol ue
ĠC ong
Ġple ine
ĠÃ©p reuves
tel lig
f ier
ĠN Ã©anmoins
ĠW orld
us age
6 4
ann Ã©es
Ġvi a
ĠÃ© lÃ¨
t ait
vid us
Ġd avantage
Ã© lection
n Ã©s
Ã©g Ã©t
Ġple in
8 5
u tÃ©s
3 9
ĠÂ °
ĠSc ott
ran ge
ĠX X
ĠXI V
{ \
in q
ĠprÃ©c ise
F A
Ġprin temps
ric ulture
Ġri che
ĠmÃ©d aille
Ġcommande ment
cesse ur
at ures
Ġv ir
ĠrÃ©g iment
ĠrÃ©alis Ã©e
Ġ15 0
ĠR ac
ĠPar ti
Ġre jet
Ġlo ge
it t
op he
Ġqu oi
Ġcon tient
ut ation
Ġjus tice
ĠN av
ĠAl bert
Ġ194 4
Ġplate au
Ġfam ili
in n
at oires
Ġ196 8
iblioth Ã¨que
ĠMar k
Ġrem et
Ã©le ct
un n
Ġv aste
ĠP eter
di um
Ġb oule
ense ignement
An d
Ġconstru ite
Ġm aire
Am Ã©rique
Ġd ieu
ang es
Ġlang ues
Ġp ouss
Ġb ras
itu de
Ġouv rages
ĠFran cis
Ġ198 7
Ġv Ã©gÃ©t
Ġtravaill er
ĠtÃ©lÃ© vis
Ġv ente
ab ri
l Ã©e
Ġpil otes
ĠR ay
Ġdipl om
m ant
Ġam Ã©n
j i
cl am
Ġtot alement
ĠB ur
Ġfil les
Ġtourn oi
y g
ĠP eu
ĠÃ©lÃ© ment
ag ers
Ġperm an
Ġmen ac
ĠAn t
Ġaff aires
ĠI talie
Ġblan che
ĠM o
Ġmassi f
Ġfleu ve
ĠdÃ© di
li z
Ġ9 0
m itÃ©
Ġpri m
duis ent
aut ant
Ġparc ours
ĠL yon
Ġl ic
ĠsÃ© j
Ġpr ises
Ġfon ctions
Ã© si
ant h
Ġun itÃ©s
Ġrapp el
hab it
ĠSm ith
ĠcÃ©lÃ© b
Ġsuc cessi
A ss
Ĥ ¬
Ġpar ler
ĠdÃ©but s
Ġmon uments
ĠÃ©c oles
Ġloc ales
u els
Ġs ait
] ,
Ã© arn
ĠA ut
Ġser ont
Ġpein ture
Ġsimp lement
ĠÃ©crit s
c om
ac te
Ġradi o
ĠdÃ©p end
lig ne
Ġcomporte ment
Ġmon op
iss ue
Ġ198 4
Ġ \
Ġb ran
3 8
Ã©c riture
Ġs omme
Ġtrav aille
ĠForm ule
Ġdi z
Ġcandi d
ri me
ĠIn ter
ĠcÃ©rÃ© monie
Ã©t ant
Ġregr oup
ĠB i
ig u
ass ociation
Ġinc onn
ĠConstantin ople
Ġv ert
onne ment
Ġmin im
Ġroy al
ĠÃ©lÃ¨ ves
ge ois
Ġsa tis
Ã©d rale
Ġvicti mes
ĠtempÃ©ra ture
ar riÃ¨re
at er
Ġrom ans
Ġrom ain
3 6
in form
ĠmÃ©th ode
ĠCl aude
Ġp Ãªche
ĠM ic
ĠdÃ©p lac
b urg
in k
ĠrÃ©v olution
Ġgrec que
Ġ ici
en a
Ã´ te
Ġparticip er
Ġpl ans
Ġst ations
ug by
nex es
en v
re y
our t
omm Ã©e
tu e
Ġmus ul
Ġoffici ers
os c
ĠBro wn
ri es
Ġv in
Ġmat hÃ©m
ĠmÃ©m oire
ĠÃ© ditions
out h
Ġpu its
S ur
Ġd on
Ġt ax
ĠMar se
ĠrÃ©uss it
ĠV an
Ġconstitu Ã©
4 4
Ġp ou
Ġop Ã©rations
Ġcli mat
Ġinspi rÃ©
ti r
Ġv ieux
H en
in ation
os Ã©s
Ġacc omp
ĠS eu
Ġdis que
Ġent ou
Ġord re
ri mer
ol is
ot o
ĠEn tre
Ġdire ct
ĠimmÃ©diate ment
ag on
Ġ198 5
ĠO u
Ġ191 4
ĠSoci Ã©tÃ©
si er
ve ill
Ġcath olique
f ric
ĠP et
Ġti ers
Ġstat ue
Ġmont agnes
Ġt ran
ve urs
Ã§ a
Ġmondi al
Ġpar lement
Ġv oient
ĠA mer
Ġeff ic
Ġconcep t
Ġf estival
Ġsu is
Ġemp run
Ġdrape au
th ur
on i
st ron
Ġcont act
Ġconc erne
exp Ã©ri
ĠAm Ã©rique
ĠRoy al
Ġchap itre
Ġa ctions
exp Ã©dition
Ġ[ ...
ĠM ur
ĠLe ur
ĠV ers
Ġpart age
ar m
ĠT out
Ã© ducation
ĠV e
Ġbien s
ĠlÃ©g isl
oi gne
or ph
ĠprÃ© t
ĠP r
ill ot
Ġpubli Ã©e
ĠÃ©v iter
Ġmaj eure
ĠrÃ©s istance
ĠdÃ©velopp Ã©
ub e
Ġla isser
Ġremar qu
re urs
Ġde viennent
Ġb ap
ĠP i
Ġ198 2
ad ap
in cl
onn er
Ġangl aise
Ġprol ong
ĠimpÃ©ri ale
Ġs il
Ġfou illes
Ġh ect
ĠAl l
Ġloc al
Ġex ter
Ġs cience
Ġsec rÃ©t
ic al
b lement
b b
Ġm urs
om Ã©t
Ġquit ter
Ġb leu
ĠA li
ĠJ u
Ġoffici elle
Ġ rois
Ġch oses
ĠW i
iti me
Ġgouver neur
3 3
L ouis
t ain
Ġfai bles
Ġlesqu elles
Ġd o
Ġau teur
Ġrec ouv
ĠAn ne
ĠdÃ©finiti vement
al li
erg Ã©
ir s
ĠQuel ques
ĠC ra
ĠprÃ© p
ap h
il ier
ĠJ o
Ġar riÃ¨re
Ġanim al
eff ec
ĠNic olas
Ġin ves
ĠH ug
he im
Ġmont rent
ĠlittÃ©ra ire
Ġ198 3
ĠreprÃ©sent ent
B C
Ġt ort
Ġconc ert
Ġsupp ort
Ġmar che
Ġretra ite
Ġal ler
ar te
Ġartis tique
dou ard
Ġp reuve
an alyse
Ġremp ortÃ©
Ġtent ative
Ġaccep te
Ġm onn
Ġm Ã¨ne
ĠdÃ© l
ill age
ĠmÃ©di Ã©v
ĠA us
Ġaff ec
Ġl ie
Ã©r on
ĠdÃ©velopp er
ĠMaur ice
Ġa ction
Ġgu it
6 6
b o
entre r
Ã´ pital
Ġsy mp
Ġviv re
y a
Ġt ab
os Ã©e
ĠT er
Ġsp ir
Ġmin ute
Ġl ien
ĠBer lin
Ġpar ten
ĠS imp
lo re
u Ã©
ro ss
ex ception
aff aire
ĠÃ©conom iques
ĠdÃ©b ute
Ġfer me
Ġpie ds
Ġsujet s
re ux
Ġn oire
de ux
Ġv entes
Ġper te
Ġris que
ensi ve
Ġmes s
Ġinflu enc
Ġh ommage
ĠWal t
ac teur
S t
ri en
in v
Ġf Ãªte
acc Ã¨s
si de
Ġrest er
u k
ri ct
an es
Ġt onnes
ra ire
ĠÃ© vid
Ã©c riv
T he
Ġac teurs
Ġaur aient
Ġposs es
Ġconser ve
ĠÂ» ).
Ġrelig ieuse
Ġp a
ĠM r
Ġ6 00
Ġc ui
ĠindÃ©p end
Ġ[... ]
M al
R e
Ġs ch
Ġdu re
ac tions
Ġprop or
Ġret ourn
Ġcath Ã©drale
Ġsenti ment
Ġmain tenant
Ġc oul
end ue
Ġ196 7
Ġsuivant es
z a
Ġv enir
ĠH all
Ġra p
ad er
ash ington
ĠN ous
it ch
ur ie
Ġfin al
S i
Ġen vi
ĠM y
Ġsembl ent
ĠF i
ĠsÃ© qu
ĠC aliforn
aill on
O rient
ĠP rÃ©
ĠprÃ©sent ent
Ġp ortÃ©
Ġtra it
Ġan tique
ĠN antes
ĠprÃ©cÃ©d ente
Ġcommerci al
4 9
Ġpuis se
Ġatt est
Ġcroiss ance
ĠB o
ult an
ĠL oire
Ġmin i
Ġess ais
Ã©t ro
app el
Ġoc cupe
ĠL i
Ġter rest
gl om
ĠÃ© lu
Ġcom itÃ©
u il
ĠdÃ© riv
ĠN orth
Ġcour te
ul er
Ġdiff usion
s bourg
Ġiss us
Ġmas cul
Ġr h
tin s
r Ã¨te
Ġsus c
Ġk g
Ġdom icile
ĠrÃ© ussi
Ġab ou
5 5
m ation
ĠH or
I r
Ġor b
Ġcap able
al ys
ĠAnd rÃ©
or tÃ©s
Ġ196 9
crip tions
Ġdirige ants
op in
Ġcommenc ent
ĠcatÃ©g orie
ĠPrem ier
ru its
ĠpropriÃ©t aire
e b
ĠAn dre
ar r
ĠC am
ĠP uis
Ġfor ment
Ġatte ign
ro b
Ġra y
ĠW est
alis Ã©
Ġvi ce
ill a
Ġfor Ãªts
Ġlib Ã©ra
ĠconsÃ©qu ence
Ġfait e
un al
ĠP an
Ġmet tent
Ġquin ze
Ġimp li
it a
ic tion
Ġt endance
ra ss
ĠM as
ĠPar k
rid ge
ex tÃ©rieur
enti tÃ©
Ġfond s
ĠprÃ©v u
9 9
Ġl un
Ġrapp elle
Ġra ces
Ġbyz antin
Ġv o
Ġre j
tis sement
ĠBern ard
Ġd ite
fi Ã©
Ġexcl us
ĠJ Ã©r
adi ens
Ġmalad ie
ĠI r
Ġsouv enir
Ġra re
Ġfond Ã©e
ĠAlexand re
Ġrec omm
Ġsuiv re
ent ure
Ġmen Ã©e
Ġag ric
Ġjeunes se
ĠW ashington
Ġquar tiers
Ġenne mis
c a
Ġ197 2
Ġdiffic ultÃ©
occup ation
Ġguer res
ĠG au
. ),
Ġpl a
cons ultÃ©
c omm
w ards
er se
w in
ra ins
el lo
our ir
Ġpro duire
ĠM Ã©d
ĠprotÃ©g er
d in
Ġpar fait
at te
Ġdesc end
ather ine
Ġbudg et
ph e
ĠlÃ©g ende
ĠB re
Ġscien ces
Ġm os
am Ã©li
Ġconn us
rig ue
c ent
Ġaj ou
i ographie
Ġn az
aÃ® tres
Ġjourn aliste
ĠT unis
Ġconstitu ent
ĠL os
Ġdat ant
it ations
ser ver
Ġ197 8
Ġqualif ie
fic es
ag a
ĠE ur
ten sion
Ġ196 6
Ġenv oie
ici en
Ġim agin
as es
ĠD en
Ġrec ru
ĠdÃ©f ait
ĠRac ing
ci ent
Ġsui vent
er ait
Ġiss u
Ġcaval erie
Ġpo Ã¨me
Ġ3 2
Ġemp Ãª
ĠdÃ©couv re
iter ran
og ue
Ġ197 5
Ġindi vidus
ĠrÃ©v olu
histor ien
3 4
6 9
Ġ erre
entre prise
Ġsimil aire
d is
Ġche fs
Ġretr ouver
ĠNo tre
Ġh ui
Ġdoc uments
Ġprofonde ur
Ġminist Ã¨re
Ġv ote
ĠH ong
Ġf onde
Ġhum ains
ĠprÃ©cÃ©d ent
ĠSav oie
Ġ7 5
Ġsignif ie
Ġin ten
Ġsub s
Ġs oir
au tÃ©s
st ru
Ġord res
en di
ĠB es
Ġrend u
un itÃ©
Ġcomm ission
Ġpo Ã¨te
al i
ĠP aci
Ġmod ernes
ĠMarse ille
Ġcons ul
ĠLors que
Ġara be
ã ĥ
Ġc ens
Ġj aune
Ġdest ruction
E d
z iÃ¨me
Ġsovi Ã©tique
Ġcivi le
Ġa ide
ograph iques
ĠD iv
ĠG ui
Ġconn aÃ®tre
Ġsix iÃ¨me
au f
lÃ© ans
Ġjus tif
E S
en ue
Ġver sions
ĠphÃ©nom Ã¨ne
Ġt ur
Ã§ ons
ĠintÃ© ress
A g
Ġh ockey
ite urs
i che
Ġ3 8
Ġvari Ã©tÃ©
3 2
f er
al lÃ©
Ġ197 9
Ġgagn er
ĠR ec
d ie
Ġp anne
Ġim ages
vie w
Ġsur vi
Ġcan al
Ġmaj eur
Ġfranch ise
is tique
Ġres pect
6 2
o o
Ġb elle
ist ant
ĠrÃ©f ug
ce aux
Ġal tern
ĠSt an
Ã ¦
ĠB ir
Ġvill ages
Ġappar aissent
ĠcomplÃ¨ tement
Ġsitu Ã©s
Ġallemand s
Ġn arra
Ã©s ar
Ġal lant
ĠSta de
th el
Ġconn aiss
Ġreconn aissance
Ġan c
Ġ197 7
ul sion
Ġsa v
ĠÃ©ch app
olu me
Ġ197 4
ĠGu y
d om
Ġm ig
ant erie
archite cture
Ġc oÃ»t
ĠP en
rÃ©s or
Ġiniti alement
Ġconf ront
onn Ã©e
Ġress ources
4 2
Ġpar is
ouv rage
Ġcons iste
ĠrÃ©alis ateur
Ġsymb ole
Ġb il
Ġprofessionn el
ĠdÃ©c len
Ġmilli on
Ġenviron nement
Ġspir itu
ĠrÃ©p and
Ġparall Ã¨le
Ġport er
Ġhect ares
i ale
Ġde l
ĠT oul
ang Ã©
Ã©ric ains
ĠJ uli
Ġcal cul
ĠsecrÃ©t aire
Ġm and
S aint
ĠJ im
Ġrepr endre
ĠS ar
olog ne
9 5
an ie
ag Ã©s
ian o
roph Ã©e
rÃ© al
Ġex trÃªme
con te
h Ã´tel
z i
Ġp el
ĠlÃ©g Ã¨rement
Ġservi r
Ġenreg istre
ĠBos ton
Ġt Ã¢
Ġpl ais
Ġou est
ĠV ille
Ġchois i
Ġinform ations
N H
ĠA llemand
if e
Ġprovo que
il Ã©
Ġmar ine
Ġ% ,
Ġcro y
Ġoccident ale
ti qu
Ġmar quÃ©e
Ġcar te
Ġutilis ant
am m
Ġcons Ã©cu
ĠreprÃ©sent ants
Ġrestaur ation
Ġrat ta
ar b
A ustralie
h an
Ġchange ments
ĠdÃ© tr
Ġcomp ort
Ġorgan ise
ĠprÃ© cip
ouve au
pi ration
Ġ8 00
ĠP ont
Ġappr end
si ble
ĠS k
av is
ĠC elle
Ġpr ison
emp ire
Ġob jectif
Ġconf Ã©rence
Ġport ent
r ome
ien nent
Ġpo se
Ġdom aines
telle ctu
ĠH ill
Ġpos t
til lerie
ist oires
Ġret ard
Ġ197 6
Ġ196 4
ĠÂ», .
Ġdomin ation
Ġcon dition
Ġfab ric
Ġs Ã©p
Ġau quel
Ġj ardin
ĠV ir
ani el
ĠM iss
Ġ197 3
Ġsign al
Ġaj out
Ġqu es
ĠB lan
Ġrec ense
Ġreven ir
Ġra conte
Ġsoci ales
Ġposs Ã©d
Ġcit oy
ond s
Ġnom mÃ©e
Ġpens Ã©e
Ġquas i
p ent
ĠT or
M an
Ġpubli cs
Ġ194 1
Ġprisonn iers
B as
ise mbl
m Ãªmes
ĠG ro
Ã´ ts
Ġmod Ã¨les
Ġdonn ent
Ġchac une
ĠÃ©trang ers
Ġgla ci
Ġaux qu
Ġren v
Ġsal les
Ġreven us
ĠM el
ĠM erc
Ġdispar ition
ograph e
Aut riche
u tion
Ġdispar u
ĠcomplÃ¨ te
Ġprofesse ur
u ant
Ã© o
ĠJ ules
Ġtourn age
Ġnour riture
liz abeth
ĠF lor
ĠV ol
Ġfond ation
^ {
C omme
Ġ Åĵ
ĠÃ Ĺ
ens itÃ©
Ġryth me
6 1
Ġin tellectu
di ction
Ġfais ait
Ġperform ance
Ġ3 7
Ġdonn ant
Ġn or
Ġri ve
Ġis ol
Ġr ur
Ġc ime
ĠdÃ©b at
Ġc itÃ©s
ic an
ag riculture
Ġtra itement
Ġ196 5
ĠH aute
Ġces se
x ford
Ġfun Ã©ra
Ġpar aÃ®t
Ġchois it
Ġcomb in
oc Ã©an
Ġconsomm ation
ĠH istor
Ġmass ac
Ġrapp ro
Ġan g
Ġmont Ã©e
Ġs ki
Ġn ations
Ġeffectu e
ibli ographie
ĠWh ite
y o
ĠS il
ĠrÃ©guli Ã¨re
ĠT w
ĠÃ©g yp
t o
Ġcon duite
A lexand
Ġass ure
Ġid Ã©e
Ġla issant
Ġnation aux
Ġnav ig
ĠÃ© cole
ĠrÃ© duit
Ġob tenu
Ġim age
Ġro ck
Ġon ze
Ġ194 3
Ġmet tant
Ġvale urs
m Ã©s
Ġch an
Ġ194 2
Ġvicti me
Ġa x
ĠrÃ¨g les
Ġdestin Ã©
Ġm aÃ®tres
am Ã©n
Ġra v
Ġrec ue
Ġconstitu tion
Ġvisite urs
ĠsÃ©j our
Ġs Ã»
ĠH el
Ġquar ante
ĠL im
ĠrÃ©parti tion
alog ue
ĠAngel es
Ġt on
ais es
Ã©quip age
opp osition
Ġ193 9
5 8
le m
Ġcommun ication
Ġorganis Ã©
mos phÃ¨re
r omp
Ã©ro Ã¯
ĠQ ue
Ġviol ence
ĠBlac k
ĠG Ã©
Ġnom me
Ġrepr is
Ġra c
Ġital ien
Fran ce
ĠrÃ©p onse
Ġtra ces
ass Ã©
Ġouv re
en tin
Ġj uri
ĠmÃ©di as
ĠW all
3 1
is er
Ġvra iment
j a
Ġp ages
Ġt ardi
Ġ198 1
Ã¡ n
and ie
aut oritÃ©
omb e
b a
Ġs or
Ġh yd
Ã´ les
olog ues
ĠrÃ©t ab
olk ien
ri Ã¨res
Ġg ri
di r
ĠG er
ĠH al
Ġrapp orte
Ġ194 8
g ra
Ġdeven ue
Ã©cur ie
ĠexpÃ©ri ment
c cident
is p
ĠC at
Ġcons cience
app arition
Ġmilli ers
Ġp ati
Ġs aut
qu oi
Ġform er
ch Ã©es
ĠR am
Ġr ugby
anc er
ĠapprÃ© ci
Ġra dic
Ġfor tif
Ġapp elle
Ãī cole
Ġch im
Ġrep ro
Ġtra fic
Ġst and
Ġmon ast
Ġcour onne
Ġ196 2
ad o
Ġport Ã©e
er ci
ĠC entre
ĠdÃ© te
Ġl u
Ġth Ã¨mes
Ġpoin te
ĠCong rÃ¨s
ti les
enf ant
Ġquanti tÃ©
m ine
5 2
ĠCh aque
D Ã¨s
Ġb all
Ġdi am
ĠB our
Ġtra duit
ĠCar l
ĠBe at
Ġfaci lement
Hen ri
Ġs oup
Ġjus que
ĠXV e
ĠFin alement
M ich
res sionn
Ġcomp Ã©t
ĠprÃ©sent Ã©
S S
d o
app r
ĠfaÃ§ ade
en z
Ġm aÃ®t
ot a
ĠMont rÃ©al
or ge
ĠL NH
Ġtrouv Ã©
Ġocc asion
Ġmoin dre
Ġprivil Ã©g
Ġ +
an y
ĠP ers
ab and
ĠSim on
ĠAllemand s
J ac
Ġm ille
Ġp un
P aul
s te
ĠM ay
ĠA c
Ġcar b
Ġmain tenir
mÃ©di aire
Ĩ thel
il itÃ©s
erg er
ĠNor v
ol iques
ag u
Ġ197 1
Ġsorti r
in tes
Ġperform ances
qu ie
4 6
ĠS ol
Ġsa tell
ĠÃ©t al
Ġp av
ar ticle
or ne
onc er
exp ression
or ies
di ci
k et
ier res
Ġ194 6
Ġfig ures
ĠF Ã©dÃ©ration
Ġcan ons
Ġdistribu tion
4 1
ĠL ac
ĠAn ton
Ġport rait
Ġrelig ieuses
reg istre
Ãīc osse
Ġa te
om er
anim al
ĠÃ©tudi ants
Ġp ure
ier ge
Ġutilis er
Ġli Ã©es
ĠSimp son
Ġtr oupe
Ġ194 7
rup tion
Ġdess ins
ct ur
Ġf aute
Ġb illet
ĠRog er
Ġcircu it
D ame
u me
Ãī gypte
Ġvis age
Ġapp li
Ġma illot
Ġgr is
b i
b as
Ġ ul
ĠAn n
Ã©tab lissement
Ġ =
ĠC er
Ġr ues
Ġser aient
Ġlong ues
ĠÃ©ch ange
Ġcont ro
Un ivers
w ell
Ġro be
Mar ie
Ġm u
ĠCh amb
Ġren ouv
Ġath lÃ¨
ĠB art
ĠN eu
19 0
Å ¡
Ġc uis
rÃ© f
ob tenir
Ġti r
h ar
Ġli Ã©s
Ġcom tÃ©
alis er
Ġeu t
Ġp an
ĠGre cs
ĠG il
Ã©t aient
Ġv iennent
ĠdÃ©m ar
Ġvra isembl
Ġv ais
os h
7 7
ic o
Ġform Ã©
duis ant
Ã³ n
re ction
di ens
ĠLiv re
Ã© op
ti le
am in
ĠPe tit
Ġm ent
ĠB ert
ĠR Ã©
Ġar ts
Ġatta ques
Ã¨ lement
Ġin vent
if ication
g ar
Ġm ix
ch amp
Ġs Ã©v
di enne
av ance
Ġital ienne
ak e
ĠÃ©t ro
ell ent
Ġac cident
Ġconcl ut
Ã©criv ain
B A
an Ã§on
ĠT itan
ĠT olkien
ten ue
Ġpopul aires
ist ocra
Ġm oul
ĠT ous
Ġutilis Ã©es
pol lo
C es
os a
eur os
Ġlanc er
Ġcollab oration
Ġphilosoph ie
ur ance
ĠL is
Ġv an
ĠA frique
Ġac cessi
Ġactu el
Ġant Ã©ri
Ġâ Ĥ¬
Ġque ue
Ġra l
t rice
ang le
in et
Ġ2 50
ĠH istoire
Ġch Ã¢
Ġr outes
o f
Ġcon quÃªte
am i
uc lÃ©
lis h
Ġes c
Ġti t
Ġli Ã©e
Ġques tions
Ã ±
Ġs olution
Ġn ette
Ġ3 9
Ġrep roduction
Ġpouvoir s
Ġvoit ures
Ġly cÃ©e
A b
ĠP lan
Ġpol ici
r ari
Ġ ouverte
enti elle
re ts
Ġpro vis
ut Ã©e
ĠCh risti
Ġsou ligne
Ġprom otion
ĠexpÃ©ri ence
ĠpropriÃ©t aires
c el
Ã©r y
Ġsignif ic
ĠC amp
ĠC lar
Ġth erm
Ġquat or
ĠN i
ĠQu and
res ser
Ġ4 8
oug h
entraÃ® neur
A cad
Ġp ous
Ġf en
ĠA ra
Ġproven ant
c op
t ations
Ġsuiv ants
Ġconserv ation
ĠT ourn
ĠE st
Ġmon archie
op ot
ĠreprÃ©sent ations
Ġm ic
ĠeuropÃ© en
Ġdistin gue
Ġg re
ĠP in
ĠpÃ©ri odes
ĠentraÃ® neur
j u
oin t
ĠMar s
Ġculture l
Ġdiffic iles
ĠBritann iques
Ġ $
ĠdÃ©couv ert
Ġterrit ori
v ard
ĠM rs
Ġpro position
Ġli Ã©
b us
ori z
ĠMc C
ĠC onc
ĠgÃ©nÃ©ra ux
ĠnÃ©cess aires
Ġord in
ĠTr ans
. )
Ġb rig
Ġdisp ute
Ġatt endre
Ġcontraire ment
Ġloge ments
Ġs in
ĠB ow
Ġqu alitÃ©s
om ie
are t
Ġ1 20
ĠC Ã©sar
Ġmultip les
Ġs tÃ©
li gn
Ġr itu
An t
Ġmen er
expÃ©ri ence
Ġp Ã¢
Ġs oix
Ġv olume
Ġb ass
ĠV I
ĠdÃ©c Ã¨s
Ġremport er
R Ã©
Ġd ram
Ġapp are
Ġmis es
glom Ã©ration
le urs
ĠB oy
a che
Ġa stron
ap es
Ġcompr enant
ĠJohn son
Ġtra duction
Ġdis position
Ġsep tiÃ¨me
Ġspor tif
Ġ20 20
al iment
ist an
Ġcl air
ass ade
anc el
D urant
Ã© z
Ġcon ven
ĠÃī ditions
Ġci el
ycl op
E R
ĠS Ã©n
Ġpersonn alitÃ©
Ġpra tiques
Ġorigin al
oun d
Ġd anger
Ġ195 8
ĠRen Ã©
Ġm ys
Ġle cture
au gment
Ġmod ern
Ġten ue
ĠcompÃ©ti tions
Ġsuper ficie
r us
ĠH it
Ġcri ti
in iti
Ã§ onn
ign on
ou che
Ġpar oles
ĠC atherine
Ġten u
i us
ĠnÃ©goci ations
Ġlaiss Ã©
l og
Ġvoyage urs
A vec
m ique
el li
ĠS ant
ĠK n
Ch ar
ĠarrÃª tÃ©
c y
Ġ ,
ĠR Ã©f
um a
Jac ques
en e
ri cole
Ġrend ent
d ont
ist ent
Ġfond Ã©
Ġenc ou
is mes
Ġb us
Ġpl antes
ĠsÃ© ance
ĠXII Ie
Ġurb aine
autom ne
ul a
Ġco Ã©quip
Ġorganis Ã©e
ĠAngl ais
r ans
Ġp ierres
ar tillerie
ĠS atur
ĠÃ©lect rique
O lymp
m ie
Ġcon qu
Ġpass agers
s ter
Ġpar viennent
ans ion
Ġesp ace
Ġexemp laires
Ġcoup s
ĠAus ten
j an
Ġar rivÃ©e
Ġ196 3
Ġd ieux
ĠA pp
inf anterie
ĠXII e
ĠrÃ©d action
Ġp y
Ġhum ain
Ġretour ne
ĠconsÃ©qu ences
or ique
un t
ĠL ong
ĠE mpire
ĠCh ic
Ġ193 8
Ġdyn am
B ibliographie
Ġsub it
inc ent
ĠrÃ©sid ence
or Ã©e
itÃ© es
Ġti ss
Ġmarch and
Ġpartis ans
Ġb ourg
ĠrÃ© el
ul le
Ġreconn u
Ġchin ois
Ġs Ã©n
Ġf oss
Ġh on
ĠCaliforn ie
Ġp ertes
al u
ais ons
ĠT ours
ĠG ir
lo ie
rÃ©d Ã©ric
s tÃ©
ĠP au
ĠrÃ© duire
emp loi
Ġvi ande
Ġimport ance
ĠCon f
Ġe m
Ġcamp agnes
Ġdes cription
Ġcomp l
ĠgÃ©nÃ©ra tion
rag on
Ġmajor itaire
ord in
ĠprÃ©cÃ©d ents
ĠrÃ©f orme
en registre
Ġre lÃ¨ve
imp ose
l age
ra Ã«l
ati e
Ġvis ant
Ġrespons ables
P ro
ĠR Ã©g
ĠCh ris
In dre
Ġorig ines
Ġconfir me
Ġexter nes
Ġaccompagn Ã©
ai es
tÃ©ri eures
Ġdes ser
Ġg erman
ĠR od
ouv re
ĠprÃ©sent er
N e
Ġconf iance
Ġop Ã©ra
Ġpeup les
Ġfourn it
ĠC ity
ĠO li
fin ale
ĠreprÃ©sent Ã©
Ġtable aux
A sie
al a
ĠintÃ© rÃªt
Ġ193 4
Ġcircul ation
Ġm Ãª
ĠJ ourn
tra it
Ġplac Ã©
Ġt oit
ĠCh ap
Ã©di fice
ĠDiv ision
ĠM ex
Ġacc Ã¨s
Ġcy cle
Ġsing le
Ġ191 2
Ġaspect s
av age
Ġs ombre
Ġc ous
ĠT ri
ĠR on
A C
j ect
ĠM Ãªme
Ġ196 1
ĠA dam
Ġpersonn alitÃ©s
Ġvis ible
ĠCol omb
Ġprovin ces
ĠPaci fique
it aine
ĠM aison
ĠdÃ©f endre
ĠcollÃ¨ ge
Ġpauv re
Ġp ne
ĠA wards
ĠlÃ©g end
Ġmy the
Ġv all
lÃ© gu
Ġcommun autÃ©s
Ġretr ouvent
Ġremplac er
ĠdÃ©cid Ã©
7 9
h n
Ġl ign
ou ille
ĠÃ© chec
Ġne ige
Ġsitu Ã©es
ĠL and
ill y
Ã©t rang
re lle
ne aux
Ġb le
ĠT ar
ĠrÃ©alis Ã©s
ĠspÃ©ci f
Ġsatis f
Ġ195 6
ĠÃ¢ ge
Ġsac ri
c ol
d en
Ġapp ort
mi le
Ġlang age
Ġalbum s
ul l
Ġcons ole
ĠÃī tat
Ġparti ellement
Ġar tif
ĠÃ©trang Ã¨res
n ant
ĠÃ© vent
ĠF e
Ġapp arition
Ġper Ã§
Ġinter dit
ĠdÃ©p it
ĠdÃ©p lace
Ġrapp roche
az z
ĠrÃ©v Ã©l
Ġcinqu ante
Ġvesti ges
7 6
et y
ĠS ous
onn a
Ġsp orts
Ġ195 4
Ġfonction nement
Ġmaxim um
Ġagric oles
v ue
ar tiste
Ġstru ctures
Ġ orth
Ġb aie
ĠprÃ©par ation
ro vi
ac ts
Ġaccue ill
ar iste
Ġm Ã©n
Ġch ale
ul aires
ut enant
ĠsupplÃ©ment aires
ĠrÃ© action
Ġtra m
cont re
Ġclass es
7 4
i um
Ġcom ics
ĠD ub
Ġst ock
Ġb andes
si as
ĠrÃ¨g le
Ġalli Ã©s
Ġar c
ron ique
ĠdÃ©f end
ĠÃ©t oiles
Ġeff orts
Ġmis sions
B ien
ra tions
ce mment
ĠD ar
Ġcompr endre
Ġrev ue
a Ã©ro
u mb
Ġag ricole
Ġm orte
ĠM en
os Ã©es
nation al
uc k
Ġv Ã©n
Ġab rite
j on
l as
que mment
Ġtu Ã©
ĠÃ©l oign
ĠrÃ©vol te
ti cs
ĠP Ã©
Ġch at
Ġcent aines
ĠvÃ©hic ules
ĠG as
ĠJ osÃ©
Ġfavor able
7 1
Ġrem onte
Ġcommenc Ã©
Ġv endre
ĠprÃ©sent es
An ne
Ġconser ver
h uit
Ġcomp let
Ġsyn dic
Ġregr oupe
id itÃ©
app ro
ra se
Ã©ri r
Ġ16 0
ĠcaractÃ©ris tique
Ġ ign
ur t
ĠrÃ©c ol
Ġconser vÃ©
Ġb Ã©t
ĠM ass
Ġviv ent
Ġs oleil
Ġ3 3
Ġsol aire
Ġbes oins
Ġc oh
Ã©t h
Ġsou lign
Ã¨g re
Ġpat ron
m atiques
Ġl iens
ĠD aniel
Ġass urer
ĠrÃ©c its
Ġar bres
ĠrÃ©p utation
Ġsuffis amment
Ġcomp ose
Ġdestin Ã©e
ĠA ir
Ġra ch
rie urs
Ġjapon aise
Ġnoir s
sse mblÃ©e
m il
Ġl ing
Ġpas sent
Ġtemp or
, "
ve ux
ĠnÃ©cess itÃ©
Ġenv ah
ĠStra sbourg
Ġc ouverture
ĠP ic
iti Ã©
Ġsyn th
Ġactu elle
ĠÃ©lev Ã©e
Ġen tier
Ġ194 9
environ nement
Plus ieurs
b an
lo v
Ġ195 9
anti ne
Ġten ir
Ġle cteur
Ġn uclÃ©
Ġst y
k o
m ans
ĠB ut
Ġtra ins
sid ent
or ch
ac itÃ©s
ĠG o
Ġimp lant
Ġconstitu Ã©e
Ġsign Ã©
Fran Ã§ois
ĠrÃª ve
is Ã©
au tes
ĠC ompagn
Ġcomp ter
Ġtour ne
ĠsociÃ©tÃ© s
Ġpuiss ances
ĠNorm andie
F in
un s
Ġb u
ale m
Ġcent res
end ra
Ã©v Ãªque
Ġmont rer
Ġbr Ã»
f ie
Ġp rivÃ©e
Ġb ret
all er
Ġam en
Ġposs Ã¨dent
Ġclass Ã©
Ġh istoires
Ã¨s es
ter ie
Ġtour isme
ĠdÃ©t ruit
ĠL ang
ĠPl ay
Ġsuc cession
Ġter rains
ĠRÃ©f Ã©rence
end ie
ĠÃ©c rite
Ġpol y
Ġ191 0
Ġpens er
ĠA ux
Ġcol onnes
or p
Ġb oÃ®
ci ens
fi Ã©e
Ġf oi
Ġb ibliothÃ¨que
ris on
ĠeuropÃ© ens
Ġactu ellement
ob serv
z er
ar mes
Ġenvoy Ã©
c ie
ĠQu ant
ĠSu Ã¨de
Ġconsac rÃ©
h or
Ġn aÃ®t
di on
Ġac quis
ten us
Ġinst allÃ©
ĠfrÃ© quemment
ch t
Ġfr om
ĠdÃ©fait es
Ġc ord
Ġemploy Ã©s
Ġsporti ve
g o
i ro
Ġsec ret
Ġsyst Ã¨mes
Ġs tu
Ġ5 5
ĠdÃ©p utÃ©s
ĠAr t
Ġadul tes
Ġfin ance
Ġass assin
ĠLe e
ĠH an
ĠmÃ© lan
Ġrespons abilitÃ©
ĠP as
ĠChic ago
Ġa ustrali
Ġmeille ures
ĠstratÃ©g ie
P endant
ĠT ex
Ġpr enant
Ġab b
Ġ7 00
Ã©ch app
is tÃ©
ra stru
ite d
Ġappar tient
Ġassoci ations
ÃŃ a
on ais
Ġs anc
Ġju dici
Ġfond ament
ĠrÃ©gion al
ĠdÃ©m ons
Ġ x
Ġch anger
Ġtra ite
ĠAr m
Ġsau f
ĠFer rari
Ġab ond
Ġfl am
Ã©rit age
u elles
in age
Ġinstru ments
ĠS w
Ġre cevoir
iss ait
Ġcap acitÃ©s
Ġprodu cteur
uss es
Ġg all
Ġgar dien
Ġbr ill
ĠtÃ©m oigne
Ġstudi os
m ins
Ġb aisse
de mment
Ġpour quoi
lis es
Ġtrav erse
Ġpubli ques
Ġparticuli Ã¨re
ili bre
Ġimpos sible
D eux
ĠrÃ© cemment
Ġlong s
ra i
as pect
Ġ193 6
oris ation
jec tifs
Ġra rement
Ã©m ique
Ġ193 7
Ġsymb olique
Ġdispon ibles
raire ment
Ġcime tiÃ¨re
ĠD al
Ġouv riers
ĠdÃ©si gne
Ġd ot
Ġcon g
Ġ19 18
ĠW ars
Ġa Ã®
Ġra mes
aff ir
Ġch oc
Ġprof ite
ax e
Ġcro ix
ou Ã©
In d
onn ais
Ġmar ins
Ġrapp orts
ĠBeat les
ĠD r
ĠF ont
Ġgr en
Ġconcur rent
Ã¨ che
Ġn age
st ac
ĠO xford
ĠPort ug
Ġfac il
ĠÃ©t age
Ġconstru its
Ã©b ut
Ġsy stÃ©
ĠmÃ©d ailles
ĠWal ter
Ġdessin Ã©e
g i
ar o
Ġf usion
ĠÃ© mis
ĠR i
ak h
Ġinstitu tions
Ġdimen sions
v Ã©e
ox e
Ġeffic ace
om n
Ġar ticles
Ġconn ues
P rem
Ġun if
ĠL enn
ĠF ab
Ġinter ne
archite cte
ĠC a
ĠdÃ© cident
Ġdonn Ã©e
Ġartif ici
ond es
Ġcont enu
Ġnobles se
Ġfort er
Ġmunicip al
8 8
Ġparticip ent
Ġremport ent
Ġgar anti
Ġvais seau
Ġou b
Ġcl airement
utilis er
Ġus age
Ġorient ale
Ġdu e
Ġdev int
ĠbÃ©nÃ© ficie
op Ã©ra
ĠV ienne
lis me
Ġpo sitions
off re
Ġjou ent
ĠdÃ©p asse
Ġprofessionn els
Ġpour raient
Ġsou ter
Ġaccueilli r
ĠÃ©tablis sements
ro Ã®
Ġre pose
Ġnot es
Ġ195 2
Ġciv ilisation
ĠmÃ©th odes
Ġp ay
er on
Ġa im
ĠL y
ĠS tre
Ġ193 3
opot am
ab e
ven u
o di
ĠL ord
ass urer
ĠAl fred
Ġb onnes
Ġa ient
Ġtrib unal
Ġcre us
Ġdimen sion
Ġspectac le
ĠL ou
h Ã´pital
alis Ã©e
ĠJ oe
Ġar t
w orth
Ġjourn aux
ĠdÃ©fin i
ĠrÃ© nov
Ġh i
Ġmont rÃ©
ĠdÃ©ta ils
l its
y e
Ġ3 6
ĠÃ©g lise
Ġmunicip alitÃ©
ĠE s
fic ations
inter prÃ©
y er
ĠAr thur
Ġvra i
Î ±
ĠCar th
Ġprob able
ĠNo Ã«l
Ġdispon ible
5 3
man ie
ient Ã´t
Ġ191 7
Ġp iano
Ġc enti
ĠF I
ĠFor ce
Ġtransp orts
V D
Ġfond ateur
Mich el
ĠP C
enti ne
Ġpass es
Ġ195 5
Ġp ic
Ġmilli ards
Ġparticip Ã©
Ġp one
Ġrep rodu
Ġappar tenant
Ġtre ize
ĠChristi an
u fs
ill Ã©n
ĠÂ», ."
Ġaff ron
Ġdev rait
Ġorganis ation
En tre
Ġjui ve
Ġbate au
ĠBes anÃ§on
A N
ĠS oleil
id entif
Ã©d Ã©
Ã©rÃ© es
Ġp en
Ġm ac
at o
Ġcar tes
Ġd ange
ĠF ootball
ĠH ouse
app u
ĠE v
Ġan alyse
Ġcompos iteur
Ġbure au
Ġen ch
ĠL et
pr Ã¨te
ĠdÃ©couv ertes
Or lÃ©ans
tellig ence
ct or
Ġapp orte
Ġsc and
eff et
Ġsuc cesseur
Ġmauv aise
Ġtra its
Ġnation ales
Ġbr ut
ĠÃī c
ivers aire
ĠcÃ´ tes
Ġ{ \
Ġmar itime
Ġper p
Ġmonn aie
Ġpe au
Ġchampionn ats
ira l
7 2
Ġbomb arde
Ġp es
Ġt ac
ĠL ab
Ġcant on
Ġsanc tu
an itÃ©
al ors
Ġau tistes
Ġch risti
ĠamÃ©ric aines
roph e
Ġl igue
ou ch
Ã©s opotam
Ġutilis ent
ĠCar ol
ĠmÃ©t al
Ġdirig Ã©e
A ugus
A ssemblÃ©e
Ġ195 7
Ġpriv Ã©
ĠprÃ©d Ã©
h ib
ru ite
ĠmatÃ©ri aux
stitu t
ĠN ations
tra tion
Ġblan cs
Ġtraditionn elle
Ġv Ãªte
Ġh or
Ġaff ront
Ġ192 9
Ġdemand er
Ġfron tiÃ¨res
Ġsur pr
Ġ195 3
Ġdirec te
lÃ©g ation
ĠinfÃ©ri eure
ul Ã©
Ġpays ans
Ġas c
oure ux
tiqu itÃ©
or ient
Ġs ent
Ã©ri tier
ap arte
Ġsoci aux
ĠÃ©le veurs
Ġsugg Ã¨re
ĠStan ley
j ug
Ġp ur
ou c
ĠC re
ĠY ou
g r
l ois
ob jectif
ari at
Ġvers ant
ĠmÃ©dec in
s Ã©
ĠW ood
Ġm Ã©tÃ©
oc t
Ġexp lor
7 3
Ġv aut
Ġangl o
Ġtrou bles
Ġmor ale
Ġintitul Ã©e
ot ter
Ġcomp lÃ©
ĠmÃ¢ les
ro its
ĠEn g
Ġ4 9
lo w
aÃ¯ que
m ise
ar me
Ġn at
ro i
Ġar gu
Ġprodu ctions
Ġassoci Ã©
Ġaband onne
ĠRen aissance
ĠMac Ã©d
Ã©nie ur
m Ã©t
ĠJ Ã©s
Ġ18 70
ĠÃ©v olue
Ġpuiss ant
Ġcherche urs
Ġocc as
ĠF rÃ©dÃ©ric
ĠJ ones
Ġmo tifs
Ġv enant
Ġr ent
Ġallemand es
Ġvend u
Ġlance ment
Ġbless Ã©s
ou ill
Ġf roid
Ġseu les
ĠToul ouse
Ġ Å
Ġm it
ur ch
ĠCh ambre
Ġ3 4
ec k
Ġassoci ation
er landais
Ġr up
Ġcar t
rÃª ts
ĠconsidÃ©rÃ© s
pec tive
ĠchrÃ© tiens
ĠBourg ogne
ĠR ock
ĠH aw
Ġautom obile
C L
l ais
ĠA vant
Ġ6 4
lis te
Ġconf lits
anti ll
Ã º
Ġac tes
rig ht
Ġdiscip line
Ġintrodu it
l Ã©s
us h
Ġdist rict
Ġpar ent
Ġfort es
Ġmusic ale
8 9
C ar
ĠS tudi
Ġpr Ãª
Ġexp Ã©dition
Ġpouv aient
Ġlim ites
Ġaugment e
ĠWilliam s
Ã© ph
Ã© lande
Ġf leurs
om es
Ġexp lic
ĠreprÃ©sent er
ĠQ ui
b ot
ĠT emple
ĠrÃ©un ion
ĠAnt oine
Ãī v
Ġcal c
E lle
c us
Ġpro ch
Ġclassi ques
Ġseigne ur
ĠB ab
Ġ19 00
pl ay
Ã©ch al
ĠconÃ§ u
trÃ© mitÃ©
Ġf isc
tÃ© ritÃ©
Ġrel ais
l av
ĠT re
Ġ191 3
G e
L iens
i Ã©es
st Ã¨me
av el
ĠnÃ© o
ĠmÃ©lan ge
en tique
Ġson de
Ã©c l
ograph ies
ĠdÃ©termin er
Ġlie utenant
Mal grÃ©
Ġdiam Ã¨tre
ĠD un
Ġve ille
Ġp istes
Ã©m a
Ġara bes
Ġp ousse
Ġen tiÃ¨re
ĠM ons
Ġorig ine
Ġculture lle
Ġarriv ent
Ġfabric ation
Ġt rophÃ©e
se ud
Ġren de
Ġins c
Ġadvers aires
y b
ĠÃ©v olution
ĠHit ler
Ġtot alitÃ©
Ã©lÃ¨ ve
Ġcompar aison
u ch
İ le
ĠL une
Ġcomm en
Z Ã©lande
au mes
ĠP o
ĠR ose
Ġ193 2
Ġremar que
Ġpoursui vre
Ġlour de
y rÃ©
Ġp Ã´le
ĠP ologne
ĠG old
Ġrel ative
ĠPrin ce
a us
Å «
ti te
Ã¨ne ment
ĠchrÃ© tien
ĠCamb ridge
v itÃ©
ĠE ug
Ġpr Ãªt
ĠrÃ©f lex
ĠfÃ©min in
ĠathlÃ¨ tes
l itÃ©
rÃ© h
ĠL ar
Ġra cont
ĠarchÃ© ologiques
ĠEr n
Ã©trang er
us alem
ven ue
Ġcap ture
ĠHar ry
d Ã©
au ts
ĠM ol
ul f
ic on
Ġav ance
ĠÃ©c rire
Ġinc ap
Ġhui tiÃ¨me
Ġenvi rons
ĠGÃ© org
ĠG arde
ĠAr n
Ġcolon ie
Ġpeint ures
ĠS he
ĠM ans
ĠJ ung
Ġcomm Ã©m
oi g
ĠR ol
Ġcont est
ĠeuropÃ© ennes
ĠmÃ¢ le
Ġmand at
S A
Ġs an
Ġn oy
eu m
Ġentrepr ise
ĠÃ©l ab
is m
Ġm illÃ©n
os itÃ©
Ġro se
cl aves
S on
r m
ier t
ĠCompagn ie
Ġb ons
ĠF estival
lis ation
ĠsiÃ¨ ges
Ġrec on
u ge
er ce
ĠAm Ã©ricains
oun t
Ġcer cle
ĠdÃ©cenn ies
Ġc ode
Ġal titude
ĠSte ph
Ġir rÃ©
Ġpois sons
Ġsoix ante
Ġcontempor ains
Ġmanifest ations
Ġbap tis
Ġmonast Ã¨re
ĠR es
ins on
Ġtou che
u ellement
ĠÃ©t apes
ĠdÃ©clar Ã©
Ġabandonn Ã©
Ġst atis
tra ction
Ġposses sion
Ġpopul aritÃ©
Ġbat aillon
Ġrem ise
Ġtent atives
f rac
Ġp Ã©r
ag glomÃ©ration
Ġsou mis
se ur
ĠdÃ©c ret
ann a
Ġper dre
Ġsuiv ie
ĠpropriÃ©tÃ© s
Ġarchite ctur
c inq
Ġre qu
Ġmus iciens
Ġ186 0
Ġsauv age
Ġparti cul
od ie
ĠSte ve
Ġvend us
am Ã©ric
En fin
ĠÃī douard
ĠgÃ© ographique
Ġten sion
Ġbour geois
5 4
Ġconf ond
ĠÃ©p reuve
Ġcolon ies
ĠprÃ©cis Ã©ment
Ġconcur rence
ĠJourn al
Ġsur mont
Ġex ig
Ġar b
Ġsou tient
enn is
ĠBon aparte
at tention
Ġav ons
An tiquitÃ©
Ġsecond aires
chev Ãªque
Ġprofond Ã©ment
ĠNorv Ã¨ge
Ġl ux
on gement
Ġm Ã©l
Ġf oule
ĠA ustralie
ex iste
Ġreconn aÃ®t
Ġsout enir
T ra
as tre
ton e
ĠCan adiens
ĠLenn on
in er
ĠÃ §
ag Ã©es
ai b
ĠP ap
Ġtra cÃ©
se pt
Ġ193 1
Ġparois se
ĠXX Ie
C om
il d
ori al
ĠprocÃ©d Ã©
Ġde vi
ou dre
ess entiel
Ġterrest re
ĠextrÃªme ment
Ġau di
ai gn
Ġfem elle
ĠspÃ©ci fique
m ath
w ick
Ġg oÃ»t
Ġgar n
Ġa fric
Ġ4 2
Ġesp aces
ĠprÃ©sid ence
Ġlim itÃ©e
Ġriches se
ti me
Ġj amb
esp Ã¨ces
Ġtrouv ait
ĠfÃ©min ine
G u
g Ã©es
Ġ19 19
Ġno tion
ĠCom itÃ©
Ġremp lace
Ġ192 8
ĠdÃ©si r
Ġresse mbl
ent ures
Ġdestin Ã©s
ĠÃ¢ gÃ©
el la
ĠE lizabeth
ĠV ierge
Ġfourn ir
Ġcos tu
ĠS pe
Ġal g
ob le
ĠRe g
ĠSoci ety
Ġex erc
Ġcir c
amÃ©n agement
o ol
it res
Ġpl aine
Ġe au
ĠrÃ©alis Ã©es
ric itÃ©
Ã©tu des
8 4
S e
Ġsecond aire
oss ais
Ġcompagn ies
Ir lande
m Ã¨tres
v res
Ġf ro
ri on
ĠS ix
Ġg ame
Ġpro sp
ĠJ an
ĠdiffÃ©r ente
ame au
ĠSe ine
ĠÃ©ch anges
ĠT ch
ex position
Ġense ign
ĠCert aines
el a
Ġfra is
ĠEd ward
ar rÃª
ĠrÃ© duite
Ar mÃ©e
5 9
Î ¿
Ġmor ceaux
ĠinfÃ©ri eur
h ypothÃ¨se
ĠAl li
met tre
Ġprincip es
Ġdistin gu
ĠcÃ©lÃ¨ bres
Ġquator ze
s ang
ard ins
int roduction
Ġs ignes
ĠS and
ĠâĢĶ ,
U r
e z
ĠB orde
ĠV ie
erm ain
Ġimp ressionn
Ġtravers Ã©e
Ġchron ique
Ġal ent
Ġpo dium
ĠAl pes
Ġ192 4
Ġcontinu ent
Ġbil an
im agin
Ġeffec tifs
Ġl ou
ri ces
ĠS ong
Ġsub st
Ġopp osition
Ġfab ri
ment ation
as tes
Ġann onc
Ar m
li m
Ġpart out
ym n
S a
ĠR ennes
ex c
Ã©c art
Ġfem elles
Ġdesc ente
ĠindÃ©p endant
ac cep
av enture
Ġapp roche
tis h
Ġ193 5
Ġfeu illes
Ġretrouv Ã©
S C
ĠÃ© rig
si m
Ġpass ages
Ġess ai
Ġfig ur
ĠdÃ©g rad
ĠXIV e
ĠLe g
Ġent rÃ©e
inst alle
ĠJac ob
Ce pendant
Ġnette ment
s ant
Ã¨ nent
Ġf ur
si ris
ol le
Ġac te
Ġentre r
p our
ĠL ife
mb ler
ard o
ĠAth Ã¨nes
Ġguit are
Ġtemp les
exp lor
ĠBr un
Ġtri om
Ġmach ine
9 2
E l
Ġse ize
Ġcomp li
Ġser vent
Ġpo Ã¨mes
ak i
Ġunivers itaire
Ġlanc Ã©
L oire
ĠB ag
Ã©l ite
ĠMus ic
Ġru me
Ġfinanci Ã¨re
Ġm Ã©ri
ĠprÃ©sent ation
avi er
Ġfort une
ĠdÃ©couv rir
Ġtu Ã©s
ĠA lex
Ġh yp
Ġcol onne
ĠBar b
Ġmor ceau
Aut res
Ġmarch ands
Ġf Ã©es
Ġn ar
vi ce
Ġaur a
Ġretra it
ĠF ant
Ġrec ons
ĠU r
Ġrou ges
Ġrenfor cer
er v
ti ble
Ġcl o
Ġchamp s
Ġenvis age
Ġdou ce
ĠmÃ©di c
ci a
ci ation
Ġti rs
rie d
Ġcul tures
oph one
Ġplu ie
Ġcat ast
ĠFi eld
res sions
cu per
Ã©m ission
Ġti rer
la me
ĠfÃ©d Ã©ra
s en
Ġv ague
ĠD om
ux elles
Ġsu isse
Ġgu Ã¨re
Ġca f
Ġpossi bles
ĠJÃ©r usalem
Ġling uis
ĠC eux
ĠR oi
ĠR oss
Ġar gent
Ġro ch
Ġfer rovi
ĠIV e
p Ã¨re
w s
Ä ĩ
Ġl ente
Ġdans e
Ġar r
Ġpropos Ã©
ĠIII e
our ce
Ġli aison
ĠgÃ© omÃ©t
Ġm ul
un ion
Ġt rip
Ġb ientÃ´t
ĠV end
Ġcons Ã©
Ġob lige
Ġord onne
ĠmÃ©dec ine
Ġv ac
ui r
Ġdirig Ã©
Ġvraisembl ablement
i vement
Ġ rig
Ġd ig
ĠdiffÃ©r ences
Ġprovis oire
A th
i al
n ot
ar rÃªt
ch ar
st on
ĠW at
Ġpo Ã©sie
Ġaff ich
Ġreven u
Ġcommerci ale
ĠRay mond
Ġrej oign
in Ã©e
Ġconsid Ã¨rent
Ġ195 1
ĠHong rie
Ġcorrespond ant
Ġsau ve
Ġadap tation
Ġb anc
Ġex ige
Ġti re
Ġlib res
Ġdev aient
inst ar
ĠprÃ©v oit
Ġg olf
ĠM od
Ġcont enant
Ġmag as
l on
s me
ĠM ah
ĠJ on
aiss ant
Ġatt end
ĠÃ©tab lit
il ton
Ġdu quel
Ġ% .
Ġpays age
ĠRo che
Ġmention ne
Ġorb ite
ĠMex ique
u ent
Ã©ch elle
Ġcolon el
Ġchiff re
f us
ex Ã©cu
anc Ã©e
oph ones
inform ation
g re
ĠB elle
ĠW ill
Ġbi ais
entraÃ® nement
enregistre ment
ĠconsÃ© quent
ĠdÃ©c ors
Ġprop ag
Ġcou reurs
join t
hi p
Acad Ã©mie
Ġp eur
Ġn id
Ã´ mes
ras se
Ġrelie f
9 4
i tions
n et
Ġpro clam
Ġpont s
M us
Ġin tÃ©rieure
ĠF ord
Ġra m
Ġcour ts
Ġconstru ctions
Ġtent er
8 6
Ġf au
Ġchamp ions
Ġsimil aires
Ġavi ons
ve y
du le
Ġes prit
Ġbas es
ĠdÃ©m ission
ĠQu atre
Ġappel Ã©s
cesse urs
ĠrÃ©pond re
Ġespagn ol
5 1
9 7
D u
or ce
est es
arc tique
Ġhau ts
Ġorigin aire
aw a
Ġf re
Ġpl ant
ĠrÃ© ellement
ĠLa dy
ence inte
app ui
Ġcontinu er
Ġaugment ation
ĠfÃ©d Ã©ral
w is
ĠK ir
Ġg am
Ġpro vient
Ġmo teurs
Ġinstall ations
ĠBorde aux
S p
Ġ191 1
ac o
Ġlib Ã©ration
Ġeffectu Ã©
Ġcorrespond ance
Ġscol aire
ĠD VD
Ġbas Ã©
Ġconse ils
eng age
Ġcouv ert
ĠMarc el
Ġinstru ment
ĠD Ã©
Ġcher cher
aj out
Ã©r indi
he ur
Ġmil ieux
In de
Ġcou che
Ġbar re
Ġquoti dien
Ġmusul man
ĠsystÃ© matique
Ġb ris
ĠO ff
tionn aires
Ġremarqu able
r ine
Ġris ques
g en
ĠB ig
ĠO s
oles c
ĠimpÃ©ri al
Ġcitoy ens
a o
ou lement
Ġren ommÃ©e
Ã© chec
Ġa che
Ġt ap
am en
ĠN Ã©
Ġconc erts
Ġtra ditions
ĠGr en
ĠSp ir
ĠdÃ©sign Ã©
Ġdestin ation
Par mi
ĠmathÃ©m atiques
Ġn Ã©e
Ġh Ã´tel
Ġbeau tÃ©
Ġop us
Al ors
Ġcri min
Ġeur os
Ġsimp les
Ġurb ain
uff is
actu elle
Ġchale ur
Ġc iter
ĠM ath
ĠB ulg
ins ule
ĠrÃ©uss ite
Ġbel ge
s a
Ã¨ vement
Ġen quÃªte
ĠP Ã©ri
Ar ticles
Ġcontra int
ov a
Ġ191 6
Ġla bor
ĠdÃ© esse
ĠS tu
ĠMar ia
ĠrÃ©f ormes
Ġnature lles
Ġ192 2
Ġprofessionn elle
ĠPat rick
Ġp Ã©tro
ap tiste
ĠAn g
yrÃ© nÃ©es
Ġf aux
ĠS S
Ġoffici er
ĠJack son
Ġc ite
ĠV it
Ġiss ue
is Ã©e
in ture
Ġse mi
ĠCh urch
Ġmon te
omm ages
dess ous
Ï Ĥ
iÃ¨ te
ĠE sp
Ġaut rich
ĠChar l
ĠÃ©qu ival
ĠJus tin
ĠÃ§ a
Ġs ab
Ġv ape
Ġb er
ĠK i
Ġvol umes
Ġgal erie
h ommes
Ġc rit
Ġun itÃ©
ins pire
Ġ192 6
Ġcam Ã©ra
Ġhar as
Ġv Ã©ritÃ©
Ġj et
Ġcont ribue
olog ies
Ġfig urent
ĠDon ald
y de
Ġfait es
Ġoccup Ã©
og es
ad is
ĠPour tant
Ġdeven ant
Ġqualif ication
Ġcandid at
opin ion
9 6
ĠdÃ©sign er
ĠarchÃ© ologique
ĠAss ociation
Ġrecomm and
in al
ins piration
Ġob jectifs
Ġph ases
Ġprog rÃ¨s
ve ille
8 7
Ġt ue
ro c
lis abeth
Ġ190 5
Ġindustri elle
ĠchrÃ© tienne
Ġp Ã©d
Ġm ons
ĠM os
Ġrec ours
ĠprÃ©sent ant
cid ents
ĠfÃ©d Ã©ration
Ġpauv res
G Ã©
ĠrÃ©p ert
yn x
Ġtu er
At lantique
M ais
ois es
Ġbat tu
Ġprog ression
Ġcal end
Ġexclus ivement
os aur
ĠE spagne
Ġan alys
Ġottom an
5 6
h el
ĠF al
emp lacement
Ãī t
Ġm ol
ĠJean ne
ĠB ol
Ã©ri ques
Ġcomp il
ad el
ĠÃ©p ous
Ġa grÃ©
Ġla bel
ĠV ill
Ġconst at
Ġrencont rer
Ġmoin es
d ans
Ġa Ã©ro
ot ype
Ġconse iller
b ook
Ġc ents
Ġv arie
titu des
Ġform at
ess es
ĠprÃ©cÃ©d entes
ĠÃ©lect or
Ġin Ã©d
ĠN BA
ell ation
ĠBr uxelles
ĠLuc as
Ġvall Ã©es
ĠmÃ©tÃ© or
r iss
Ã¨ ler
Ġmat ern
acc omp
ĠGr Ã¢ce
Ġparfait ement
A v
in ves
Ġch amb
ĠH ans
Ġex ac
Ġcomp t
ram me
Ġconsac re
c omme
ti ge
Ġf Ãªtes
ĠC Ã´te
Ġtra Ã®
Ġann iversaire
Ġmin es
Ġeng age
Ġmess age
Ġchan tier
ĠvÃªte ments
j or
Ī Ĵ
Ġp ayer
ar chÃ©
Ġcon te
Ġpersonn elle
Ġcy cl
Ġadap tÃ©
And rÃ©
ã Ĥ
Ġc ardin
re z
ĠM onde
ĠrÃ© elle
ĠB Ã©arn
Ġfu ite
rastru ctures
qu ette
ĠI Ie
imp act
ex emple
Ġab rit
ĠAr ch
Ġprogram mes
Ġgard er
E mp
h l
al on
Ġh ipp
Ġfran co
Ġpubli Ã©s
ĠpÃ©ri ph
esp oir
ĠprÃ©f Ã¨re
Ġjournal istes
Ġg rot
Ġent end
Ġappar aÃ®tre
Ġlar ges
Ġchante ur
qu a
ĠH ow
ĠLa urent
ĠV incent
Ã©v Ã©
In ter
ĠsÃ©par ation
ĠTim es
9 8
Ġb lo
ussi ons
Ġcul tiv
ĠspÃ©ci alistes
Ġint Ã¨gre
Ġ4 4
ĠrÃ©f orm
Ġlun aire
ĠV Ã©n
Ġcomp ens
ĠgÃ©n Ã©tique
Ġinter view
ip el
ĠChamp ionn
ri mÃ©
ran ce
Ġcomp tait
ĠrÃ©p Ã©ti
Ġnature ls
Ġgra tu
ĠS outh
ann y
els on
Ġvie ille
Ġ191 5
veill ance
um ul
po si
Ġreg ret
Ġ192 5
g ues
p it
Ġm ang
Ġj uifs
ĠK ent
Ġa iles
Ġdi man
Ġbate aux
S c
ĠR C
Ã¢ me
Ġcl ergÃ©
Ġconf ie
An cien
ortÃ© es
U R
h o
v ous
du its
Ġdom ine
Ġexpli quer
ĠMacÃ©d oine
en quÃªte
at ti
ĠB au
ĠF ort
ang ers
ĠdiffÃ©r ent
Ġstat ues
ĠÃ©vÃ© nement
9 1
A pp
R Ã©f
ĠA pollo
lÃ¨ vement
Ã©ran ce
Ġfl or
ĠprÃ©v ue
Ġsout enu
ĠT ro
Ġexp Ã©di
Ġfac teurs
Ġmeur tre
ĠMil an
n ie
ens is
Ġar rÃªt
tes se
cal ier
Ġdiz aine
ĠP ur
ĠF land
Ġpas sion
par ti
Ġbat tre
Ġrepr ennent
Ġhau tes
Ġreconn aÃ®tre
Ġmusic al
Ġc Ã©ra
au ph
se aux
Ġmajoritaire ment
Ġ% )
Ġvi de
oh n
Ġrest es
Ġcoll ine
abb Ã©
Ġrenfor ce
Ġrup ture
ĠGÃ©org ie
ra ft
Ġmont er
rop ri
Ġcath oliques
install ation
ĠComp any
el Ã©
at mosphÃ¨re
Ġtourn ant
Ġspati ale
ĠPen gu
as on
ĠI tal
Ã©r ite
ass assin
ĠAu c
Ġ192 1
I C
Ġs pr
ie ur
Ġro ches
Ġth Ã¨se
Ġtal ent
ĠprÃ©p arer
Univers itÃ©
ĠB oul
Ġam ateur
d d
ra its
Ġser vant
Ġmain tien
Ġ190 9
Ġpar cs
Ġsign ature
let on
ĠtÃ©moign ages
9 3
Ġs ommes
Ã¨ ques
ĠdÃ©b arque
Ġcirc onst
á ĥ
li quer
Ġch ance
ex emp
anis ation
Ġsoi rÃ©e
Char les
Ġn auf
Ã©v iter
Ġrem is
ĠlÃ©g Ã¨re
Ġten sions
Ġv ents
ad or
Ġsec ours
Ġcent aine
ĠintÃ© rÃªts
Ġgame play
ĠB or
Ġtra itÃ©s
Ġcomm iss
lÃ¨ che
Ġbas Ã©e
acc ueil
Ġw e
ĠpÃ©n insule
iterran Ã©e
ĠPortug al
ĠStre et
Ã©t aire
Ġcour ants
Ġgre cs
Ġf ans
ĠtÃ©lÃ© ph
ĠJÃ©s us
us ine
po ol
ĠP ok
am er
ĠV in
ĠMar ine
Ġinter d
anc Ã©
Ġcamp s
Ġconse ill
ĠMic key
Ġpar f
Ã¢ ts
Ġad mi
app roche
Ġconn aissent
ĠdÃ©velopp Ã©e
ribu tion
Ġlim itÃ©
Ġmonop lace
ĠmillÃ©n aire
ĠL Ã©g
ch a
ĠÃ©n erg
Ġchristi anisme
j us
Ġ192 7
Ġinternation ales
u ite
ur rection
Ġf all
Ġb ec
ĠS it
ĠG h
Ġmer c
ĠdÃ©clar ation
ĠmÃ©c anique
inv asion
Ġn atur
Ġin ond
Ġcy c
Ġconvain cre
Ġc rain
ĠB ook
ac u
if Ã¨res
Ġcol ons
Ġent er
ĠreÃ§ oivent
Ġop Ã©ration
Ġtent ent
ĠSam uel
Ġf asc
ĠM aj
Ġh an
ouv oir
ĠdÃ©fin ition
Ġend roit
Ġgraph ismes
ĠF ar
la ve
Ġmen Ã©es
ow er
Ġdoc teur
ĠCro ix
Ġauxqu els
o que
Ġpar u
ĠS ir
se urs
Ã©c ran
ĠsÃ© le
ast ron
Ġ190 6
Ġfid Ã¨les
qu ait
Ġm eu
ri ment
Ġv oÃ»
Ġfaci le
Alexand re
il ien
rem ment
Ġsyn ag
ĠGre en
Ġreconst ruction
Ġc rat
Ġche mins
Ġver tic
Ġcouv re
Ġsurn om
ĠtÃ©lÃ©vis Ã©e
A vant
g ie
Ġla ve
ĠVen ise
Ġtram way
Ġf lu
am iral
Ġcommun iste
ĠlittÃ©ra ires
Ġciv ils
Ġbe aux
Ġ .
is si
ĠC ri
od ore
ĠPar lement
Ġenc ad
Ass ociation
ĠprÃ©t end
m o
Ã© ens
me ub
Ġcom Ã©die
ill ons
ĠÃ©v Ãª
Ġiss ues
ĠrÃ©ser ves
Ġpa tin
aliment ation
ĠCarth age
5 7
g arde
Ġen ce
Ġv Ã©ri
im s
Ġcong rÃ¨s
C ert
s ol
ĠA v
ĠT y
Ġac tif
Ġciv il
ĠMÃ©d iterranÃ©e
A A
as sent
ron ic
}} "
Ġmodi fications
Ġprol ongement
Ġproven ance
ch ester
ers onn
Ġemp ereur
Ġrecense ment
au tisme
at on
Ġro che
In stitut
Ġespagn ole
h yd
Ġt unn
Ġv igue
as y
Ã» t
ĠLo ve
ĠmÃ©ri dion
Ġvape ur
Ġvigue ur
Î ½
ag i
Ġj ardins
ab ilis
Ã©r ard
Ġ17 0
ĠtempÃ©ra tures
Ġcanadi enne
ĠB onn
Ġh ypothÃ¨se
iss es
An g
ar in
et a
ĠcrÃ© Ã©s
Ġrest ant
aur ait
Ġvois ins
Ġenne mi
n om
Ġt or
Ġb ra
ĠX Ie
Ġexist ent
Ġnarra teur
Ġforter esse
ĠB ois
ĠEn ter
ĠK en
ĠdÃ©p lacement
Ġmen Ã©
rop ol
ĠAugus tin
ĠHistor y
r ue
Ġv erre
ĠCol l
Ġtravaill Ã©
Ġtransform ation
Ġfid Ã¨le
Î ¹
Ġh eur
ot er
imp ression
aisse ur
8 2
ĠM agn
ĠChe val
Ġp oul
ne au
Ġcon nexes
Ġsur v
Ġsoci aliste
Ġbyz antine
ĠTitan ic
t rois
al ph
Ġav is
Ã©ra p
ss age
ak er
,, ,.
ĠÃ©tab lie
Ġemploy Ã©
ĠAugus te
ĠconsidÃ©ra ble
ĠsupplÃ©ment aire
ĠFlor ence
S tation
en ait
ĠC I
ĠC ant
Ã©c rit
ĠCe ci
Ar g
Ġsau ver
ĠÃ©m et
ĠGal les
ĠL amb
ĠT al
oc at
Ġann oncÃ©
Ġnot ables
ĠÃ©lev Ã©s
Ġ os
ĠM id
Ã©ra ble
Ġcan on
lic itÃ©
Ġdivers itÃ©
Ġquas iment
Ġinfluenc Ã©
ĠprÃ©cip itations
ur n
ĠI mp
Ġ ."
Ġde grÃ©
ve u
ĠAl ain
ĠD um
ĠR och
ĠG all
ĠVir gin
Ġsal on
Ġend roits
Ġinscrit s
Ġdivis ions
w a
ann i
Ġeng agÃ©
ai gne
ĠR et
Ã©n iens
Ãī tienne
eff ond
ĠVictor ia
aÃ©ro port
om pe
el in
Ġv ise
ĠA p
ĠD omin
Ġra men
ĠdÃ©c riv
Ġinter prÃ¨te
Ġaut onom
Ġnum Ã©rique
Ġ Ð
Ġf orts
Ġab sent
ĠrÃ©c ur
land aise
Ġcir cons
Ġven us
Ġpot entiel
Ġtransf ert
ol ith
Ġprot agon
Ġbillet s
on a
qu are
Ġex il
Ġrencont rent
Ġspor tifs
ĠTunis ie
CL C
ti ls
ai d
omb res
Ġblan ches
off ici
ĠtÃ©moign age
Ġaccessi ble
Ġla tÃ©ra
ĠS ans
Ġg rÃ©
Ġcomp lÃ©ment
Ġform ant
Ġ188 0
ĠMan uel
ĠrÃ©comp ens
A c
M ont
Ġla it
ro d
inter mÃ©diaire
ĠcatÃ©g ories
ur Ã©s
iÃ¨ mes
ĠG ames
Ġrep ouss
Ġaut oritÃ©
ĠMad rid
Ġdocument aire
ĠmÃ©dec ins
ĠFl ori
Ġb ri
ĠK er
ĠrÃ©g lement
ĠdÃ©p utÃ©
ĠrÃ©un it
Ġcaval iers
Ġretourn er
ĠG and
Ġ4 1
eld a
Ġtrib us
Ġ _{
Ġs Åĵurs
ut s
ĠFrancis co
Ġbran che
Ġstand ard
A cc
l ines
z aine
Ã© en
on ien
Ġp ert
au di
ne urs
Ġch Åĵur
Ġinternation aux
Ġconcent ration
Ġr Ã´les
id entitÃ©
Ġ6 5
Ġab ord
ĠrÃ©p ublique
Ġpropos er
Ġdemand Ã©
J oseph
p el
ĠA s
pr Ãªme
ĠN ouveau
Ġsol ide
ĠCons titution
Ġerre ur
8 3
ĠS pr
Ġan neaux
Ġchar bon
Ġ192 3
Ġcombat tre
hum anitÃ©
ĠÃ©vid ence
ser ve
ĠcinÃ©m at
ĠKe ats
ĠRom ains
ĠtÃ¢ che
Man ia
b our
Ġp aci
le ct
ĠF ern
ĠCh Ã¢teau
Ġcommun i
ĠreprÃ©sent Ã©e
ĠSe ga
ĠTourn oi
Ġd ress
ĠrÃ© seaux
Ġsur prise
ĠD er
Ġpr Ãªte
ob e
ĠdÃ©p ass
ĠdÃ©m Ã©n
Ġreti rer
Ġcontempor aine
Ġalent ours
Ġt rÃ©sor
ĠC os
Ġch ien
ĠÃ©g lises
ĠmÃ©c an
ri ens
ĠI m
ĠprÃ©c ision
inter vention
ro ir
ai der
che cs
exp lo
Ġ190 8
Ġarch ives
ĠcoÃ» te
Ġconnaiss ances
Ã©d iteur
Cl aude
Ġquoti dienne
P S
b at
v Ã©s
Ġs k
Ġpeu pl
Ġinc ar
Ġperd ent
ĠdÃ©roul ent
ĠÃ Ĩthel
ĠL iver
ĠÃ© me
Ġconf orm
oun g
h ouse
ar th
ĠJe ff
Ġco ord
Ġsenti ments
Ġpap ier
ĠvÃ©hic ule
re au
oc ation
id a
Ġoccident al
Ġsanctu aire
RÃ©f Ã©rences
Ġcomm is
Ġvis ibles
ĠCol le
Ġ190 7
E s
Ġr omp
ĠT ok
Ġan nex
inst ru
al ie
ĠM att
ĠD ie
ĠMet roid
Ġorth od
aff aires
l ation
Ġ el
ĠC orn
ĠS icile
ous seau
ĠgÃ©n ie
Ġins uffis
Ġrh Ã©t
ĠPlay Station
m Ã©es
ĠMar g
Ġju gement
opp ose
Ġmanuscrit s
L iste
in verse
ĠdÃ© vo
ĠT emp
Ġh iver
M S
Ġdu chÃ©
ath ie
Ġmo tif
ĠLors qu
ĠrÃ©cup Ã©rer
ĠdÃ©cenn ie
ĠsÃ©qu ence
A D
C ont
our ant
ĠP orte
Ġp Ã¨ler
Ġpers pective
em ark
anc y
Ġdoc tr
Mar tin
ĠmaÃ®t rise
ĠÃ©tal ons
e use
Ġdis posi
Ġdomes tiques
v ants
ti es
ĠÃ© pr
av Ã¨re
oug os
Ġrav it
Ġhi Ã©r
Ġa per
ĠD re
ĠgÃ© ant
Ġis ra
Ġcertaine ment
Ġchau ff
Ġvir tu
Ġpanne aux
e p
ch et
ĠC rÃ©
Ġad h
Ġdiz aines
interprÃ© tation
ĠT ay
Ġsucc Ã¨de
lac es
ĠJapon ais
ha us
Ġnavig ation
Ġcalend rier
8 1
es c
li on
Ġh ypoth
ĠFre ud
ĠprÃ© serv
ĠamÃ©li orer
Ġadul te
Ġbrig ade
te m
Ġch ancel
ĠD am
Ġav entures
lÃ¨ te
Ġobserv ations
Ġbless Ã©
Ġc ris
ĠconsidÃ©ra blement
A ra
Ġa ider
Ġre ct
onn Ã©s
ad op
Ã©r Ã¨se
ell Ã©n
Ġtermin Ã©
AS A
install er
Ġla cs
Ġac tive
Ġpers u
Ġaff lu
Ġver tu
ĠmÃ©t aph
Ġpriv Ã©s
Ġven u
aband on
f a
Ġa ir
om o
Ġal pin
ĠÃ©quipe ments
Ġpratique ment
di er
Ġex tÃ©rieur
ĠdÃ©c rite
Ġ4 3
ĠIn de
Ġdix iÃ¨me
Ġtermin er
f ran
o ft
Ġt oile
Ġpour suite
Ġfin s
Ġmont ant
ma jor
ĠGr ant
ĠrÃ©par tis
ĠSÃ©n at
Ġle ader
Ġt enant
est ation
Ġmar bre
Ġremp lacement
Ġtourn er
Ġdispar aÃ®t
Ġchasse urs
ond issement
Ġpos tes
Ġmor ph
Ġvingt aine
onn Ã©es
ĠLe wis
agn os
Ġph rase
Ġend omm
H omme
Ġm ens
ĠP atri
ĠD ur
Ġmar quer
Ar t
Ġfix e
o sitions
di ques
ĠR ap
Ġcap t
ĠBrown ing
Åĵ il
ĠMus eum
Ġmanif este
Ġbless ure
Ï Ħ
ĠS ou
ĠrÃ© duction
Ġr oul
ut h
ong rois
Ġren f
om ique
int rigue
Ġsymb ol
Ġmach ines
ĠG od
Ġ18 30
olu tions
Ġbar b
ĠdÃ©tr uire
Ġfro ide
ĠLiver pool
ĠB ell
ĠG abri
Ġdi oc
Ġra id
Ġann uelle
Ġz Ã©ro
asc al
Ġadvers aire
Ġmusul mans
l ieu
Ġa chev
Ġre ce
ci al
ĠZ elda
ĠAngl o
ĠboÃ® te
z z
Ġs ainte
Ġf ar
Ġg oth
ĠM un
ig ration
Ġ18 50
ĠO b
mi de
Ġscul pt
an nes
Ġdes ign
Ġtra ce
Ġac teur
Ġam our
avi on
Ġrest Ã©
Ġdiffus Ã©
B aptiste
Ġt a
ĠÂ» )."
ul Ã©e
ay a
Ġremar quer
Ġla issent
Ġpays ages
Ġchar ges
fic tion
Ġhum aines
ĠÃ©di fices
Ġrasse mbl
Ġcontro vers
l um
ĠS um
Ġrest a
adi es
Ġcolle ctions
Ph ili
G ermain
co pe
Ġvoy ages
ĠÃ©m o
Ġfu ture
v et
Ġp age
ĠÃ© lus
Ġb ot
ĠdÃ©p loy
Ġt ch
og Ã©e
Ġat tra
Ġatt ribue
Ġchois ir
Ġ184 8
ĠÃ©trang Ã¨re
Ġru ines
Ġfinanci er
Ġcomplex es
Ġfinance ment
Ġd ensitÃ©
Ġh Ã©roÃ¯
Ġan tiques
ob i
Ġinter romp
Ã¤ n
at or
ĠB all
Ġra cc
Ġmar ais
Ġcou ches
Ġvoul u
Ġv Ã©cu
ĠJ ord
id ae
ĠdÃ©b ats
Ġsou d
ĠÃ©v Ãªque
org an
Ġincl ut
ĠWe b
ĠMax im
E ur
ti bles
Ġsec teurs
Ġman che
Ġindi c
Ġdisp osent
ĠB yz
ĠN elson
Ġsol o
Ġcheval ier
ĠDan emark
Ġatteign ent
comm un
m ens
Ġf leur
Ġfor c
alis Ã©s
ven tions
Ġmil it
Ġmod es
ram mes
Ġqualif iÃ©
ĠTra ck
Ġdiman che
ĠL ink
ic ale
Ã§ u
ang lais
Ġrec ens
tra tions
Ġcommun al
Ġtour istique
Ġindi g
ĠlÃ©g iti
Ġgar Ã§on
Ġinstall Ã©s
Ġfrag ments
lo va
ĠrÃ©s olution
Ġet hn
Ġle cteurs
Ġg ymn
f ilm
ra k
au ff
ĠC ast
ĠB arc
av aient
Ġmont rant
Ġ13 0
Ġcommenc er
ĠAmer ican
h om
or ges
Ġf um
Ġorganis Ã©es
ĠspÃ©cialis Ã©e
ĠrÃ©volu tionnaire
ĠSteph en
ĠA ussi
ill Ã©e
Ġmar Ã©chal
Ġqualif ications
ĠB enn
ĠF ilm
Ġex position
Ġ179 3
Ġattribu Ã©
Ġdiffus Ã©e
Ġcandi dats
Ġdoub lÃ©
ĠG ord
pr its
Ġjou ant
Ġdess ous
ĠintÃ© grÃ©
Ġs ultan
ag an
ag ir
Ġin tÃ©rieur
ĠD Ã©t
onn ant
tra d
igne ur
enti ssage
Ġfa une
Ġform ule
mar Ã¨s
Ã© les
ĠrÃ© ception
Ġtr omp
ĠV oy
Ġ4 7
Ġsauv ages
or Ã©s
Ġpl at
ĠR adi
ĠrÃ©public ains
Ġch iens
Ġsu prÃªme
Ã©l os
Ġexemp les
rag ons
Ġconsac rÃ©e
ĠcontrÃ´ ler
ĠB erg
ic tionnaire
op s
ens tein
ĠW ind
ex trÃ©mitÃ©
man uel
ĠprÃ©sent Ã©e
ches se
Ġmai rie
Ġlarge ur
Ġvoul ait
ĠaÃ©ri enne
ĠcompÃ©t ences
ĠAlli Ã©s
at us
Ġb Ã©arn
ort ation
Ġprin ces
exp lique
Ã©qu ilibre
Ġeffectu er
ĠdÃ©g Ã¢ts
Ġp seud
ĠC itÃ©
Ġsu Ã©d
Ġoffici els
Ġautre fois
Ġ189 0
Ġfonctionn aires
Ġs able
ri x
Ġes claves
ĠrÃ©gion ale
ĠHam ilton
Ġm amm
un ique
Ġ4 6
ĠÃ©p oux
up iter
Ġsus cep
Ġbloc s
Ġcab inet
h Ã©tique
ur itÃ©
Ġqu elle
Ġqu Ãªte
Ġb ag
ĠLe on
ĠrÃ¨g lement
ĠÃ® le
Ġrasse mble
ille ur
Ã©tab lir
adap tation
ĠnuclÃ© aire
u a
ti lle
ĠdÃ© lÃ©gation
ĠB le
Ġor ch
ĠgÃ©n Ã©
Ġmo dule
ĠColomb ie
or ations
si f
tre r
acc ent
Ġdomes tique
a oÃ»t
in vent
Ġr endant
Ġbat tant
Ġculture lles
v iÃ¨me
Ġt unis
Ġpr Ãªtres
Ġparticip ants
ĠPro v
Ġlanc Ã©e
ĠspÃ©cif iques
ro Ã¯
ĠA ward
Ġtr on
Ġes cad
Ġinc endi
Ġsal ari
Ġesti mÃ©
ĠBri tish
ĠP yrÃ©nÃ©es
ut ent
av enir
Ġis lam
Ġtraditionn el
hou sias
Ð °
ne uf
og n
Ġrec ueil
Ġplac Ã©e
Ġpein tres
en is
er te
Ġf ruits
ĠJ ud
ĠN ice
Ġju gÃ©
Ġaff aire
ĠrÃ©f Ã©rences
Ġsouver ains
ĠrÃ©cur rent
A R
qu atre
Ġm ou
ĠF ox
ĠN am
Ġopp ose
Ġpat tes
Ġferm et
it Ã´t
ĠO lymp
Ġimp ose
quis ition
Ġadop te
H istor
Ġg ross
ĠA fin
Ġpol onais
Ġchar gÃ©e
Ġtermin ent
Ġresse mble
Ġr entrer
Ġo re
Ġprodu cteurs
Ġconsid Ã©rer
Ġsymb oles
Ġspati al
ĠcoÃ©quip ier
O ccident
ĠG rÃ©g
entre tien
Ġren se
Ġremp la
tionn els
Ġag ents
ĠCom ics
ĠtÃ©moign ent
b ury
as p
av re
Ã©m on
ĠÃ©c ar
ĠZ e
Ġcro it
Ġmom ents
Ġcondam nÃ©
Ġtest s
Ġate liers
initi ative
ĠGas ton
h Ã©s
ai le
ĠA ff
ĠN ASA
Ġbou c
Ġlog ique
Ġenvoy Ã©s
Ġmultip li
k ins
Ġp aque
Ġf olk
ĠI t
Ġgra ve
Ġdirige ant
an at
Ġinter vient
Ġcanadi en
Ġabs olu
ĠOu tre
Ġe cc
ĠÃ©t ages
Ġ5 2
,, ,."
ĠHar rison
ĠexpÃ©ri ences
Ã İle
Ġv ues
Ġch auss
ĠG Ã©n
Ġcont ent
ĠMus Ã©e
Ġs elle
ge ant
ing er
Ġsomm ets
ĠRou en
Ġseigne urs
Ġpert urb
u ites
se ctes
ĠA sie
Ġadop tÃ©
Ġvois in
O ise
Ġp onc
Ġde t
ĠH art
ils on
Ġemp loi
Ġref uge
Ġmaxim ale
oct obre
Ġcaf Ã©
ĠrhÃ©t orique
Ġa ust
iÃ¨ ge
ĠH igh
od y
Ġmal adies
Ġ190 1
ĠCel tics
ĠcÃ©rÃ© mon
ĠdÃ©finiti ve
Ġqu ad
ro w
ĠS yl
Ġtra h
Ġpri mi
Ġ189 6
Ġgri mp
erci ce
Ġdram atique
Ġpl aque
ĠM and
Ġ5 1
Ġform ations
anim aux
ĠrÃ©sid ences
Ġfinanci Ã¨res
ĠPengu ins
on ciation
ul n
tis sements
aff ront
Ġcal me
Ġphilos ophe
ĠPr usse
tain ment
Ġs l
Ġb ruit
iv ern
gu erre
Ġfinanci ers
ĠRol and
d at
an z
ĠS ab
Ġcon vo
Ġat tent
ĠnÃ© erlandais
Ġvari ations
ĠIs raÃ«l
Ġnauf rage
C O
ou ter
si gn
Ġrep os
Ġmus iques
Ġqualif ier
tern et
ĠdÃ©cis ions
h ard
Ġf al
ch ette
Ã©t age
uss itÃ´t
Ġinst allÃ©e
Ġcompos Ã©s
Ġinaug urÃ©
Ġplais ir
p ro
or f
ĠT in
Ġmo tiv
Ġplac Ã©s
oli tique
Ġav al
ĠVII I
Ġ '
Ġparticuli ers
Ġenf ance
ĠCor Ã©e
Ġphysi ques
ĠBlan che
Ġcirconst ances
p us
ro ix
ĠA h
Ġpro duisent
ois eau
avi ons
ĠdÃ©fin it
ĠS n
ex tension
Ġrest re
Ġcolon isation
Ġaccord s
Ġincl uant
Ġsuccessi vement
adel ph
al di
Ġh oriz
ĠdÃ©p Ã´t
Ġmod este
ĠrÃ©s oudre
observ ation
Ġr usses
Ġpot enti
atte indre
Ġchamb res
ĠÃ© lÃ¨ve
ĠprÃ© server
Ġnot er
Ġpuiss ante
dic ap
ĠInter national
stac les
Ġferrovi aire
ĠÃ© b
me d
Ġro tation
ĠY oung
Ġbat terie
ganis ation
Ġplac er
Ġdistin ction
Ġatti re
Ġbre ton
Ġvoc ation
P rÃ©
ĠUn ited
ĠrÃ©c ente
Ġcro ire
ĠrÃ©comp ense
c itÃ©
ur ies
ĠE ast
ĠLe m
Ġdi agnos
emp Ãª
Ġacc ent
ĠMi ke
Ġsupport ers
Ġmassac re
Ġappare ils
Olymp ique
o dique
s ax
ĠJ upiter
oc ie
Ġcompr om
Ġdev oir
Ġlit tor
ĠTur cs
Ġlign Ã©e
ĠD ay
Ġconf ort
Ġmal ade
Ġretrouv Ã©s
Ġjudici aire
ra is
ĠrÃ© side
ĠH aut
ĠMar oc
Ġgu Ã©r
Ġconstru ites
Ġlim iter
ĠsupÃ©ri eures
oise aux
alog ues
Ġfermet ure
h yp
ĠCh Ã¢
Ġ[ Â«
ore au
ĠlÃ©g er
Ġreti re
ĠthÃ©or ies
augment ation
M aur
er y
oi ff
Ãī p
arch ipel
Ġneu viÃ¨me
Ġnorm ale
et ta
ĠL am
ĠN ik
Ġex tension
Ġw ith
Ã©f ense
ĠÃ©d itÃ©
ĠC opp
Ã©g al
Ġsol s
Ġemp lois
Ġdess us
ĠÅĵ ufs
ill Ã©s
Ġcont es
Ġass urÃ©
Ġcul min
Ġorganis Ã©s
E m
h on
en ci
Ġin qui
ct s
Ġtemp Ãªte
an k
Ã©t ape
ins crit
Ġper f
exp ansion
Ġiniti al
Ġmyth ologie
ĠBay onne
ĠCont rairement
din and
ĠFlori de
Ġd ents
Ġl oy
ow e
ĠstratÃ©g ique
Ġremet tre
Ġpav illon
c ade
ĠprÃ© s
Ã©b Ã©c
Ġcou tu
urg ence
ĠÃ©limin atoires
bo ard
Ġm ourir
ĠdÃ© lÃ©gu
Ġpr Ãªtre
Ġindustri el
ĠdÃ©te c
Ġfen Ãªtres
un a
ĠM ort
ĠP ales
ĠH u
th i
Ġquit tent
Ġcommerci aux
Ġarriv Ã©
Ġgagn Ã©
Ġsouff re
Ġdo tÃ©
ĠsÃ» r
Phili ppe
in us
ĠM ach
ot on
Ġar istocra
Ġann uel
ĠsÃ©lection nÃ©
Ġreb onds
jou eur
Ġcop ie
Q uel
it o
ĠreprÃ©sent Ã©s
Ġbou che
intÃ© resse
Ġven ue
est res
ĠC ob
Ġinc omp
Ġsembl able
Ġillus t
Ġs oin
de m
Ġti ennent
ĠdÃ©b ar
Ġport raits
ĠmÃ©t rage
ĠinterprÃ© tation
ĠChrist ophe
Ġsporti ves
A s
Ġcon vention
ĠdÃ©f aut
ĠÃ©tab lir
Ġence inte
Ġin gÃ©n
Ã¢ ne
ĠrÃ©c entes
ĠdÃ©par tements
Ġsac rÃ©
E r
p le
Ġc ur
Ġb alle
ĠT ony
Ġh it
ĠF ried
ĠV ar
Ġavant age
Ã¯ n
ow ski
Ġdestin Ã©es
ĠvÃ©gÃ©t ation
Ġhon or
Ġrecons titu
ou er
Ġpro s
ĠH ob
Ġcol Ã¨re
Ġcontempor ain
ĠGen Ã¨ve
en berg
ol et
ci Ã¨re
att le
Ġcollec tif
ĠErn est
Ã©rindi ens
Ġecc lÃ©
u alitÃ©
ĠK o
ann once
Ġti rÃ©
Ġutilis ation
Ġmaj eurs
illi r
ĠdÃ©fense ur
oure use
Con texte
Ġa ire
ĠM oh
ul s
ĠO l
Ã©c os
ten ance
Ġma Ã§onn
olu mb
ĠRe ims
ow s
Ġmob ilis
Ġreli ant
us ions
ĠL ux
ĠP it
im a
Ã¨ne ments
acc us
Ġfl ot
ĠinterprÃ© tÃ©
Ġjuri dique
exÃ©cu tion
S D
r or
Ġd ign
ti o
ou ff
Ġv ins
ĠB u
ĠG ri
oc cupe
Ġacc orde
Ġass iste
ĠTh or
Ġpres tig
Ġroy aumes
Ġ14 0
Ġtechn ologie
Ġfra ppe
B iographie
c tif
d rome
Ã¨ ges
ch en
ign ant
tionn elles
Ġchar gÃ©s
Ġcontribu Ã©
Ġminist res
Ġm Ã¨tre
ari a
lic ations
Ġ190 4
for mes
ĠÃ©di fice
ĠVers ailles
explor ation
f ond
ri k
ĠÃ© par
Ġpro viennent
ĠN ap
Ã©ri en
ĠO ne
olog y
Ġca uses
ĠempÃª cher
w ald
Ġpol lu
Ġfa me
ĠnÃ©cess ite
Ġsurn ommÃ©
Ġsatell ite
Ġcrit Ã¨res
Ġponc tu
Ġch angÃ©
Ã©v el
Ġport s
ĠrÃ©f Ã©r
Ġcommerci ales
Ġiniti ale
dom ad
Ã©op old
ol o
Ġcer tif
Ġpropor tion
ĠlÃ©gend es
ĠN ick
ĠV Ie
Ġes prits
Ġindi quent
Ġsub i
enc er
ulti me
Ġexist ence
ĠPhil adelph
Ġtit ulaire
R oy
ri a
ran e
ĠF ire
ist ote
ĠspÃ©ci al
ĠJus qu
Ġposi tif
Ġpropag ande
Ġl ion
Ġp on
ĠB ros
ĠR and
ĠdÃ©m ographique
P ersonn
x e
} \
Ã ¥
ĠLe ague
av ril
Ġar me
Ġpubli Ã©es
Ġhan dicap
Ã©vel opp
Ġs oins
am oto
Ġar g
Ġmus Ã©es
Ġport ug
ak a
Ġoc Ã©an
ĠXII I
ĠdÃ©plac er
Ġcous in
assassin at
Ġa si
Ġv ass
ain ts
), .
Ġche veux
rim Ã©s
Ġmarchand ises
Ġm Ã©ti
ag issait
ĠPal ais
A p
Ġp reuves
Ġf an
Ġv Ã©tÃ©
ĠF am
ak istan
Ġaffir mant
ĠMad onna
Ġcui vre
olith ique
Ġa ve
al s
ĠT rÃ¨s
Ġal lus
Ã©ra trice
ex trÃªme
ĠsÃ©ri eux
ĠTe am
ĠComm ission
Ã©lect ricitÃ©
Ġmascul in
ĠTex as
Ġpas sionn
Ġnom ination
ix on
lie ue
enf ance
Ġenregist rÃ©
ĠmÃ©tro pole
Ġd oig
Ġf oyer
Ġdes qu
ĠdÃ© lic
Ġin nov
ĠH ab
lÃ© ch
Ã©b as
Ġvill a
Ġgen res
ĠfrÃ©qu ente
Ġsensi ble
ĠField ing
Ĵ uv
Ġn oires
si Ã¨re
tin Ã©ra
Ã©m i
Ġinf rastructures
Ġrap ides
ĠdÃ©place ments
Ġmar ques
Ġju ments
Ġconst ante
Ġrom anci
Ġdisp ers
ĠGeor g
Ġartis te
Ġress enti
Ġcord es
Ġperp Ã©tu
Ġp in
ĠM oul
ĠR ub
enne mi
th er
Ġbas que
Ġrencont rÃ©
Ġpublic ations
ĠÃ©ch elle
Ġconcl usion
Ġsculp ture
r Ã¨
il a
Ġdu o
ĠG Ã©rard
Ġapp uy
Ġrefus Ã©
Ġconvain c
oÃ® t
Ġha usse
rÃ©h ension
Ġcardin al
ve au
ĠK ong
Al bert
Ġchiff res
intÃ©g ration
exemp laires
ĠBarc elon
ĠG ard
Ġ5 3
Ġad ress
Ġ9 00
Ġpne us
A ux
ti ll
ĠM em
ĠA lan
Ã©g alitÃ©
ĠÃ©vÃª ques
in ts
imp oser
app are
ĠdÃ©velopp ent
ĠcaractÃ© rise
actu el
ĠJu an
ĠaÃ® nÃ©
h os
ri enne
Ġpl umes
ĠH a
ten ues
aur ation
Ġarriv er
ĠFre der
Ġentou rÃ©
A insi
il ique
og ie
Ġam ateurs
ĠmÃ©t rages
Ġoccup Ã©e
Ġglob alement
ĠEnter tainment
Ġl une
er o
ĠL ud
ĠS el
ĠS ys
Ġins criptions
Ġpres tige
Ġconstitu er
Ġreconn ue
habit ants
ĠTay lor
Ġl ourd
Ġp Ã©
ĠC inq
ĠC olumb
ĠD j
Ġce inture
ĠÃ©t end
prÃ© sident
Ġgrec ques
Ġrang s
Ġminim um
Ġstatis tiques
ĠDÃ©t roit
Ġc ible
Ġ5 6
ĠdÃ©s ert
Ġop in
ensi f
n y
in qu
ĠÃ ¨
ĠF is
enn a
Ġassoci Ã©s
Ġremport ant
Ġdirig er
ĠD ark
Ġh as
ĠF ra
Ġcomb att
Ġprom ouvoir
Ġbless ures
ĠmÃ©diÃ©v ale
L ar
f e
Ġa is
ĠM Ã©sopotam
In f
Ġpens ent
Ġinflu ences
UR SS
ĠGabri el
C he
imp orte
Ġdis ques
yp es
Ġban lieue
ĠstÃ© rÃ©
Ġs oie
Ġcon vers
eu ve
ĠcrÃ© ant
Ġnot able
ĠZ hou
Ġ11 0
Ġtomb es
ald o
ĠNav arre
Ġcarb one
Ġ rand
ĠS eth
ĠF our
lÃ© matique
ĠâĢ ¢
Ġent ame
Ġoccas ionn
r ants
Ġne f
Ġhabit at
Ġ190 3
Ġ184 0
ĠRom an
ĠChrist oph
E sp
Ġs oign
il Ã©e
ĠCar avage
Ġess ay
Ġneu tra
Ġaugment er
Ġi ran
Ġh Ã©b
Ã¢ t
Ġpubli er
lo ge
Ġon cle
urg ie
Ġtravaill ent
ĠdÃ©ta il
ĠKar l
Î »
ĠC le
ĠM u
Ġtrav ailleurs
mi di
ĠdÃ©p enses
Ġvict or
Ġparc our
Ġdispar aÃ®tre
ĠComm un
Ġinconn ue
Ġen le
Ġson d
Ġreg istre
Ġoccup ent
ĠRo ad
Ġf lore
ĠB asse
ĠD ra
ig er
isse ments
Ġtourn Ã©
Ġhabit ant
Ġcli p
Ġall ait
ĠSer vice
ar che
ĠL ui
au m
ĠS un
ab elle
u Ã©e
Ġpar venir
ĠF red
Ġil lÃ©g
Ġtra jet
ign y
Ġbas ket
sionn aires
Ġfac teur
Ġfavor ables
m ati
Ġre de
se y
ĠLa w
Ã©n ario
ec ture
Ġcel lu
Ġaff aib
tent rion
off ice
Ġmy st
Ġgui de
Ġble ue
E C
k k
m und
n oc
Ġd an
si x
Ġr entre
Ġfin i
Ġdisp utÃ©
iz iÃ¨me
Ġach et
h al
Ġf iction
Ġt ar
Ġrec ettes
Åĵ uf
Ġsc ru
Ġriv alitÃ©
Ġunivers itaires
Ġital iens
Ġgraph ique
Ġhabitu ellement
Ġgall o
v Ã©g
w ork
Ġp ira
Ġson ore
ĠH ard
ĠH ay
Ġpr it
ĠCh ili
ĠW ilson
Ġst ric
Ã©g ard
Ġemp ris
Ġimm ense
ti se
Ġ5 4
Ġtrans ition
Ġprom en
assade ur
z ac
Ġc erc
Ġf ic
ĠM osc
ier ry
ĠO t
ĠSy rie
Ġparticul aritÃ©
ĠColl ins
ch y
ĠC och
tÃ© rieurs
ĠCh at
vent ures
Ġjui f
ĠWi i
Ġ ur
ĠC D
Ġre tenu
ĠM es
ĠR y
ĠprÃ© occup
aut or
Ġriv iÃ¨res
Ġdra me
habit at
Ġconseill ers
Ã©bas tien
f ils
on ienne
Ġp op
Ġla tine
ĠD or
ĠF el
tin ction
ĠEn c
ĠTh ess
adi en
ĠAli ce
ĠSpir ou
] .
Ã© demment
ar chevÃªque
Ġf Ã©
ĠL ag
Ġb ru
ai g
ĠP ub
mb er
ĠAn th
Ġexp ort
ĠprÃ©c Ã©demment
M P
S P
Ġa ussitÃ´t
te au
Ġpar ole
Ġv amp
ĠD ol
Ġpro positions
ib ilitÃ©
ss ant
ĠÃī mile
Ġpuiss ants
ĠrÃ©public ain
b ilitÃ©s
n am
in telligence
Ġmar qu
Ġpra i
Ġpropos ent
Ġcr ist
Ġopp osÃ©
ĠSp ace
Ġveu lent
ĠLim oges
Ġsatell ites
accomp agne
O rig
Ã© tudi
on iens
Ġfin ir
Ã©l Ã©s
ach at
ĠÃ©ch oue
Ġquar ts
til itÃ©
ĠdÃ©di Ã©
Ġcenti mÃ¨tres
Quel ques
ĠA ur
ain tes
all Ã¨lement
Ġquit tÃ©
Ġorient al
mont re
Ġcroise ments
ĠrÃ©nov ation
ĠGrÃ©g oire
ĠBarcelon e
j ection
ĠM ul
ouv Ã©
um Ã©
co ol
Ã©c rire
Ġsec rets
Ġbr un
Ġunivers elle
Ġchante use
roÃ® t
ĠC rÃ¨te
pp en
op a
art ney
Ġdivin itÃ©s
ĠfunÃ©ra ire
D F
ĠX e
ak es
ĠprÃ©p are
Ġsusc ite
ĠSatur n
Ã©vÃ© nement
Ġtunn el
Ġpl ong
Ġex tÃ©rieure
Ã§ ait
Ġtrans forme
ĠrÃ©serv Ã©
ĠindÃ©pend ante
Ġcomport ant
N C
b out
Ġin g
Ġsa ti
Ġtra du
Ġtomb er
Ġbl ind
ĠChamp agne
Ġnor vÃ©g
er al
Ġj ur
Ġpro ph
Ġth Ã©m
ack leton
ĠSte in
Ġtrib une
Ġconver sion
Ġsch Ã©ma
A T
n s
u ki
ĠrÃ© clam
ĠI Xe
Ġav er
Ġne veu
ĠK az
ĠÃī tienne
ĠcrÃ© atures
20 11
ĠBe y
l Ã©es
vi de
Ġfin issent
nes s
ĠRe p
Ġvol ant
dic ation
Ġgl oire
ĠLÃ©on ard
Ġaccomp agne
om an
si ve
Ġcap ables
ĠGran ds
ĠFer dinand
b ack
m Ã¨re
ĠrÃ© bel
ob s
Ġmen ant
Ġind isp
ĠÃ©cl ai
Ġsil ence
orch estre
ĠrÃ©flex ion
ĠChurch ill
Ã £
Ġqu Ã©bÃ©c
ĠM Ã©m
ĠP ascal
Ġcons ol
Ġvari able
Ġriv al
Ġtraditionn els
ĠMag azine
ĠdÃ©riv Ã©s
r um
ou ement
in tention
ĠÃ© ducation
ĠB lo
ĠKh an
Ġench aÃ®
Ġv ag
ass es
h r
Ġd ict
ĠN ancy
Ġpuis sent
ĠÃ©c ossais
20 10
ĠPl ut
ĠKe y
Ġoub li
Ġs el
Ġf lan
el er
ĠA ch
ĠR ousseau
ĠAl b
Ġport ail
Ġhum ides
Ġdynam ique
ĠdÃ©mons tration
ĠSys tem
S ous
j o
ant aine
ci le
ĠP a
Ġpro tÃ©
rit z
Ġclass Ã©e
Ġaccep ter
Ant oine
Ġincap able
R en
ĠC ou
ĠT ib
ss is
orm is
Ġremont er
Ġh al
ĠF ir
ĠF ace
Ġfor mÃ©e
Ġcour tes
Ġ8 5
Ġprof iter
ĠÃ©crit es
Ġculture ls
Ġmor al
Ġdat Ã©
Ġartis tiques
Ġcam ar
Ġmentionn Ã©
Ġacqu iert
Ġencou rage
A P
A ls
à ¦
ar isation
Ġla Ã¯
Ġsur p
ĠI b
Ġins iste
Ġmag ist
Ġcontinu itÃ©
Ġvoul oir
Ġs Ã©di
age ments
Ġsa me
Ġcomp tent
ĠÃª tres
ore l
Ġ189 8
ĠMan chester
asc ension
Ġsim ultan
Ġalli ance
Ġrecord s
ĠRh in
ster dam
ĠI X
ĠdÃ©f unt
ess ais
Ġvois ine
Ġ er
Ġd oule
or ant
si ers
ens on
ĠspÃ©ci ale
import antes
D Ã©but
d ro
Ġp oit
Ġab sence
An nexes
Ġcommun s
oph ie
Ġdat Ã©e
t us
Ġc av
at ter
Ġb ale
Ġcom Ã©di
pr is
Ġnom mÃ©s
Ġmar quÃ©s
ĠK enne
Ġimp act
ĠcrÃ© ateur
ĠrÃ©p ression
Ġassoci Ã©e
ĠIs land
Ġtelle ment
Ġidentif iÃ©
Ġlabor atoire
ĠCharl otte
Ġen j
Ġb ov
im on
Ġmar quant
Ġprodu ite
Ġcolle cte
arr Ãªte
ĠMÃ©sopotam ie
m us
ch age
ĠB Ã©
Ġren vers
ĠY e
ĠthÃ© Ã¢
ĠmÃ© tier
Ġsignif iant
ĠAmer ica
Ġwe ek
ĠMosc ou
ĠB ible
emp Ãªche
Ġass urÃ©e
Ġesti ment
ĠÃ©tudi er
ĠfrÃ©qu ence
ĠrÃ©fug iÃ©s
is tiques
Ġf Ã©l
Ġcon duire
ĠT outes
imp ulsion
ati ne
ĠrÃ©s ist
Ġrepr enant
Ġoffici elles
Ġdistin guer
Ġexc ell
ĠEug Ã¨ne
I v
I ran
Ġm ante
ĠS l
Ġam Ã¨ne
ĠAn s
ĠÃ©v Ã¨nements
ĠU l
enf ants
ĠsÃ©le ctions
G N
18 0
Ġobserv Ã©
Ġdivis Ã©
appu ie
Ġse ctions
ĠF ond
Ġob sc
Ġob serve
Ġent endre
Ġsep tentrion
ĠprÃ©sid entielle
Ġsymb olis
Ġrefus ent
ĠLor ient
itt le
arrÃª ter
c li
et ti
ro ise
ĠrÃ© Ã©d
Ġh Ã©s
ĠÃ©t oile
app lication
Ġcri me
ĠmÃ©t ropol
Ġ189 7
Des cription
ĠÃ©criv ain
ĠdÃ©ch ets
re use
ĠL Ã©opold
ĠS tÃ©
gl as
ĠJe di
ĠIn d
ĠSh ackleton
Ġcompr ennent
be y
omin ation
ĠthÃ©or Ã¨me
ĠÃ©criv ains
Ġmagn Ã©tique
ĠJord an
M e
Ġre vers
Ġh ellÃ©n
Ġcl in
Ãī douard
Ġent rÃ©es
Ġoff ensive
Ã©qu itation
ĠsupÃ©ri eurs
Ġ188 9
ĠindÃ©p endance
ĠÃ©gyp tien
m or
m Ã¨tre
Ġc oiff
Ġt aure
ĠJ er
ex cl
Ġco ff
Ġorganis ations
ĠÃ©lÃ© g
Ġtraditionn ellement
re f
Ġsur vie
Ġsur veillance
iÃ¨ vre
ĠdÃ©c oup
Ġann on
yn am
Ġid entique
rec tement
appar ence
Ġbu teur
Ġrume urs
Ġdoctr ine
T V
Ġou tils
ĠdÃ©p asser
ik a
Ġmanifest ation
Ġencou rag
Ġ iv
ĠR ud
Ġpersonn els
ĠdÃ©p Ã´ts
ĠSe pt
Ġesti mÃ©e
Or dre
Ġcop ies
C omp
y ll
Ġqu ai
Ġmen a
Ġtour istes
Ġz o
ĠSe igneur
ĠÃ©tab lissement
Ġlut ter
amÃ©li oration
Ġconcurrent s
Ġrejoign ent
V F
g Ã©rie
on ction
Ã¨ vre
ĠG ood
enn y
Ġprof il
ĠrÃ©v Ã©lÃ©
Ġtent Ã©
Lors que
Ġboule vard
Ġdiplom atique
ĠRec ords
ub ert
ati vitÃ©
ver sion
Ġ190 2
ĠconsidÃ©rÃ© es
Or ganisation
Ġinspi rÃ©e
ĠTou raine
Ġdisposi tif
Ġ ran
Ġt Ã©lÃ©s
Ġr uis
act rice
Ġprom et
eng ager
Ġdemand ent
Ġemb ar
Ġus ines
ĠGil bert
Ġlinguis tique
Ê »
ie f
ĠD uc
ĠR est
ĠdÃ©c oration
Ġdist ances
ĠTur quie
Ġaffec tÃ©
D Ã©c
as hi
Ġcar rÃ©
Ġtrans mission
ĠUn ion
aiss es
Ġ189 5
ĠdÃ©t ruite
organis er
Ġadminist ration
ĠBru ce
Ġmine urs
Ġpone ys
ĠPales tine
v Ã©es
Ġtr ent
ĠphÃ©nom Ã¨nes
Ġgarn ison
ĠN ich
id Ã©s
ĠO ccident
Ġco opÃ©ration
ĠMon te
I mp
s k
iti mes
off ensive
O p
Ġb rÃ©sil
ĠdÃ© ser
Ġh er
Ġconst ate
Ġaff ect
Ġmen Ã©s
Ġanim Ã©
Ġpriv Ã©es
auc un
Ġcalc aire
not amment
Ġdioc Ã¨se
C ons
ĠR u
Ġpass Ã©e
Ġtou chÃ©
Ġbat ailles
ĠKenne dy
] ."
Ġl oup
ĠrÃ© actions
ĠT ime
ĠcrÃ© Ã©es
enn etÃ©
Ġsign er
Ġpublic itÃ©
Ã¼ r
Ã¶ r
Ġp aie
ĠB lanc
ĠR el
uis e
ven us
asse mblÃ©e
ĠAl len
Ġsub stitu
Ġbon heur
Ġincl us
Ġadministra tive
Ġchancel ier
as tiques
ĠS tone
Ġsp ons
ĠÃ©cl at
Ġvolcan ique
D enis
op er
Ġcaract Ã¨res
Ġautom atique
ĠdÃ©li v
Ġdange reux
Ġcommen Ã§a
z y
ĠF u
onn age
Ġtra g
tis sent
Ġman ip
Ġindustri els
Ġlour ds
p lan
Ġc end
qu alif
Ġt ol
di es
ĠR ab
tin ent
ĠÃ©g al
Ġparticu les
amÃ©li orer
ĠchÃ¢ ssis
ĠBulg arie
pel lier
e v
v u
ti cul
Ġf lanc
al ition
si a
ĠS ig
ĠG reg
Ġdi ale
Ġat titude
Ġtou ch
ras h
ĠMer lin
ĠdÃ©di Ã©e
R ob
Ã¨ vres
ach a
ĠSh ow
ony mes
Ġpropre ment
ĠtÃ©m oin
Ġbran ches
effec tu
ĠSpr ing
ĠPhiladelph ie
h ol
u aire
Ġs Ã©d
Ġa qu
Ġh Ã©ritier
ĠR ic
Ã§ oise
av er
Ġph are
ath an
ĠSh er
Ã©li x
ĠÃ©tu die
Ã©ch ange
eng er
Ġconvain cu
Ġperf ection
Ġd ommages
Ġc ass
Ã¨ lent
Ġt ub
Ġch ir
ĠFran c
ĠdÃ©s astre
ĠmÃ©d iterran
Ġvolont aires
aisse aux
Ġoblig atoire
O N
Ġpro ies
Ġal Ã©
Ġeng agement
ĠÃ©tudi Ã©
Ġphot os
Ġprolong ation
Ġmamm ifÃ¨res
m iques
Ġ5 8
ĠrÃ©p utÃ©
Ġentrepr end
Ġpsych i
Ġdimin ution
ĠrÃ©di ge
riss age
ĠFern and
S ax
en aire
en ay
Ġpar ad
ch im
at ra
ĠP ou
Ġeffectu Ã©s
Ġtrouv ant
Ġcollab or
ĠcoÃ» ts
yclop Ã©die
m age
Ġ omn
an Ã§ant
ig es
ĠspÃ©ci aux
Ġress ort
ĠAnton io
Emp ereur
Ġspr int
Ġg este
Ġch aud
ĠT op
ĠR iver
ĠLe urs
Ġfin ales
Ġad olesc
ĠBra b
Ġgoth ique
V ers
ou k
Ġf res
Ġt Ãªtes
Ġt ennis
ĠM az
Ġch al
Ġcompos Ã©es
Ġfamili ale
Ġmoul in
ĠClar k
Ġfacil iter
Ġnoy au
Als ace
C al
Ġv ign
Ġam oureux
Ġcol omb
Ġcheval iers
vision nement
Ã©lÃ¨ ne
Ġeng end
ĠÃ©d iteur
Ġinconn u
ĠcÃ©rÃ©mon ies
ĠL ine
Ġab at
hui le
Ġveu ve
Ġmodi fier
ĠWil d
ĠlibÃ©ra ux
ti a
ac qu
am itiÃ©
Ġh onneur
ĠLa ur
op es
ĠcrÃ© ent
Ġpsych ologie
Ġparlement aire
A F
A mer
us ta
ĠD ig
Ġconc entre
ĠY am
ĠTh Ã©rÃ¨se
Ġarm Ã©n
ĠdÃ©li b
Ġpla ques
Ġv aisseaux
ĠS ac
An gl
Ġoff rant
Ġ189 9
Ġdomin ant
Ġaliment aire
R ess
n F
Ġp oule
Ġa igu
ĠÂ £
Ġin tellig
Ã©m iques
Ġgra ves
Ġesti m
Ġcr Ãªte
atta quer
ĠAnd erson
Ġtyp ique
ĠchaÃ® nes
Ġexac tement
Ġtrent aine
ĠN ixon
Ġdis ant
An jou
Ġlib Ã©rer
Ġsouverain etÃ©
J ohn
R Ã©s
w er
Ġt Ã©n
Ġv ed
imp lant
ĠÃī lisabeth
ok s
Ġtravers er
200 8
ĠprotÃ©g Ã©
Ġnav ale
Ġchin oise
Ġsculpt ures
ĠL Ãł
Ġv if
ĠF R
ĠJ am
enc y
Ġmodi fiÃ©
Ġate lier
Ġmix te
Ġgam me
A M
Ġf ati
al ine
el ler
ĠÃ© lar
ĠS ard
ĠS ub
ĠM iller
ĠD Ã©fense
ir ant
Ġtra ject
Ġcont acts
ĠEn suite
ob iles
Ġcontra ste
Ġ189 4
Ġremplac Ã©e
ĠÃ©n ergie
Ġextra ordin
Ġprim aire
Ġlic ence
ĠÃ¨ re
} {
ar istocra
aut orisation
ĠMont pellier
Ã¢te aux
Ġviv ants
eff ic
uni or
ĠMon aco
Ġcaval ier
ĠCent er
Ġsouvenir s
ĠMcC artney
lova quie
ĠÂ» ],
st an
igne ments
Ġconsid Ã©rant
Ġchap itres
Ġadministra tif
ĠJÃ©r Ã´me
ĠapprÃ©ci Ã©
Ġcuis ine
osaur us
Ġp omp
Ġv astes
op Ã©e
um age
Ġob tiennent
Ġad mis
raph ie
Ã©li que
Ġ188 8
200 7
Ġciv ilis
sc ar
Ġant h
Ġvo tre
it te
ĠF le
Ġar d
Ġfin ancer
ĠO ttom
Ġir landais
Ġalli Ã©
Ġach Ã¨te
Ġamp li
ĠBut ton
ĠTrack Mania
i di
ri min
Ġcon du
ĠP otter
ĠB nF
ĠH on
ond a
ĠW rest
aille ment
ĠrÃ©gion ales
Ġtermin ant
Ġanc Ãªtres
ĠAra bes
B ains
h Ã©roÃ¯
ĠP res
ĠA y
Ġh ol
oc tur
Ġac tifs
con que
Ġtraditionn elles
en us
Ġle ver
il er
Ġt y
ĠP Ã©t
Ġcomp tant
Ġren n
ĠtÃ©m oins
ĠRou manie
ĠPub lish
A z
a remment
Ġb oul
En f
Ġconf ig
Ġbas ilique
Ġid entitÃ©
Ġoise au
Ġnob le
Ġnaturelle ment
ĠOli vier
ĠJustin ien
ĠRadi o
Ġcombatt ants
U ru
Ġl inÃ©
in ois
Ãª chÃ©
ĠN ob
ĠprÃ© al
ĠK ings
ĠO ld
ĠsupÃ©ri oritÃ©
Ġconserv Ã©e
hab itu
ĠEur opÃ©
Ġerre urs
hel m
Ġ ouverture
ar istes
ro pole
Ġr onde
ass an
erg ence
ret t
Ġbou dd
J us
c Ã©es
ĠC ur
lÃ© tisme
Ġam ie
Ġsol dat
Ã©lÃ© ments
Ġmoy ennes
ĠGe off
200 6
ĠChristoph er
d its
Ġn Ã©c
ĠD arc
Ġmin or
int he
ĠRe ine
Ġpossi bilitÃ©s
Ġun s
ie d
Ġpl age
ĠÃ©t ats
cu les
Ġro s
ĠÃī gypte
ĠdÃ©p ens
ĠsÃ© ances
Ġeng agÃ©s
ĠRuss ell
burg h
Ã© sion
ĠA ct
ĠR ig
Ġy ards
Ġroman tique
Ġcli ent
Ġcroise ment
Ġterrest res
A li
C I
oc Ã¨ne
Ġper se
ĠrÃ©alis me
ili ation
Ġplan ches
Ġcentra les
hi pp
Ġbi ographie
roph es
S I
d own
Ġl Ã¢
en i
Ġa ime
ĠC av
ĠC all
Ġg o
Ġch ape
ĠE li
ĠF au
ĠF anny
ons o
Ġat tention
Ġexp rime
ign ent
Ar c
inc endie
ĠentraÃ® nÃ©
Ġdat es
ĠmÃ©d aill
Ġabandonn Ã©e
Ġpolici ers
Ġstu d
Ġaust ro
ĠC ab
ĠM Ã©
ĠP ier
ĠP oe
Ġmus icien
Ġchar s
air s
Ġperd ue
Ġmarch Ã©s
Ġlo gement
ĠÃ©volu Ã©
Ġheure ux
Ġbure aux
ĠNav y
Ġrappel ant
ĠprÃ©dÃ© cesseur
f es
k ing
s oit
Ã© enne
le ine
Ġt urb
ĠM ou
ĠR io
Ã§ ants
ins cription
Ġcol lis
Ġ5 7
ĠdÃ©b it
Ġcommun istes
Ġpart ent
Ġsol lic
Ġcontra intes
Ã©li min
Ġpri eur
Ġaccue il
Ġtransform Ã©
Ġdescend ants
Ġsyndic at
Ġlux e
Ġhoriz ont
Ġd Ã®
ĠdÃ© pe
Ġsu ites
Ġimp lique
Ġconstru cteur
Ġsol de
ĠCar pent
Ġinc endie
ĠspÃ©ci mens
ĠGre at
Ġphot ographies
Ġsex e
ĠRos a
Ġdur able
Ġbret onne
Ġcompil ation
ĠTok yo
Ï ĥ
ĠL ouvre
ĠC li
at titude
ĠP oin
ĠB ach
di ct
ĠK al
Ġad joint
ĠdÃ©m is
200 9
ĠSp orts
ĠHe in
Sc Ã©nario
Acc ueil
Ġc ouvent
au le
Ġb ro
eu t
ran te
ette l
ĠrÃ©g i
rag ue
Ġconserv ateur
Ġmic ro
Ġde g
Ġm Ã¨nent
Ġj al
ul ations
ĠW ay
Ã©d Ã©e
erb ie
ĠVII e
ĠrÃ©volu tionnaires
Ġritu els
f ace
ĠC ond
res sent
os te
Ġra yon
ing Ã©nieur
Ġpo Ã©tique
ach Ã¨ve
appar aÃ®t
Ġspectac les
Ġauxqu elles
ĠChamb Ã©ry
Ġpauvre tÃ©
ĠbÃ©t on
ĠFont aine
ĠLeg end
Ġindisp ens
l aire
ĠL ens
ĠD ire
ĠT Ã©
ill ard
Ġne z
ĠFran ces
Ġman Åĵuvre
Ã©l and
Ġâ ĪĴ
ĠdÃ©mocra tique
Ġperman ente
Ġremarqu ables
effec tif
Augus te
I tal
Ġl is
ĠS yd
ĠB ibliothÃ¨que
ex tinction
ĠAn ti
Ġpart agent
ĠY ougos
Ġdiv ine
Ġball on
Ġpon tif
Ġre vi
ĠA f
Ġpro ie
Ġson s
Ġ18 15
Ġconn ait
Ġcor rid
ose x
ĠNew s
Ġbar rage
ĠÃ©cl ate
v ait
re l
Ġpar am
Ġcompr ise
... )
Ġlour des
Ġcircu its
Ġcombin aison
Ġem men
Ġlittor al
ĠrÃ©bel lion
a ac
t Ã¨re
Ġun ion
ĠL ot
Ġpar as
ĠS us
Ġin cont
Ġr us
ron e
Ġconf usion
Ġent endu
Ġcompagn ons
Ġsing es
Ġmati Ã¨res
Ġsurvi vants
Ġgerman ique
Ġsynth Ã¨se
ĠÃ©mis sions
Ġartifici elle
ĠO rient
ass aut
Ġtransform er
ĠAlexand er
ĠWar ner
Ġinten se
ĠCarol ine
Maur ice
T rois
Ġ3 50
Ġinter nes
Ã©l ie
Ġmo ine
Ġorigin aires
Ġcontribu tion
Ġdiss olution
uma cher
v ation
Ã ¸
Ġc lÃ©
in eux
ur ait
Ġf ine
ĠB ad
Ãª ne
Ġex Ã©c
Ġmar in
ang ulaire
Ġ5 9
Ġsou ci
Ġappar tiennent
ly wood
Ġabou tit
Lar en
as ter
ĠP S
Ã©m an
Ġpol Ã©mique
Ġfl ux
Ġw h
Ġ189 3
Ġdemand ant
ĠChe z
Ġparten ariat
ĠQue en
Ġastron autes
ĠC lo
ĠH i
Ġex positions
Ġcomp ositions
Ġfin ances
Ġplan Ã¨tes
Ġproc ure
200 4
rey fus
ĠAndre w
Ġdot Ã©e
Ġjamb es
ĠfÃ©dÃ©ra le
k ans
en contre
Ġp ist
Ġla p
ĠA z
ĠCh i
ver g
app elle
ĠspÃ©ci aliste
ĠVII Ie
Ġrac ines
Ġboudd h
l ind
Î µ
ou ra
Ġv uln
ill us
ing o
Ġju ment
ĠAl lan
Ġsitu ations
Ġindi quant
Ġ186 7
Ou tre
Ġdivin itÃ©
Ġfavoris er
ĠHug o
ĠEng lish
es que
Ġm out
ĠS ing
ĠD oc
Ġh e
ĠV ik
ĠprÃ©f et
ĠFland re
Cert ains
Ġmante au
ou in
om iques
ĠD o
Ġexp osÃ©
Ġent rent
Ġroy ales
ĠspÃ©ci alement
ĠrÃ©sul te
Ġban que
Ġbomb e
Ġvainque urs
ral itÃ©
Ġautonom e
ĠGord on
Ġore illes
k ers
v ise
ĠP omp
Ġr ub
Ġconf Ã©rences
Ġmont s
Ġemp ire
ĠChar le
inter diction
ĠRob in
Ġmunicip ale
Ġmob ilier
ĠmaÃ®t ris
d al
Ġs ph
Ġc Ã¨de
Ġa idÃ©
au tel
av ais
Ġdisp uter
ĠSch umacher
Ġconserv Ã©s
Ġaccep tÃ©
Ġmulti joueur
Ġgla cier
Ġ178 9
ĠdÃ©barque ment
O C
Ġc Ã¢
Ġpar ution
ĠS ovi
ĠR oh
Ġce ci
ert on
ate lier
ĠdÃ©f i
ĠrÃ©alis te
fi Ã©s
atri ces
ack er
ĠdÃ©t riment
ĠAlex is
P os
g s
ĠS at
), ."
Ġrec ul
ĠrÃ©alis ations
ĠdÃ©fense urs
ĠvÃ©rit ables
Ġconcl u
Ġdivis Ã©e
ĠTrois iÃ¨me
Ġsovi Ã©tiques
housias me
ĠLux emb
Ġp oign
Ġpos er
ÃŃ n
Ġven ait
ĠprotÃ©g Ã©e
Ġavanc Ã©e
alu ation
Ġsynag ogue
Ã£ o
ĠP ra
ces sions
Ġcour ante
ĠdÃ©velopp Ã©s
Ġgouver nements
Ġrou x
ĠdÃ©couv erts
alle mand
Ġaugment Ã©
ĠvÃ© lo
A dam
y stÃ¨me
ĠS ures
ai me
ĠN ag
ĠRe v
objet s
Ġfrag ment
Ġappro xim
ĠtÃ¢ ches
ĠsÃ©p are
e y
h u
Ġcom ique
ĠM ill
ot age
Ġcomp are
Ġver te
Ġform Ã©s
Ġlib Ã©ral
Ġmain tient
Ġcou reur
Ġconserv ateurs
ĠdÃ©clar ant
Ġprovo quer
ĠBen oÃ®t
ĠGi ov
Ġottom ane
ĠpossÃ©d ant
Ġscand ale
E M
w an
Ġp aÃ¯
Ġf ir
om en
om on
al cool
ĠL ind
ol at
ul li
Ġan aly
oc le
20 12
Ġgar Ã§ons
let t
Ġclass Ã©s
Ġbass es
ĠDarc y
S itu
Ġp ut
ar l
ra ham
ang ent
Ġconf iÃ©e
ĠÃ©v al
Ġcap tivitÃ©
ĠIn des
Ġdemand es
Ġaccompagn Ã©e
ĠTou jours
Ġposses sions
ĠsÃ©qu ences
Ã©velopp ement
H ar
au b
au rer
Ġcon join
ograph es
Ġvol er
ĠAr g
ĠrÃ©v Ã©
Ġopp osant
Ġactu els
Ġajou ter
Ġaffront er
orient ation
Ġdevi endra
C omm
f eld
x i
Ġs olutions
ĠT rip
st one
Ġdisp os
mar in
Ġcomment aires
auc une
Ġpoit rine
ĠG T
mb lement
Ġat ten
Ġju ges
iss ante
app ellation
Ġrappro cher
Ġisra Ã©li
' t
O ff
p orts
Ġp entes
Ġh Ã´
ĠLa p
st ra
oc cuper
ĠK ra
enn ais
Ġcap ital
ĠdÃ©velopp eurs
Ã©l ab
Ġlib Ã©rÃ©
Ġhypoth Ã¨ses
O c
ĠD Ã©c
ĠprÃ© m
Ġst able
Ġsou le
ĠdÃ©p our
gn y
aul d
Ġeffec tivement
Ġcrois ade
Ġtravaill ant
Ã¶ n
ĠAt lantique
ĠdÃ©mar che
adop tion
au jourd
ĠC ir
Ġch ats
ĠR angers
ĠH erm
um an
Ġcoup les
Ġcher chent
Ġdomin Ã©
ĠBri an
ĠProv ence
ar itÃ©s
ĠdÃ© tient
Ġra me
Ġmar quent
âĢ¦ )
ĠDu puis
Ġmodi fication
Ġuti le
Ġgros se
ĠdÃ©cis if
ĠBru ins
Ġvac ances
ĠOttom ans
ĠS id
ĠM ade
Ġmar ge
Ġfon te
Ġdisp oser
Ġfer a
ĠgÃ© rer
Ġsimp li
ĠLib er
ĠbÃ©t ail
ĠcinÃ©mat ographique
ĠM ess
ĠR Ã©s
ĠF r
Ġtr il
emp are
ĠdÃ©fin ir
hab itude
Ġpat ern
M arc
ĠT u
Ġh Ã©li
Ġ18 14
Ġ9 5
Ġroy aux
Ġtomb eau
ĠÃ©vo quent
ĠMarg aret
O siris
P eu
Ã Ĩthel
Ġs phÃ¨re
ĠS ky
ĠH omer
uis ent
Ġac ad
Ġ6 6
ĠgÃ© ographie
ony mie
import ants
Ġfortif ications
ĠSit telle
Ġorthod oxe
Ġscru tin
er mes
Ġpar aÃ®tre
ĠLa ke
Ġapp aremment
Ġdesc endant
Ġrespec ter
Ġdiscip lines
Ġmine ur
Ġsusp ension
ĠLor raine
ĠindÃ©pend ants
Ġsalari Ã©s
Ġculmin ant
ĠingÃ©n ieurs
Ð ¾
que z
Ġb elles
Ġg lis
ĠE ss
Ġimp rÃ©
ĠSh ar
Ġfac ultÃ©
ĠdÃ©partement ale
Ġvois ines
ĠlÃ©gisl atives
Ġral enti
F F
G en
ĠH y
Ġcar n
Ġrel atives
Ġim meub
att an
200 3
ĠLond on
Ġdest ru
Ġaccus Ã©
Ġfen Ãªtre
A qu
Ġm ous
Ã¨ bre
ri mÃ©e
ĠF ors
Ġav enture
op ie
Ġses sion
ĠDe v
Ġ% ),
Ġins cription
Ġbou cle
Ġeffectu Ã©es
ĠscÃ©n ariste
Ġhar mon
Ġax e
Ġem m
ĠM is
ac teurs
ĠG es
Ġapp ris
Ġrom ains
ĠAu jourd
Ġmaj eures
Ġcli matiques
Ġavi on
Ġlente ment
ĠNap les
h Ã©ritage
Ġb ulle
ĠS par
ĠA mb
ist res
ĠEn gl
ins titu
Ãī quipe
ĠDe b
Ġcri mes
Ġdomin ante
ĠRen ault
Ġrappel er
qu ets
am an
ĠÃ©t endue
Ġcomp rÃ©hension
Ġapp orter
Ġam ont
Ġvoy ant
Ġcoll ines
asc ar
ĠdÃ©n once
hum our
Ġpou dre
Ġfaibles se
ĠBert rand
Ġcatast rophe
s ch
Ġd il
Ġm anger
al g
ac quisition
ĠT V
ons cient
ĠK y
Ġgr ille
antin s
Ġcit ad
Ġphot ographie
Ġgolf e
ĠÃ©me utes
s ar
Ġt ribu
Ġj oie
Ġj azz
Ġ6 7
Al fred
ĠMad ame
Ġroch ers
z en
Ġf uir
Ġpl ates
ig an
ell y
ĠIn ternet
Ġsal aire
Ġtourn Ã©es
,, ,
Ġatta quer
Ġint ro
Ch rist
Ġreven di
Ġadap tÃ©e
Ġgagn ent
ĠDou glas
alli ance
Ġtac tique
er me
ar riv
Ġpour ra
mb ourg
ĠH ot
Ã©t oile
tes te
ĠgÃ©nÃ©ra tions
Ġfut urs
Ġesp Ã¨re
ĠAr ts
Ġbon us
ĠÃ©qu estre
ĠÃ©lev Ã©es
Ġcroy ance
ĠSant a
ĠPÃ© kin
ou rage
Ġv ot
ch ard
ĠC ass
Ġin tr
Ġcomp atri
Ġmar quis
ĠdÃ©c al
onne urs
ĠgÃ©nÃ©ra lis
ov ie
ĠmÃ©m oires
ĠÃ©limin Ã©
Ġpron onc
archÃ© ologie
ĠColle ge
Ġrenn ais
Ġc oin
ri el
ĠV ettel
ĠAn im
agn er
Am Ã©ric
Ġfamili al
ĠOu est
Ġrecru tement
Ġcontro verse
Ġprosp Ã©ritÃ©
GÃ© ographie
appare il
U N
a un
Ġp ain
ĠC ode
Ġb lÃ©
ĠS erbie
ĠD in
ĠCh er
Ġmar itimes
Ġappar ence
ĠIn stitu
Ġautoris Ã©
s ky
am ille
Ġh ivern
gl er
Ġ6 8
ĠSch ool
Ġinv itÃ©s
Ġtre mp
Ġdiver si
Ġparten aires
Ġtardi ve
Ġtriom phe
domad aire
n on
ti an
Ġm ira
ont o
ci des
ĠB oc
Ġsu g
Ġ6 3
Ġsui cide
Ġoff rent
Ġfond ateurs
Ġcou rage
Ġunivers itÃ©s
Ġ187 5
install ent
Ġindividu el
auss Ã©e
akes pe
Ġdeg rÃ©s
it ter
ol y
ĠrÃ© tic
ĠT i
Ġan onyme
Ġex erce
ĠCh ac
ĠPar c
Ġrep as
Ġconst amment
Ġ7 2
ĠRe al
Ġ188 2
Ġajout ant
ĠAff aires
z o
ĠM aine
ĠD avis
anti ers
Ġdat ent
200 5
Ġspect ateur
Ġsuccessi ves
Ġaffron te
ĠhiÃ©r archie
Ġrempla Ã§ant
rÃ¨ tement
G r
Ġp ul
ar tis
ĠB og
ĠI ran
ĠEn f
fi ant
Ġretr ans
ĠAm Ã©rindiens
Ġsuff it
Ġclassi fication
Ġillus tre
Ġdimin uer
Ġrur al
Ġsty lis
ĠColumb ia
ĠS enna
Ġj ury
ĠrÃ© su
Ã©m ergence
Ġprom o
Ġ188 5
Ġconfir mÃ©
Ã©chapp er
Ġache vÃ©
E P
m ire
r onn
ĠC rois
ĠAl ph
Ġoff rir
Ġrel Ã¢
ĠMc Laren
ĠmaÃ®tres se
a os
Ġc ouverte
ĠB and
am orph
ĠR a
ill ent
Ġcl an
qui de
Ġter ri
Ġgouver n
ess or
Ġ186 6
Ġcommand es
hab il
Ġprol onge
Ġindividu elles
Ġcroy ances
Ġc u
or Ã©es
ans en
ol ds
ac Ã©
Ġfl ui
Ġdeven us
Ġpropos Ã©e
Ġ187 1
Ġsout enue
ĠtÃ©lÃ©s pect
Ġd in
en tiques
Ġp ente
Ġg end
ĠrÃ© m
Ġin hum
ĠT ig
ĠprÃ© co
Ġhum ide
Ġsatis fait
Arg entine
R el
Ġp este
ĠL ive
Ġv ig
se e
os ants
Ġsu m
Ġrep ort
Ġessenti el
Ġpois son
ĠrÃ©di gÃ©
ĠDen is
appr entissage
Ġun d
ol ition
ais er
ab ilitÃ©s
Ġpr ud
Ġnom bres
ĠW ings
ĠdÃ©c rire
Ġcl aire
ĠMar sh
cl avage
ĠmÃ©c ont
guer ite
D is
O M
ur ier
Ġg enti
ĠM ir
ĠW ell
Ġrep roche
Ġju gÃ©e
Ġren once
Ġinter mÃ©diaire
gn Ã©
Ġinc ert
Ġsort ent
Ġfranch ir
ĠVen iz
Ġmos quÃ©e
Ġachev Ã©e
2 000
H er
I V
j ac
k en
qu ier
Ġf es
Ġpl onge
ĠH o
Ġcomp tes
ĠK urt
amp leur
Ġnational istes
ĠBr est
Ġfix Ã©
Ġfant astique
Ġavanc Ã©es
Ġfour r
Ġcandid ature
ĠcÃ©ra mique
Pos tÃ©ritÃ©
Ġ 00
Ġs aga
il de
Ġvari ables
ĠMi y
Ġcarb urant
Ġbombarde ments
ĠBrun o
Ath Ã¨nes
Ġbri Ã¨vement
O S
Ð ¸
ul te
ĠG ib
and re
av ie
Ġinter vention
Ġconf iÃ©
ver gne
Ġbar on
Ġdisc ussions
Ġeffectu Ã©e
ĠÃ©lect ronique
ĠÃ©vo quant
Ġoblig Ã©
ĠDomin ique
V al
j amin
le z
il ib
Ġre viennent
ĠN ight
ĠCon vention
let tes
200 1
rist an
ĠEx p
Ġattest Ã©e
acu ation
Ð µ
qu ille
Ġt ome
Ġn octur
ri de
ch o
Ãª nes
Ã©t al
Ġapp lication
Ġimp ression
Ġmat uritÃ©
Ġemp Ãªche
cul aire
Ġcr yp
ber ht
cal ade
Ġnour rir
ett o
ĠBir d
Ġprotagon istes
aristocra tie
B ern
G V
T out
n i
ĠRe vue
Ġbat tent
acc Ã©der
Ġloc alement
Ġcy lind
ĠSec ond
ĠMi di
Ġpouss Ã©e
Ġcomport ent
Ġglaci ers
T our
b ar
c tive
ĠL ion
Ġcon cile
Ġh Ã´te
ĠF ay
pr ises
ter ies
ĠCh am
ram ment
Ġsign ale
ĠMc K
ĠFin lande
Ġautor ise
Ġreb elles
ĠLu cien
Ġpron once
Ġmagas ins
ol ic
Ġ( +
Ġexp ression
Ġsp Ã©c
Ġli quide
Ġferm Ã©
Ġscol aires
ĠBan que
ĠbÃ©nÃ©fici er
Ġterritori ale
ĠGren oble
ĠVin ci
ĠSures nes
ĠEngl and
M er
s ud
te chn
ĠP anth
os phÃ¨re
Ġmen aces
ĠÃ©lect riques
Ġsurf aces
Ġconfir mer
ĠdÃ©cis ive
Ġgrot te
Ġcircons cription
om orph
al onique
ro l
li a
ill ant
Ġnom mer
oy ers
Ġsou lÃ¨vement
Ġplu me
Ġnum Ã©ros
ĠRh Ã´ne
Ġsame di
w al
ra mide
ĠL uis
les se
La urent
Ġmin eure
Ġent ra
Ġloc alitÃ©
Ġcomb us
Ġinv itÃ©
Ġtal ents
ĠSatur ne
ĠA ug
ĠE c
ĠF lam
Ã©t ais
Ar ch
anci ens
Ch amp
ĠdÃ©t ourn
Ġoccident aux
ĠHug h
Ġsubs iste
I N
b onne
al om
ĠP u
pp i
ĠR oll
ad h
Ġren ouveau
Ã©p ouse
ton es
Ġmal t
Ġsol itaire
ĠÃ©trang er
ym ne
Ġabandonn er
Ġparis ien
Ġanalys es
ĠSyd ney
p rÃ©sent
Ġla b
Ġre lanc
end s
ic ales
ĠLe v
Ã©n Ã©
ĠW W
ici el
Ġob server
ĠprÃ©sent Ã©s
Ġpermet tait
Ġliv rÃ©
Ġsub ir
ĠmatÃ©ri au
ĠRen aud
arra ss
Ġfavor ise
Ġdimin ue
ĠapprÃ© cie
ĠbÃ©nÃ©fici ent
lav ie
ĠVend Ã©e
Ġvag ues
O b
ou f
ra ux
Ġch Ã´
ĠD S
Ġh el
Ġaut och
Ġconstitu ant
Ġcou ramment
Ġqualif iÃ©s
ĠÃ©m ig
ĠTor onto
S u
S ec
ci ale
ĠB BC
ĠG ram
Ġgr Ã¨ve
ĠprÃ©c ieux
Ġdou x
Ã©qu ival
Ġsex uelle
ĠnÃ©goci er
ĠrÃ©tab lir
ĠMun ich
as ia
ac cident
onn ance
Ġemp loie
Ġ189 1
Ġcli ents
Ġsuff rages
Ġred Ã©c
Ġpoursui vent
adap ter
a ou
g ard
p lus
Ġde bout
Ġf irent
ĠC FA
ĠB oh
ĠD Ã©s
ĠT rÃ©
ĠE ric
ĠH end
Ã´ ture
ĠdÃ©p ression
vel t
Ġquel qu
Ġartis an
ĠpossÃ©d ait
Ġrende z
ĠcommÃ©m or
ĠPok Ã©mon
en ch
en ing
Ġs ages
Ġc oute
ou ge
Ġg ain
âĢ ²
Ġdi alogues
Ġtou cher
Ġdisp osant
ori Ã©tÃ©
Ġess aie
fr Ã¨re
Ġpron oncÃ©
ĠcollÃ¨ gues
Ġflu vi
Ġtraject oire
A L
T outefois
i as
l ot
p Ã©
v ar
Ã¨ ches
ĠB aud
Ġ6 2
app ort
Ġcin Ã©
Ġouv erts
Ġhabit ations
Ġmag ie
Ġmi roir
ĠBourg et
ĠKing dom
Ġravit aillement
empÃª cher
C C
c ap
d ote
Ġd en
en sions
in Ã©s
ĠÃ© duc
ĠB ul
ĠB ron
Ġh ameau
ĠJ r
Ġjou Ã©e
ver sement
Ġmin er
Ġmat ches
Ġag ressi
ĠÃ©ch antill
Ġsour is
Ġ186 1
Ġlog o
ĠrÃ©comp enses
ĠaÃ©ri en
Ġregroup ant
incl in
Arm Ã©nie
f eu
m s
Ġ á
Ġ ultime
Ġn ett
our i
ĠB ry
ĠT ak
end roit
Ġpri oritÃ©
ĠBal zac
ĠÃ©volu er
ĠfrÃ©quent ation
Ġparis ienne
ĠÃ© puis
si g
ĠP Ã¢
ĠB ac
uis ant
id ent
Ġperm it
Ġass is
anci ers
ĠSte f
200 2
ĠdÃ©t ruits
Is raÃ«l
ĠprocÃ©d ure
ĠmathÃ©m ati
Ġamen Ã©
d itÃ©
ĠB av
os si
Ã©p aisseur
Ġvis ites
arc k
ĠÃ©conom ie
Ġattribu Ã©e
Ġmu tu
augment er
ĠTin tin
Ġa f
ĠC op
os ph
ĠR ow
Ġra ff
Ġcl Ã´ture
Ġimp Ã´ts
Ġat mosphÃ¨re
Ġpo che
cep tions
Ġfond ations
Ġouv ertes
att us
Ġmer veille
Ġfais aient
Ġriv es
ĠlittÃ©ra lement
Ġto iles
Ġmunicip ales
rest ation
ĠChampionn at
m ises
Ġp ionn
an aly
ag ine
tin a
Ġres titu
Ġinter venir
Ġmal ades
Ġco Ã¯n
Ġrou es
ĠprÃ©f ecture
ĠBourg ui
Ġquanti tÃ©s
Ġabs olue
ĠtÃ©lÃ©spect ateurs
H or
Ġd a
et z
ch auff
ĠB rad
Ġin sectes
ĠN on
Ġst abilitÃ©
amp h
ĠPar th
Ġman uf
BN F
Ġtermin Ã©e
Ġlog is
Ġlois irs
Ġatteign ant
i ales
ĠS Ã©v
Ġch ass
Ġne ur
av enue
all en
Ġju d
Ġcor ne
Ġass y
Ġpres s
ĠrÃ©v Ã¨lent
Ġrend ue
Ġw eb
Ġimm ob
Ġcorrespond ent
Ġvra ie
ĠprocÃ©d Ã©s
ĠidÃ© al
yg Ã¨ne
Ġnaz is
. ).
D S
Ġd auph
Ġs ombres
ĠP enn
ĠB y
ac tive
ic aux
ter rest
Ã©r up
Ġph on
Ġjourn Ã©es
ĠSu z
Ġconcern ent
Ge orges
ĠRoch elle
l oc
Ġb oss
ĠS ak
ĠP oi
ĠB uff
ĠE mp
onn ent
ĠprÃ© nom
oy ant
Ġentre tient
Ġcircul aire
Ġsouhait ent
Ġbloc us
Ġassassin Ã©
Ġcostu me
c ass
g h
ĠC y
Ġcon vient
ĠSt ory
ess ai
Ġpone y
Ġl istes
is lam
ag ence
li p
ĠF ront
Ġrep ous
Ġplan if
ĠÃ©n orme
Ġprofond es
ĠdÃ©mocra tie
ĠJuli en
ĠFR BNF
V ie
V II
et tre
Ġau th
ch ait
Ġapp ortÃ©
ose velt
Ã©ro sion
Ġorigin ales
ĠrÃ©un is
aci er
ĠRou ge
ĠLu ke
ĠMur ray
Ġbombarde ment
Ġruis seau
F C
Ã© Ã¢tre
Ġp riÃ¨re
Ġg ram
Ġch Ã¢teaux
ĠB omb
di m
Ã¢ le
ins c
Ġfonction ne
Ġartis ans
Ġtransport er
Ġexpli quant
gÃ©n Ã©ral
Ġpne um
Histor ique
Ï Ģ
el et
ĠS ib
ĠP Ã©l
ĠG on
Ġar ra
Ġsol id
land s
Ġcamp us
ĠCl assi
ĠCan nes
ĠmÃ©di atique
ĠÃ©qu estres
Ġprovo quant
Ġnour rit
ĠChamp ions
Ġpleine ment
appro visionnement
Ġbaptis Ã©
Ġl ent
Ġp are
Ġc ub
Ġj oy
Ġin time
Ġh Ã©rÃ©
imp Ã©ratrice
ĠÃ©c uries
if ique
Ġmont Ã©
Ġag ent
Ġus ine
ĠCa en
ĠItal iens
Ġpaque bot
tinÃ©ra ire
Ġhas ard
ĠrÃ©gi ments
Ġd ame
ĠC lÃ©ment
Ġb y
Ġre par
ib aldi
lÃ¨ vent
ĠÃī g
Ġnot oriÃ©tÃ©
ich es
Ġremp arts
Ġins urg
Ġins pire
inst ruction
ĠmÃ©di oc
Ġeng agÃ©e
ĠcoÃ©quip iers
Ġtrip le
acker ay
Ġpl omb
ĠP un
ĠR ach
Ġmar gin
Ã©di a
ĠrÃ©alis ent
Ġrom aines
Ġesp oir
Ġchar te
Ġprogressi ve
Ġgrav itÃ©
Ġhyd ro
identif ication
A ix
T rans
b ule
i ane
w art
Ġc Ã©der
or c
Ġn ormes
Ġre lier
ĠT an
ĠT am
ĠN atur
ĠÃ©c art
ven ant
gu eux
Ġsort es
ĠÃ¢ gÃ©e
Ġsignif ication
ĠKe vin
Ġmob ilisation
ĠGl ob
orb ite
ĠGau le
ĠvariÃ©tÃ© s
Ĵuv res
ĠStÃ© ph
Ġs arc
Ġb ox
ĠS quare
Ġcon cession
ĠM ot
ĠA cc
ĠD all
Ġpro stitu
Ġh eb
end us
ĠN ov
Ġentre tien
ici lement
Ġacc ro
Ġph ara
ĠrÃ©c onc
aÃ¯ ques
Ġasse mbl
ĠMet z
Ġprisonn ier
Ġmascul ine
ĠStudi os
verg ure
1 00
P e
n is
Ġm our
il iers
ĠD up
ran ch
ĠV is
id ge
anc ouver
Ġemp re
eng agement
Ġunivers el
anne au
ĠÃ©l ites
ĠconÃ§ ue
Ġrej ette
ĠIr lande
ĠCarl os
Ġtherm ique
Ġsty les
ĠDre am
Ġtron Ã§on
Ġf eux
ĠS T
ĠP lace
ĠA ustrali
end rait
ing ham
Ġpers Ã©cu
Ġdiff icilement
Ġvol s
Ġgrande ur
ĠentraÃ® nant
199 9
Ġ187 9
ĠarrÃª tÃ©s
ĠWil helm
Ġmauvais es
ĠT oy
Ġal lÃ©g
ĠFran Ã§oise
ĠrÃ©p lique
Ã©l itÃ©
ĠLis a
Ġcriti quÃ©
ĠCheval ier
ĠFried rich
ĠmÃ©ti ers
ĠThess alonique
R ec
T op
d or
e reurs
v Ã©n
w ig
ĠL omb
ĠD ave
end um
ĠdÃ©c ern
Ġdis positions
ĠdÃ©b ou
ĠdÃ©p loie
Ġsoci alistes
Ġsal ut
ĠPe tite
Ġmuni tions
ĠarrÃª ter
Ġposi tive
Ġparten aire
ĠHal o
Ġrenf orts
m el
t ot
Ġd ense
al o
ag h
ĠM P
ĠB la
ĠdÃ©f orm
ĠTh ierry
Ġconstru cteurs
Ġorganis er
Ġ188 4
Ġciv iles
ĠCas tel
ĠByz antins
Iv oire
ĠrÃ©su me
D on
c or
v ing
Ġ icon
te aux
se p
ĠrÃ© cip
ge ance
ĠÃ©c ras
Ġmal heure
ĠdÃ©si re
loy d
ĠÃ©d iteurs
ĠdÃ©partement al
Ġenvis agÃ©
env oyer
Ġstock age
ĠpÃ©tro le
Ġindig Ã¨nes
ĠLuxemb ourg
ar mer
Ã¨ ves
ĠB ord
ĠF lÃ¨che
ill o
Ġmar quÃ©es
Ġres sent
Ġremp lis
Ġcin quant
Ġrest Ã©e
dic ations
Ġ188 6
Ġfav ori
Ġ179 0
Ġcroiss ante
Ġconfront ation
akespe are
Ġb ic
Ġg ro
ĠH ad
Ġar bre
ins p
Ġvi rage
Ġ189 2
Ġmag ique
ĠPro st
Ġviol ent
Ġsyn drome
Ġadap tations
Ġ185 1
Ġobserv ateurs
Ġgal eries
Ġexploit ation
Ġpouss Ã©
Ġbourgeois ie
L uc
N ic
a qu
ar abe
et nam
Ġn er
ĠL as
Ġpl af
ran us
ĠK im
ĠO p
Ġob tenue
Ã©quipe ment
ah an
Ã¨g ue
Ġgar es
ĠprÃ©f Ã©rÃ©
Ġ188 1
Ġ186 3
Ġremplac Ã©s
rog Ã¨ne
Ġurb ains
Ġextra it
Ġexcep tionnelle
Ġinaug urÃ©e
Ġdiplom atiques
ĠMas ter
u tÃ©es
ou ches
Ġv ole
Ġb and
ĠI GN
bre r
Ġinter rog
Ġappar ent
Ġprom u
Ġtermin us
ĠrÃ©un ions
Ġmusic aux
ĠGold en
Ġd ragons
ĠP ower
ĠD C
ĠH ome
ĠH MS
Ġrec r
Ãī tats
Ġacc Ã¨de
la vi
Ġtrans e
Ġ8 2
Ġatte inte
ĠmÃ© pris
ĠBeau coup
ĠÃīc osse
D iff
x ion
Ã ½
Ġ Ġ
or Ã©g
our ent
ĠP akistan
ĠB uc
ĠJ oy
Ġdiff use
Ġren aissance
tionn ellement
Ġinst ant
ĠnÃ©g atif
Ġ186 5
Ġcontinent ale
Ġajou tÃ©
ĠGui de
appu yant
ĠsystÃ©matique ment
invent aire
Ġtouch down
ĠVeniz Ã©los
ĠchÃ´ mage
C ri
Ġm iti
Ġcon duisent
ĠN et
og Ã¨ne
ex il
alis Ã©es
ĠgÃ©n Ã©rique
ĠJe une
Ġ186 4
Ġvain cu
Ġillus trations
indi vidu
Ġremont ent
ĠrÃª ves
ĠaÃ©ri ennes
ĠCharle magne
d le
l ock
ci ers
ĠA C
ab y
Ġpart agÃ©
Ġcoup able
ĠThÃ© od
ĠLou ise
ĠexpÃ©di tions
Ġprai ries
i i
on el
Ġf Ã©li
al les
el Ã©e
Ġb riques
tÃ© rie
tu des
he ad
ach t
sionn aire
ĠgÃ© org
Ġpal marÃ¨s
eff ort
Ġasse mblÃ©e
Ġ188 7
Ġprovo quÃ©
ĠPal Ã©
Ġtab lettes
Ġray onnement
Ġparf aite
Ġtch Ã¨que
b ell
ĠV ancouver
ĠdÃ©f ic
ĠPhili pp
ĠTe le
Ġfus ionn
Ġritu el
O R
c ourt
re lie
Ġest hÃ©tique
ct rice
ob Ã©
Ġass istÃ©
ĠPe dro
Ġdessin Ã©es
ĠÃ¢ me
Ġ179 4
Ġsauv et
Ġadministra tives
ĠDan ube
ajout ent
ĠdÃ©pass ant
explo sion
Ġing Ã©nieur
ĠPublish ing
o lement
re lles
Ġv ulg
ĠÃ© rup
ĠC up
ĠP ict
ĠA k
ff e
ĠT o
ob lig
ĠÃ©g ard
Ġser ment
Ġmont age
Ġprob abilitÃ©
Ġrend us
ute lle
ini um
ĠHug ues
Ġpanne au
ĠPers es
Ġen gl
ill ages
agn ol
Ġnation aliste
ĠSt ate
Ġ188 3
Ġfourn i
ĠsÃ©par Ã©s
yr us
mÃ©di aires
Ġdos sier
Ne ige
Ġsouter rain
V oir
en h
ar isme
Ġdu chesse
at ar
Ġo t
ouv rir
Ġdi alogue
Ġex pose
ap tis
Ã©t aires
ss on
ĠAn na
ĠÃ©quip Ã©e
Par is
ĠRuss es
ĠSam us
Ġassi mil
Ġabou ti
hor reur
Ġmac Ã©d
A ur
m ars
ab ond
ĠR iv
Ã©ra it
ĠSh akespeare
ĠprÃ©f ace
ĠnÃ©g lig
ĠBal kans
Ġul tÃ©rieure
ĠirrÃ© gu
Ġcrat Ã¨re
Ġc ade
ou rag
Ġch antiers
Ġin habitu
ĠW olf
Ġchev au
Ġindi en
ĠIn di
acc ompagn
Ġess or
Ġ186 2
Ġconsac rer
Ġamb iti
Ġjaponais es
Ġmyth es
ĠSy stÃ¨me
ĠÃ©chapp er
roÃ® tre
arme ment
ĠfÃ© od
v ance
Ã¨ bres
ĠB us
ĠB ud
ĠR em
ĠCh opin
ari tions
Ġsou lÃ¨ve
Ġoff ert
Ġcontra ts
ĠdÃ©r oulement
Ġ179 2
Ġreti rÃ©
Ġnor dique
Ġpolici er
Ġcompl ot
lov aque
instru ment
Ġconfig uration
ĠEuropÃ© ens
Ġf oc
Ġf ruit
Ġn aiss
ĠL um
ĠÃ© man
ab s
ĠÃ©g ale
ĠÃ©p id
Ġvis uels
20 13
Ġoccident ales
Ġpublique ment
Ġsculp teur
Augus tin
ism arck
Ġcrain te
Ġallus ion
ĠYougos lavie
1 78
m as
it ale
ĠL ittle
ĠC ic
Ġcon tiennent
ĠM ik
li mat
ĠI an
ad resse
tin t
Ġacc Ã©der
ĠMal te
ĠÃ©quip Ã©
Ġdipl Ã´me
Ġguer riers
ctor at
Ġnat ale
ĠBrab ham
effic acitÃ©
ĠWrest ling
ĠCarpent er
Ġt utelle
ra ts
Ġpar lent
Ġv oile
ĠP op
li Ã¨re
ĠH in
og ues
ĠK u
ĠdÃ©p assÃ©
Ġvi ve
unes se
Ġretrouv Ã©e
Ġhyd ra
ĠFI FA
Ġtriom ph
ĠBook s
Ġc oc
Ġj ette
ĠT rin
ĠT ristan
Ã¢ tel
ĠÃ©g alitÃ©
ĠÃ©c urie
An ton
Ġfer mes
Ġparticip ant
Ġdistin ctes
or um
Ġen rich
ĠÃ© checs
Ġg e
ĠH ell
Ġmin oritÃ©
ĠAr d
Ġco alition
ĠRo osevelt
af ric
Ġprati quer
Ġdesser vi
ĠMaxim ilien
qu ettes
Ġt ro
ans on
ch ap
ĠC i
ĠB ret
ĠT est
Ġh u
end er
ouv ant
ĠF Ã©lix
ĠÃ©t h
vis ible
ĠrÃ©c ent
Ġeffec tif
Ġviol ente
ĠspÃ©cialis Ã©s
Ġax es
A llemand
f re
à ¤
Ġp ire
ĠL ight
ĠdÃ© rive
ir ond
ub is
Ġ18 78
int osh
ath lÃ©tisme
Ġsorti es
Ġfont aine
ox yde
ĠcÃ©rÃ© ales
Ġmas que
Ġfant Ã´me
Ġparall Ã¨les
u in
est Ã©
ol phe
Ġre lÃ©gu
Ġg ise
Ġpl aines
ĠH as
ĠcrÃ© ations
Ġvie ill
Ġlim it
}} }"
Ġ185 4
Ġ187 2
Ġillus trÃ©
Ġly onnais
ĠÃ©criv it
Ġmonn aies
ĠAdam s
Ġmusulman e
Ġraid s
P olitique
R h
b ie
i pe
Ġs Ã¨che
qu ants
Ġb oy
ĠF ou
ron iques
emp orte
yn ch
ĠBar ry
Ġtri o
ĠPhili p
Ġcomment aire
Ġphot o
Ġtransf Ã©rÃ©
Ġmenac Ã©e
ĠsÃ©v Ã¨re
Ġrapproche ment
Ġasc ension
ĠVÃ©n us
A mb
O L
O li
S N
m al
s ous
Ġt aill
ĠM ack
ĠP rom
Ġ8 8
20 15
ĠGu er
Ã©lÃ© ment
ĠSe bas
Ġcommand Ã©e
ĠdÃ©n omination
Ġconv oi
Ġvites ses
ĠÃ©tro ite
imagin ation
Ġmagas in
Roy al
h Ã©ritier
Ġf oyers
ĠM me
ĠP re
elle y
Ġtra ction
Ġcert es
Ã©l oign
Ġhum an
Ġsembl ables
Ġmusic ales
Ġbomb es
ĠÃ©volu tions
ĠEm ma
Ġsuccessi fs
Ġsin on
ĠApp le
ĠGiov anni
d ale
l ante
u eux
Ġp ath
in aug
Ġm Ã©rite
Ġen cl
rÃ© ation
Ġcon d
ĠA BC
Ġex acte
Ġsec rÃ¨te
ari os
ĠdÃ©p endant
Ġdomin ent
Ġ185 9
ĠRom ain
ĠrÃ©public aine
gra de
Ġcomprom is
Ġchape au
P al
S ources
Ġt ox
Ġre tenue
Ġcon jug
ĠA ventures
and a
ĠV ous
Ġcar ic
ĠDe f
ĠrÃ©alis ant
Ġpropos ant
Ġopp osÃ©s
ĠvÃ©rit ablement
Ġaccompagn Ã©s
Ġprim aires
Ġentou rÃ©e
ĠMiss issi
Ġintellectu elle
Ġexig ences
ĠAnth ony
I m
Ġd ites
on f
ti p
ĠS C
ĠD ictionnaire
Ġnom in
Ġacc use
Ġad met
Ġper ception
ĠÃ©p au
Ġbord ure
Ġrand onnÃ©e
C ol
c os
Ã© vent
an ime
us sion
ĠÃ© mission
ĠP oint
Ġin uti
Ġaut onomie
ĠÃ©le cteurs
Ġri di
ĠnÃ©g lige
Ġenter rÃ©
ĠFreder ick
Ġcend res
le f
Ġv ec
di ff
lÃ¨ ne
Åĵ ud
agn ols
ĠU p
oph ile
Ġsuc re
Ġcer titude
Ġsl alom
p re
t Ã¨res
en aires
it ain
Ġre z
ĠD Ã©m
ĠG az
Ġal p
Ġst opp
Ġ7 6
Ġsitu ent
adi enne
Ġvain cre
Ġsacri fice
Ġmons tre
effectu er
F er
ont an
ĠG ab
ui es
Ġtra iter
cip ation
emp arer
ĠprÃ©c ur
ĠJoh ann
Ġappel Ã©es
Ġgard es
ĠarchÃ© ologues
Ġcant ons
Ġrenv oie
Ġsignific ative
Ġcollis ion
b it
Ġdu es
at tent
ĠP Ã¨re
Ġh Ã©ri
onn ier
ĠH onda
Ġpr estation
av a
Ġmon arque
ĠFran cs
Ġconf ier
ari us
Ġmilli ard
ĠÃ©ch o
Ġcad res
Ġviol ents
amÃ©ric aine
ĠmÃ©can iques
es cad
ar bre
il y
ĠC onn
ĠC ord
as ie
Ġb or
Ġh Ã©ritage
Ġpos th
ver y
ĠCol or
ĠCol bert
ĠentraÃ® ner
Ġappr endre
Ġorient ales
ĠGal lim
Ġcre v
Ġperman ence
ĠAuc un
Ġforc Ã©ment
Ġislam ique
0 7
O uv
S es
v ain
Å Ĥ
Ġpl umage
Ġj Ã©s
ĠO tt
ĠgÃ©nÃ©ra les
Ã» te
raph e
ak u
Ġemp lacement
Ġdonn a
aur u
Ġimm ig
Ġsensi blement
ĠGar ibaldi
Ġparois si
ĠrÃ©d acteur
Ġdiver g
ĠSar ah
ĠPit ts
Ã©rup tion
ĠGallim ard
s aison
Ġd ragon
os hi
ĠF ame
Ġti rage
Ġcor ruption
gu ay
illi ers
Ġcr Ã¢ne
Ġchois ie
Ġtrib ut
ĠGen eral
Ġenregist rÃ©e
ĠvoÃ» te
R et
S h
Ġt rot
Ġb ol
Ġg aul
ci o
tÃ© n
ass oci
ĠpÃ©ri mÃ¨tre
Ġappar tements
aur Ã©
ind ustri
Ġrou tier
Ġdomin Ã©e
Ġ185 5
Ġlibre ment
Ġferm Ã©e
ĠSta dium
Ġtax es
ĠMerc ure
P rin
Ã Ĥ
Ġn aval
ĠL in
onn et
che ur
rent e
ail li
ach us
Ġsucc Ã¨dent
och ine
Ġcompar able
Ġ187 7
ĠBen jamin
ĠPer se
ĠThor pe
Ġved ette
Ġinsurg Ã©s
al an
Ġau d
ol ing
ĠS ti
ci r
ĠT ru
og o
imp Ã´t
ĠK r
Ġro cher
Ġser pent
Ġconc entrer
Ġon ziÃ¨me
aÃ¯ d
Ġspiritu el
Ġcitoy ennetÃ©
ĠrÃ©pert ori
ĠrÃ©fÃ©r endum
l ets
Ġs te
Ġf asse
ĠC elles
ĠS Ã©
mp e
ĠM aÃ®tre
Ġj oin
ĠD ion
ac tique
Ġren oncer
ĠrÃ©c ents
Ġatt endant
Ġ185 2
Ġamb itions
ĠinfÃ©ri eures
Ġspiritu elle
Ġproch aine
ĠSard aigne
o ver
Â »
ĠH Ã©ra
ct Ã©e
itu des
vis ionn
Ġcap tur
Ġemp ereurs
ret te
Ġcommer Ã§ants
ĠSte ven
Ġcat alogue
Ġdeme urent
ĠconsÃ©cu tive
Ġbass ins
ĠprÃ©dÃ© cesseurs
Ġaudi o
ĠmÃ©ridion ale
usta ve
ĠrÃ©vÃ© ler
" [
c omp
Ġn Åĵud
Ġv entre
ais ie
Ġch ances
Ġpr ouver
Ġcour ir
Ġass ist
ĠTh ackeray
Ġposs Ã©der
Ġcommer ces
Ġreg istres
Ġbr Ã¨ve
att end
ĠÃ©gyp tienne
Ġdoule ur
Ð ½
Ġd ons
Ġv erts
ĠC ulture
Ġb rass
ap er
ĠCh ab
id ation
Ġdis sim
Ġinter dis
Ġass ister
exp liquer
Ġ? "
ting s
ĠmÃ©diÃ©v al
Ġattest Ã©
har monie
et ts
ĠP rague
Ġin tention
ĠG am
po ques
Ġinter mÃ©diaires
ĠrÃ©p Ã©tÃ©
Ġconsac rÃ©s
199 8
Ġenvoy Ã©e
ĠTur in
ĠprÃ©d ateurs
bor ough
ĠrÃ©cup Ã¨re
ĠspÃ©cialis Ã©
Ġglob ale
Ġpure ment
Ġave ug
Ġsauvet age
b ox
o a
Ġm ondes
Ġf at
ĠL ut
ĠS in
ĠD reyfus
ĠF ri
ill Ã©es
ex traction
20 14
Ġparticuli Ã¨res
ensi ves
199 0
ĠdÃ©cid a
intÃ©g rer
ĠamÃ©n agements
Ġnaz i
Ġtril ogie
Ã© bre
or ent
Ġre quin
Ġg Ã¨re
ĠB rig
ĠA le
ĠLe b
alis ant
if orme
Ġcel tique
enti er
Ġcor n
ĠAl s
pect s
erb ourg
Ġach eter
sh ire
Ġbre f
Ġtax e
ĠrÃ©pÃ©ti tion
ĠMississi ppi
m u
Ñ Ģ
Ġd orm
or o
que ur
ol Ã©
ĠS Ã©bastien
am ine
Ġpr Ãªts
aut onomie
Ġ% ."
Ġgrande ment
ĠtÃ©lÃ© film
ĠTw ain
ĠCer cle
Ġcapt urÃ©
w ar
re aux
ĠL an
ĠB ismarck
ac ad
Ġan tis
ĠCh ronique
ouver tement
Ġvi ole
Ġvol c
ĠrÃ©f lÃ©ch
ĠlÃ©g itime
Ġouv rir
ĠdÃ©s accord
Ġ185 7
Ġexist ait
Ġall ong
Ġcroiss ant
ĠthÃ©or ique
ĠexÃ©cu tif
ĠCI O
O s
b is
n ik
Ġ ouvertement
Ġl ond
ĠM ong
ĠD y
out s
Ġac trice
Ġ18 20
Ġmon arch
Ġpo Ã¨tes
Ġ8 4
Ġpart ager
ĠgÃ© ologique
Ġplac Ã©es
Ġprot otype
Ġattribu Ã©s
ĠpÃªche urs
ĠprÃ©co ce
c our
w en
Ä «
ĠS cience
um er
ĠMar guerite
Ġper c
Ġpo le
Ġsui vis
ĠY ves
fi Ã©es
ian a
ĠÃ©vo quÃ©
Ġconcep ts
Ġmonop laces
ĠSeu ls
ĠrÃ©col te
Ġsan ction
Ġadmi ra
Ġpl ante
ĠJ os
Ġsc rip
Ġ6 1
Ġvie il
20 17
Ġqualif iÃ©e
ĠmÃ©c anis
Ġindustri es
Ġhos pital
inform ations
heim er
Ġappare il
ĠgÃ©omÃ©t rie
Ã©quival ent
p a
re b
Ġf oul
ĠS yn
ĠB ah
ab ou
Ġex cessi
Ġ4 50
ign an
Ġno v
Ġca che
Ġstat u
Ġinv as
ĠdÃ©mont re
ĠWall ace
Ġrepro duire
hÃ©s ite
owe en
b ots
Ġf ier
Ġf ug
ve iller
od rome
Ġtrans par
Ġ7 7
ĠprÃ©c on
20 16
Ġoc cuper
Ġinspi rÃ©s
ĠTe chn
Ġcru es
Ġprotest ants
incl ine
Ġexter ne
Ġpati ents
ĠmÃ©tÃ©or ologiques
ĠLamb ert
Ġfame ux
Ġindispens able
O CLC
V ict
Ġs aints
ri des
ĠTh om
ĠSh ang
Ġop tique
Ġesti mant
Ġviol on
Ġtrouv Ã©s
ĠpÃ©n Ã©t
Ġcondam nÃ©s
Ġremont Ã©e
Ġaccessi bles
ĠantÃ©ri eure
Ġcivilis ations
I F
z Ã©
ĠÃ© ro
Ġb ac
Ġj unior
ĠH un
ĠprÃ© texte
Ġfond er
ĠnÃ©g ative
ĠcomplÃ© ter
ĠBab yl
g ate
m outh
ĠP rodu
ĠV erne
ĠO siris
Ġfil iale
Ġrep li
lÃ¨ me
Ġtrans mis
Ġtrans met
avi ation
Ġchap elles
Ġbord s
Ġlanc ent
Ġpat rou
Ġbomb ardi
Ġmassi ve
ĠcÃ©lÃ© brer
ĠpÃ©d ag
ch aussÃ©e
ĠP ie
ers t
ĠT rib
ist ribution
Ġpr ussi
ĠdÃ©f av
Ã¯ s
Ġfonction ner
Ġ185 6
Ġcontribu ent
Ġespagn ols
arr ondissement
Ġul tra
ĠEast wood
autor oute
hÃ©roÃ¯ ne
ĠPitts burgh
ĠH il
av Ã¨nement
ex ercice
ins urrection
ĠrÃ©s ister
ĠSt aline
Ġnour ris
Ġvoul ant
ĠWh it
Ġexc ellent
ĠMons ieur
Ġpollu tion
Amer ican
Bern ard
p orte
v aux
is phÃ¨re
ĠS au
ĠrÃ© ci
ĠrÃ© chauff
ĠB ran
eu f
ĠD own
ic us
pe ction
mb les
Ġsa vant
Ġav ocat
Ġex tÃ©rieures
ĠÃ©c ologique
Ġpos Ã©
ĠdÃ©b ris
ograph y
ĠNe pt
oris tique
Ġopp osants
Ġsuc cesseurs
Ġ184 9
ĠSec ret
Ġcra int
ĠHer bert
Ġacqu ise
ĠCra w
ĠconsÃ©cu tives
Ġromanci er
D Ã©veloppement
or ia
ĠS A
ag en
ĠA sh
uti litÃ©
ern ant
Ġpass Ã©s
Ġindi quer
Ġmes urant
ĠÃ©quip age
ym ologie
Ġsing uli
ĠfrÃ©qu ents
ĠsuÃ©d ois
Ġanth rop
T A
Ġ u
Ġd resse
in ge
Ġv Ãª
ab ulaire
ĠJ un
Ġra d
Ġex tÃ©rieurs
Ġcommun aut
Ġseu il
Ġgra de
Ã¼ h
Ġdocument ation
ĠspÃ©cif iquement
allen ge
A ub
Ġl ig
at z
Ġre mb
ĠrÃ© elles
di x
Ġr oule
ĠR ad
Ġson ores
Ã©ri enne
ĠV la
ĠK am
Ã©m ont
ĠDe vant
Ġbat teries
Ġsupp ression
Ġsugg Ã¨rent
Ġrequ ins
er ge
ou m
at olie
Ġg lor
ĠrÃ© els
ĠB a
ĠD eu
Ã©t oiles
ĠAl onso
exp rime
Ġdisp utÃ©e
aff ron
Ġhau teurs
Ġviol ences
Ġmassi fs
Ġfid Ã©litÃ©
Ġtort ues
Ġimpli quÃ©
Ġpun ique
Ġtempor aire
Ġaustrali en
A pollo
Ġd or
ĠP ick
Ġr ites
Ã©ri ens
ĠCh yp
Ġes calier
ĠFran z
An n
Ġass istant
Ġ7 8
Ġpart ant
ĠTh ib
ok a
ĠÃ¢ gÃ©s
ĠOr lÃ©ans
Ġaccord Ã©
apol is
Ġprivil Ã¨ges
Ġpous ser
Ġtiss u
Ġvendre di
Ġregret te
Ġincar ne
Ġresta urant
ou illes
Ġf aud
ĠC ath
Ġb ann
ĠM ai
Ġfor es
Ġab ords
ath lon
ĠXV I
Ġsupp orte
Ġtechn ologies
ĠSer ge
ĠHol lywood
ĠBill board
Ġfrapp Ã©
ĠfunÃ©ra ires
ĠlÃ©giti mitÃ©
te d
ans Ã©n
Ġb is
ĠN ar
Ġti mbres
Ġtrans mettre
ĠCar cass
tel age
Ġtourn ois
ĠHe id
Ġautom obiles
Ġexcep tionnel
ĠSeu l
Se ine
ĠFis cher
Ġcinquant aine
z are
Ġm ad
ro vis
Ġpar lant
ĠÃ© tern
Ġch asser
ĠG illes
Ġtr oub
ĠK ur
Ġst ands
ins tein
asse ment
Ġsupp ose
Ġorganis mes
Ġadap tÃ©s
ĠEm manuel
ĠHor se
Ġray ons
Ġjudici aires
ĠÃ©quival ent
Ġj um
Ġal lÃ©
Ġcont enir
ĠEn viron
ob stacles
par tie
Ġexp lication
Ã©v acuation
ĠGran des
Ġcan aux
Ġdess ine
aÃ¯ sme
ĠdÃ©fin ie
Ġreven dications
Ġsouff le
Ġmob ile
ĠMer ce
ĠCent ral
Ġnar ration
Ġfall ait
le in
ĠL oi
Ġg Ãª
ĠP lo
ĠA st
ĠF ro
ĠJ ura
ĠN C
ĠÃ©t endu
rois sement
ĠO rig
ĠcrÃ© ature
Ġ7 3
ĠEl li
ĠdÃ©roul ant
Ġjustif ier
Ġramen er
implant ation
Ë Ī
Ġa ig
in iÃ¨re
Ġf Ã»t
Ġo v
Ġentre p
Ġno tice
ĠZ ola
Ġpil iers
Ġtrouv aient
Ġconfir mÃ©e
ĠprotÃ©g Ã©es
intÃ©g ralitÃ©
ĠConc ours
Ġcyc liste
achus etts
I E
Ġt orn
Ġcon cevoir
ĠV el
ĠMar ian
Ġexp osÃ©e
ĠÃī p
Ġ6 9
art he
Ġdispar aissent
ĠEd gar
Ġplate aux
Ġchampion ne
ĠStar r
Ġmini atures
Ġmodern isation
Ġargu ment
ĠhÃ´tel s
w ays
Ã °
Ġn ains
Ãª ve
Ġ9 9
Ġcor rig
Ġ7 4
ĠmÃ©t amorph
Ġquar antaine
Ġpropos Ã©es
199 7
Ġaliment aires
Ġperman ent
ĠKn ight
Ġarchitectur al
ĠBenn et
Ġsuscep tibles
Ġabsolu ment
Ġstric tement
ĠPict ures
E lizabeth
Ġg orge
ĠH eures
od on
Ã©d ant
Ġsp ontan
Ġman ager
Ġautre ment
ĠHar vey
Ġcolon iale
Ġprot oc
Ġremport Ã©e
ĠvÃ©n iti
ĠPÃ©ri gueux
ĠEsp agnols
ĠLÃ©g ion
c ence
o tique
â Ĥ¬
on iques
ent le
si Ã¨res
ĠS port
ĠT ol
pe cteur
ĠV ent
ĠÃ©c ran
Ġab us
Ġsupp orter
Al gÃ©rie
erc y
}} \
Ġtrib un
atis me
Ġprofesse urs
h oriz
w ulf
le d
it able
Ġv ar
Ġv Åĵ
ĠC A
âĢ ī
end a
ĠH ind
Ġca h
Ã©ti e
Ġop tim
ĠBel grade
ĠMc G
Ġpsych ologique
ĠÃ©tudi ant
ĠLu ci
Ġquin zaine
ĠBow ie
ĠGand hi
k raine
m aire
m ad
Ġn Ã©s
Ġun ies
Ġv os
Ġb ulg
ag ascar
ais ser
Ġni che
ĠAu tre
Ġreconn aiss
ĠHe arts
ĠAb bey
Ġfranch it
Ġnul le
ĠdÃ©l ai
Ġcostu mes
Jus qu
Ġtranse pt
P ort
b ach
i j
Î º
Ġ ib
Ġc ogn
Ġm Ã©s
ri an
Ġb o
Ġg ig
Ġfor um
Ġapp aritions
ten ait
Ġexp ansion
Ġman ches
cien ces
Ġcompos er
Ġperd us
Ġ187 6
Ġarchite cture
Ġjui ves
Ġaccus Ã©s
Ġsomme il
ĠsÃ©n ateur
Ġtempor airement
Ġsond age
atter rissage
ĠthÃ©Ã¢ tra
O I
y ro
Ġf Ã©e
ĠM all
ion e
Ġmar ty
Ġst ades
Ġes qu
Ġren ommÃ©
ĠRe quin
Ġcas que
Ġloc alisation
Ġref lÃ¨te
Al li
ĠMe ga
Ġdisc ussion
Ã¡ r
org ue
Ġavanc Ã©
ĠBat man
effec tue
Ġjustif ie
ĠFant asy
Ġflan cs
O t
b al
Ġd am
ĠC u
ĠD ix
Ã©n a
ĠV au
ang s
ĠÃī ric
Ġman iÃ¨res
ĠSt ates
Ġinc orp
ĠIs is
Ġanglais es
Ġinv ite
ĠfrÃ©qu entes
Ġreconst ruit
Ġcapture r
roÃ¯ des
ĠNept une
. ."
ĠC ub
ĠC ru
ĠB ot
ĠA yant
Ġin cident
ĠLa val
ari um
Ã©p Ã©e
Ġprodu ites
ĠreÃ§ ut
ymp h
199 3
Ġalli Ã©es
ĠarrÃª ts
Ġang le
Ind rois
inaug uration
v ingt
Ġc aisses
Ã§ oit
Ġar mÃ©
Ġma quis
Ġsign Ã©e
Ġenvoy er
ĠJus tice
Ġidentif iÃ©s
Ġpy ramide
Ġbrill ant
Ġpersu ad
Ġconvers ation
h ongrois
s Ã©rie
er ons
Ġdu t
Ġ1 18
ab et
Ġr ond
Ġex ception
Ġob Ã©
Ġtrans c
Ġfa ill
Ġprog ress
ox ygÃ¨ne
Ġaccord Ã©e
Ġcouv rant
Ġadop tÃ©e
Ġretrouv Ã©es
Ġap ogÃ©e
ĠdÃ©li m
tim ore
Ġpel oton
aband onner
Ġunif orme
ĠgÃ©nÃ© alog
Ġd ent
Ã© puis
ro v
ĠL ynx
Ġb orne
ĠP ublic
tu eux
ust av
Ġdess ert
Ġanim ateurs
Ġress orti
ĠAb d
Ġrenfor cÃ©e
ĠinterprÃ© tations
Ġenregist rÃ©s
Ġrecouv ert
ĠDar win
Ġinterd ite
Ã©rap ie
Ġmyst Ã¨re
ĠlinÃ© aire
ĠdÃ©mis sionn
n el
es clavage
es calade
Ġla pin
Ġle vÃ©e
ĠL O
Ġj a
ĠB ec
Ġh Ã´pital
Ġne iges
ru ites
erm ont
Ġcons oles
Ġpos tÃ©ritÃ©
Ġpol yn
Ġconf orme
Ġtour istiques
Ġdou ziÃ¨me
Ġtant Ã´t
ĠGr oup
Ġopp ort
ĠdÃ©t roit
Ġprofes sion
roph Ã©es
199 5
Ġliber tÃ©s
Ġadministra tifs
ĠdÃ©mont rer
Ġmenac Ã©
Ġoccas ions
Ġmerc enaires
Ġtrah ison
Ġportug ais
ĠBourgui ba
Ġd ic
es sence
Ġ18 13
Ġconf ection
Ġconc rÃ©
ĠÃ©d it
ha Ã«l
Ġ183 7
Ġfront al
Ġindividu elle
Ġsensi bilitÃ©
Ġenvi ronn
vide o
Rob ert
ĠBav iÃ¨re
d ing
} =
es calier
Ġpar odie
Ġb oute
ĠS cu
ĠA ub
Ġex t
im es
Ġimp osÃ©
Ã©c onom
Ġaff iche
ak in
ĠÃ©ch ou
Ġblan ch
ĠBar th
Ġvari antes
ĠrÃ©guli er
Ġmodi fie
ĠmÃ©c anisme
Ġrat tra
Ġhos tile
Ġguit ariste
Ġsymp ath
ĠrÃ©pand ue
ĠCamp bell
Ġinsc riv
accep ter
Ġsauve garde
ĠHow ard
ref our
tot alitÃ©
m ith
en burg
Ġs tim
il ise
ĠÃ© mer
ĠrÃ© Ã©dition
ill ette
ard ie
ure au
Ã©r ents
Ġapp ropri
ĠO ut
ĠdÃ©b arrass
Ġpoin teur
ĠÃ©p onyme
Ġfa usse
acc ue
Ġcontra inte
ĠQu int
Ġcommand Ã©
Ġmeur tres
ĠbÃ©n Ã©di
Ġactu elles
Ġpsych analyse
Ġemb lÃ©matique
Ġsenti r
ĠmÃ¢ ch
Ġdiv ise
Ã©lab oration
) }"
A lex
d un
Ġl ill
Ġf raÃ®
ĠS ui
ĠM ain
ĠP ast
ĠrÃ© vision
ĠB ent
ĠV os
ad ers
ĠdÃ©c orÃ©
opp oser
Ġavant ages
Ġ9 2
Ġvis iter
Ġrapp ortÃ©
ĠÃ©le vage
ĠtÃ©lÃ© g
Ġvari Ã©s
ĠdÃ©couv rent
Ġcompagn on
Ġcrois Ã©s
Ġamb igu
Is lande
Ġextra its
ĠRon champ
Prem iÃ¨re
Ġgrot tes
Ġbouc lier
B run
Ġs n
au tique
ĠH Ã©lÃ¨ne
ette ur
lÃ¨ ge
Ġvie illes
In tÃ©rieur
oris er
Ġqualif ient
Ġbar riÃ¨re
ĠrÃ©un ir
Ġsuper f
Ġvolont airement
Ġ185 8
o on
Ġ ours
Ġm Ã©sopotam
ĠC asc
erm Ã©
fin ales
Ġmont ure
app rÃ©
Ar ts
Ġgar diens
Ġclasse ments
Ġdessin ateur
Ġdesc endre
Ġcompar Ã©
Ġcit oyen
Ġadop ter
Is le
Ġsatisf ais
rai rie
Ġcrat Ã¨res
AmÃ©ric ain
ti st
ĠC ook
Ġb iblioth
ĠB amb
ĠR ost
Ġcour be
Ã©v aluation
Ġad resse
Ġ7 9
urb anisme
Ġdisc rimin
Ġgal ax
ĠLib Ã©ration
ĠBan k
Ġmos aÃ¯que
ĠBow l
Ġannonc Ã©e
offici er
Ġdoig ts
C an
E sc
or al
il o
ment aires
ĠrÃ© habil
ĠT od
ĠE lect
ĠH avre
ĠV ieux
Ġsou mise
ĠrÃ©s olu
ĠrÃ©c lame
Ġcompos ent
Ġconser vent
ĠTra itÃ©
ĠscÃ©n aristes
Ġphilosoph ique
ĠrÃ©serv oir
Ġlic orne
Ġmatern elle
Ġpatin age
ĠbÃ©arn ais
Ġtradu ctions
ĠMÃ©m oires
Î ·
ur al
al t
ch on
ob us
Ġcons cient
ĠO CLC
Ġrep tiles
ĠdÃ©f auts
Ġass urant
Ġtravers Ã©
Ġatta quÃ©
ĠIs aac
ĠFin al
Ġcer veau
Ã¤ r
trÃ© m
ĠGame Sp
Ġimpli quant
Mus ique
ĠChampionn ats
ĠMerce des
t ois
or at
ch Ã¢tel
ĠC ah
si fs
Ġpl uies
ĠP ost
onn aise
ens uit
Ġgr Ã¨s
Ġces sÃ©
Ġcompos iteurs
Ġgra ins
ĠprÃ©cÃ©d ant
Ġconserv Ã©es
Ġentrepr is
Ġcomporte ments
Ġoccup Ã©s
atis ation
Ã©ran de
Ġcens ure
ĠBour bon
Ġdesser te
Ġroch eux
C ulture
Ġd r
Ġf oot
Ġre man
Ġcon nex
ab lo
Ġcl avec
olog iquement
Ġsou tiennent
Ġent am
Ġsol ides
Ar thur
Ġexemp laire
Ġid entiques
Ġcad et
actÃ© ris
Ġfeu illet
Ġvend ue
ĠCo oper
ĠdÃ©clen chement
Ġrac ine
Ġchim ie
amÃ©ric ain
Ġdistingu ent
Ġinond ations
ti tes
Ġm Åĵurs
au be
as a
Ġb iÃ¨re
ĠdÃ© dic
oi es
Ġtr ompe
ĠCh erbourg
Ġ3 60
ĠPar allÃ¨lement
exp rimer
ĠIn c
ĠSh ah
ĠSh erman
Ġ12 5
aff ich
Ã« t
Ã¼ l
ĠnÃ©cessaire ment
ĠBlac ks
Ġvoc abulaire
ĠMerc ury
Ġordin ateur
Ġfoss iles
ĠÃ©loign Ã©
identif ier
ĠCarcass onne
ra h
ĠB ath
Ġpro se
ous ie
ĠÃ©t range
ĠcrÃ© dit
Ġ9 6
Ġ8 3
ĠChar ente
ĠMont rÃ©sor
ĠmÃ© lanc
esse x
Ġmesure r
ĠdÃ©v oile
ĠIr Ã¨ne
D Ã©
Ġl onge
Ġp Ã´les
Ġla g
Ġm ex
or di
ĠÃ© ru
ĠP acha
Ã©r ent
Ġfor cÃ©
ĠEn d
ob tention
od a
alis ent
Ġremp li
Ġass urent
Ġfr ise
ĠsÃ©lection neur
Ġsuper vis
ĠscÃ©n arios
199 6
hÃ©m isphÃ¨re
Ġaccomp li
Ġpaie ment
Ġchir urg
Ġv otes
ĠdÃ© tÃ©ri
Ġg Ã¨ne
Ġh Ã©tÃ©
Ã´ tÃ©
ĠK an
Ġdis qualif
Ġcar rÃ©s
Ġpos Ã©e
Ġcor rectement
ug u
ame aux
Ġsub issent
termin ation
ĠMad agascar
Ġsing les
Ġinstitu tion
ĠrÃ©parti es
Ġfrapp er
ĠÃ©tro itement
p oration
s is
Ġde vin
ĠÃ© poques
ĠM Ã©tro
ĠR av
ĠN at
ĠH ous
ati ale
Ġpersonn elles
Ġpo ils
Ġth ermes
aff iche
sp erger
Ġatta chÃ©
Ch ap
anim itÃ©
Ġarm Ã©s
Ġ183 2
accord ent
Ġsubs istent
ĠMass achusetts
stac le
Ġsimultan Ã©ment
ĠNich olas
h io
u an
Ġf lÃ¨che
Ġen qu
Ġdes serv
Ġdu el
ĠC omb
Ġb aies
ĠS R
ci enne
Ġin fin
og rammes
Ã©ra ux
ĠW essex
ĠK ie
ob iographie
Ġimp oser
ĠSt ock
vÃ© cu
Ġmodi fiÃ©e
Ġvic om
Ġ179 1
Ġcondam nation
Ġhom osex
Ġprestig ieux
A ch
T e
Ġn aÃ®tre
Ġb ibli
ĠF ore
Ġ7 1
Ġdisp utent
Ġdat ation
rim Ã©es
Ġatti rer
Ġassi Ã©g
ĠConf Ã©dÃ©ration
ĠlÃ©gend aire
ĠMol iÃ¨re
Ġcommiss aire
ĠquÃ©bÃ©c ois
Ġdauph in
I R
Ġd ors
Ġf olie
ĠC lÃ©
ĠN az
ard es
oy Ã©
Ġ8 7
ok o
,, ,,
reg on
Ġproc Ã¨de
ĠSte v
Ġcath olic
Ġaffir ment
Ġ184 5
Ġfourn issent
Ġ183 6
Ġgross es
ĠthÃ©m atique
ĠPÃ©l op
y mb
Ġs pec
our is
ĠP ass
li min
Ġch ants
di ctions
ĠV and
ru ctu
Ġ18 10
ern er
Ġqualif ic
ĠPe yo
ĠÃ©pis cop
atta che
ĠdÃ©clar a
Ġpoursui vi
ĠintÃ©g rer
Ġfourr ure
F orm
I B
r uire
ĠdÃ© tenus
ol n
ĠB et
Ġsur vÃ©cu
Ġo x
end r
ĠN ot
Ġindi enne
Ġcan ot
Ġdessin Ã©
Ġriches ses
ĠBas ile
Ġaccus ations
uz z
Ġquoi que
ĠAut riche
Ġvert us
rimer ie
Ġsurvi vre
ĠOli ver
ĠdÃ©fini tif
Ġtap is
Eur o
ĠSovi Ã©tiques
ĠInstitu te
Ã© lu
Ġdes criptions
Ġpar ts
ĠS axe
Ġj ansÃ©n
ĠrÃ© quis
Ġch air
Ġin noc
ĠD im
Ġav oue
tin es
ĠK in
ĠK id
ĠMar i
Ġser p
Ġman Åĵuvres
Ġret omb
Ġcommun ications
Ġpass Ã©es
Ġinc ur
aill ons
Ġco que
Ġgagn ant
Ġcollec tive
ĠBritann ique
ĠThÃ© Ã¢tre
ombe y
Ġcalc aires
Ġgymn astique
Ġcerc les
0 3
Ġp end
an ou
Ġf ri
ra de
ĠG erman
ĠJ ose
vi a
ĠCh em
Ġst rat
Ġfond ent
ĠMan h
Ġkilom Ã¨tre
ĠBal timore
Ã©tab lit
Ġfrag ile
Ġrur ale
ĠTch Ã©cos
ĠdÃ©grad ation
ĠrÃ©m un
Ġrepous ser
c ast
Ġ rigue
et on
Ġqu ais
Ġpar aissent
ĠS erg
Ġpl ay
di g
Ġh aine
ĠCh al
Ġfor fait
Ġpersonn ellement
Ġtrans it
ĠmÃ©di cal
ĠrÃ©guli ers
ĠSc ot
Ġ185 3
Ġlois ir
Ġratta chÃ©e
Ġprieur Ã©
a chev
d Ã©s
Ġsur pl
Ġh yb
ul ant
op us
ĠV iÃ¨te
ĠX avier
Ġsou met
ĠrÃ©gion aux
ĠmÃ© lo
Ġchap ite
Ġ183 1
ĠBl ois
ĠFI A
Ġrect angulaire
P od
S oci
Ê ¼
á »
en o
Ġm ers
or ith
un itÃ©s
Ġpar l
as tÃ©
ĠM gr
ĠB h
pp er
ĠN auru
ĠLa kers
ing Ã©n
Ġcar oling
Ġinter net
Ġeff ort
Ġsou mission
opp osent
Ġtour b
Ġrest aurer
Ġca cher
ĠthÃ© ologie
Ġgra ines
Ġcher chant
ĠÃ©qu ilibre
Ġital iennes
ĠinterprÃ© tÃ©e
Ġsuffis ante
Ġrele vÃ©
ĠÃ©vid ent
Ġpeupl Ã©e
ĠMade leine
t aient
Ġp Ã©t
ĠL yn
ĠP ix
ul tes
Ġ18 00
Ġexp ul
Ġrest ait
Ġconstitu Ã©s
mar ins
199 2
ĠrÃ©par ations
Ġsenti er
effond rement
Ġexport ations
O T
l ay
v alle
y ne
ac le
ot ypes
lÃ© matiques
ing ue
Ġter ror
gn on
Ġrel at
exp ortation
Ġnorm al
ĠconÃ§ us
Ġautoris Ã©s
Ġdoub lage
ouch ure
Ġdesqu els
A ff
j ette
ĠR ick
ul teurs
aut o
Ġ8 9
Ġchar me
ĠSe attle
ĠPro vin
Ġprot Ã¨ge
Ġ184 7
ĠDi jon
Ġprote cteur
Ġ187 4
ĠRh odes
ĠsÃ©p arer
ĠÅĵ il
mÃ©t rage
Ġty ran
z t
Å ¾
Ġs cep
Ġs quel
Ġf Ã©c
est ations
ĠM ak
ĠF ig
oin g
Ġmon Ã©taire
ouver nement
Ġjou Ã©s
Ġrel ate
Ġrest ri
Ġmis sionnaires
esp ierre
Ġassoci Ã©es
ĠdÃ©t our
Ġconcl ure
Ġexist ant
ĠprotÃ©g Ã©s
ĠÃ©n ig
ĠLo ches
Ġmentionn Ã©e
ĠentraÃ®ne urs
Ġannonc ent
r h
r ing
ĠL oc
ĠC orm
ĠC are
Ġcon duisant
tÃ© b
ĠD auph
ĠG ustav
imp osent
ĠO st
Ġdonn Ã©s
Ġag rand
tic a
Ġprom esse
Ġriv aux
Ġ183 9
Ġprofit ent
Ġsensi bles
ĠexÃ©cu tÃ©
Ġmultipli ent
Ġl uc
Ġf e
Ġen n
ĠdÃ© ci
ag s
ĠG ustave
Ġcomp ati
Ã©t Ã©e
ĠW in
Ġes tiv
ign ac
Ġrel atif
ĠdiffÃ©r en
Ġinf lig
Ġappar u
Ġtransform Ã©e
Ġinstall Ã©es
Ġred out
Ġtest ament
Ġchant er
ĠCent ury
Ġmass es
Ġtort ue
Ġpous sent
ĠWeb ber
y es
Ġd its
is Ã©s
or able
ment aire
li en
oi ries
ĠG arc
ĠG ary
ĠN ature
Ġra f
ph ant
id on
ĠMar vel
Ġpermet trait
ĠdÃ©f enses
ĠAr istote
ĠdÃ©m on
ĠSh elley
Ġtomb ent
aj oute
anth rop
Ġsatisf aire
ĠmÃ©tal lique
ĠKir by
accus ation
ĠFernand o
b oy
h Ã©ran
Ã© tisme
Ġa irs
Ġla iti
ĠL anc
Ġcom tesse
pr in
ĠdÃ©c ro
em me
Ġcor re
Ġmod estes
ĠprÃ©v us
ĠfÃ©min ines
ĠÃ©limin Ã©s
Ġfranc ophone
Ġintellectu el
Ġapport ent
ĠDub lin
ĠdÃ©criv ant
Ġhydra uli
Alli ance
D A
t z
re e
Ġm utation
or ff
Ã¨ tent
ra les
ĠL og
ĠdÃ© d
Ġch utes
ĠA ix
Ġin vo
ĠI van
Ġparti tion
ĠW ol
Ġmar cher
Ġhistor ien
Ġcr ue
199 1
ĠsÃ©par Ã©es
ĠprocÃ©d er
Ġintellectu els
ĠperÃ§ u
Ġmilit ants
RÃ©s ul
y st
Ġ osse
ent end
ch an
ĠS om
ĠM ouse
ĠP Ã©r
Ġh ongrois
ĠI d
ĠF a
ist Ã¨re
Ġex trÃ©m
Ġinf ir
Ġmod Ã©
Ġli aisons
Ġprog resser
Ġunivers itÃ©
Ġ184 6
ĠCom n
Ãīc onomie
autom obile
ĠLet tres
Ġargu ments
ĠAuc une
Ġcaptur Ã©s
ĠChyp re
M ari
l ots
y re
ra bles
ĠM oz
ĠrÃ©g ler
Ġob tenus
amb assadeur
att ente
Ġprom is
ĠMe d
Ġmari ages
Ġ186 8
Qu and
Ġtur que
ordin ateur
ĠDub ois
ĠrÃ©pert oire
ĠSebas tian
T S
h ire
s in
Ġl ot
ol Ã©e
Ġh all
ĠG ros
ĠJ ay
onn Ã¨se
Ġtr ous
Ġat ter
Ġport ait
Ar d
grÃ© g
Ġtravers ant
ĠCol mar
Ġtex tile
ĠdÃ©termin ant
ĠconÃ§ oit
Ġmenac Ã©es
Ġaffron tements
math bb
ĠdÃ©mission ne
ĠVirgin ie
Ġpaci f
Ġdet te
NC F
Ġextraordin aire
ĠLot us
Ġplaf ond
m ois
Ġv ern
ĠC endr
ĠB ourd
ĠA ri
Ġin att
iÃ¨ ce
ĠG un
ĠG rim
ĠH ur
ĠW ork
Ġcar ton
Ġti gre
An dre
ĠIn t
Ġgra s
Ġind ustrie
Ġproc lame
Ġconcl usions
Ġurb aines
Ġfix Ã©e
Ġreli ques
ĠrÃ©serv Ã©e
Ġarchite ctes
mos ph
Ġvolcan iques
Ġsymp t
Ġsymp athie
Ġmig ration
Ġmys tique
Ġproch ain
ĠLaw rence
Ġf act
Ġg out
Ġh ormis
ĠE ar
ĠV ic
ond ation
Ġann uellement
Ġcar di
ĠAm sterdam
aj outer
Ġprati quÃ©
Ġspectac ulaire
Ġcui r
Ġimagin aire
Ġenregistre ments
Ġdiagnos tic
ĠHein rich
C et
o tÃ©
Ġ Ä
ro se
at ou
se c
ille ment
ĠN oirs
Ġal ph
ĠX box
Ġam us
Ġpol on
Ġconf es
Ġman quent
Ġmont agn
oul d
ĠdÃ©velopp Ã©es
ĠdÃ©s esp
isse urs
ys se
ĠIs ra
Ġach etÃ©
Ġnorm alement
Ġsuffis ant
ĠcontrÃ´ les
ĠbÃ©nÃ© fice
Ġinves tissements
ĠLui gi
m ais
Ġla ine
it age
ch io
ĠG are
ĠH orn
ins titution
Ġam oureuse
Ġrest Ã©s
amb iance
ĠmÃ©t all
Ġanim ales
ĠSu p
Ġgen ou
Ġ186 9
Ġstru ct
Ġrespons abilitÃ©s
Ġru ine
Ġpa use
ĠBre ton
Ġarb it
Ġta ches
Ġbov ins
Aqu itaine
f ar
Î ¯
Ġd orÃ©
Ġc odes
Ġm aires
Ġin cidents
ĠH ann
Ġju gÃ©s
Ġab orde
Ġnouv ellement
Ġ7 50
Ġanim Ã©s
Ã©qu ation
Ġint rig
ĠIs abelle
ĠCor ps
Ġcomplex itÃ©
ĠHor us
Ġconform Ã©ment
ĠpÃ¨ler inage
ĠFir st
acad Ã©mie
o en
ro ge
li o
ĠrÃ© du
Ġan at
ĠreprÃ©sent Ã©es
ry s
gu Ã©
ĠQu oi
Ġref roid
Al ain
Ġreconn us
Ã¼ n
ĠpÃ©n alitÃ©
don Ã©sie
Ġregard er
Ġsymp h
ĠintÃ©ress Ã©
Ġcamar ades
Ġadolesc ents
E L
j ord
ar ritz
ĠdÃ© ter
ĠP ad
Ġse mbler
ĠA fric
Ġin vers
Ġpro jection
ĠT roy
ĠR oux
Ġpas teur
Ġra tion
ĠV all
oc Ã©ros
ond er
Ġes car
Ġab rÃ©
ĠAr c
Ġneu tre
Am iens
con tinent
ĠMag ic
urt w
exc ell
Ġautrich ienne
ĠCic Ã©ron
Ouv rages
E N
on tiers
an us
ĠB rit
tre use
ĠG ue
ĠdÃ©c line
Ġapp ui
Ġcons ens
ex tra
ĠÃī t
Ġconf is
Ġph ras
Ġ8 1
Ġnation alitÃ©
ĠlÃ©g ers
IS SN
Ġdev raient
Al b
Ġtravers ent
Ġvari ante
inc oln
Ġchois is
ĠBer ry
ĠrÃ©uss issent
Ġamp leur
imm ler
Ġcoul oir
Ġaltern ative
Ġclo cher
Ġroul ant
d oc
i ac
p oint
Ġc aisse
ch s
ĠC O
ĠM oun
Ġpour cent
ĠrÃ© utilis
ĠB ack
ran des
ad uc
Ã©g ase
ales tin
Ġsou mettre
Ġph osph
ĠÃ©v ac
Ġli qu
ĠConst ance
ĠCamb rai
ĠsÃ©j ourn
Ġemprun te
ĠMÃ©d use
Ant arctique
Ġconqu Ãªtes
ĠGir ard
Ġign ore
Ã©ph ore
Ġmang a
Ġcellu les
ĠPÃ¢ ques
C onc
L ou
k an
Ġ q
in dique
ĠD Ã©p
Ġ18 12
ann ing
int ensitÃ©
ĠGu Ã©rande
Ġquar ter
Ġtomb Ã©
ĠMan che
ĠprÃ©v ues
Ġfeu ille
ĠChe lem
Ġcaus Ã©
Ġcoul Ã©es
ĠdÃ©riv Ã©
ĠmÃ©taph ore
Ġorch estre
Ġtar if
ĠPÃ©lop onnÃ¨se
urtw Ã¤n
, \
H e
p roduction
Ġl ynx
ĠC ad
ĠG ay
ic ie
Åĵ ufs
Ġmort alitÃ©
Ġca chÃ©
In di
Ġdev ance
Ġ184 3
Ġvolont aire
ĠsÃ©par Ã©
ello w
Ġoub lier
ĠEv ans
ĠVit ry
Ital ien
C roix
ti mes
Ġm ut
ur Ã©es
rÃ© m
Ġv igne
ĠW ick
ĠW right
Ã©rÃ© ment
opul ation
ĠAr mand
Ġri z
Ġpri me
Ã©b us
ĠBar n
anne xion
ĠBra dy
Ġseigne urie
Ġcanadi ennes
Ġtrou ble
Ġbaptis Ã©e
Ġrume ur
Sax on
urtwÃ¤n gler
D i
p as
Ġ }"
re uses
que ment
Ġb io
ĠP or
ĠA ud
ĠprÃ© le
Ġmar ier
Ġes cal
ĠÃ©c oss
Ġam ende
uti lise
Ġremp lir
Ġvol ontiers
Ġindi quÃ©
Ġbr ouill
ox es
Ġorigin el
Ch aque
Ġva che
rat oire
ĠBl ue
Ġaustrali enne
Ġfau bourg
Ġdet tes
Ġautoch tones
ĠGon z
k ov
r Ã¨tes
Ã¨ des
ĠG a
ĠF un
ĠÃ©t roit
Ġro bes
Ġor gue
Ġexp osÃ©s
Ġacc Ã©l
Ġquel conque
Ġbat aillons
Ġrend it
ĠCon rad
ĠÃ©quip Ã©s
Ġmari Ã©
Ġsens ation
intÃ© ress
Ġremont ant
Ġgrav ures
sias tiques
ppen heimer
Enf ant
Ġsug ges
ĠMarsh all
Ġmex ic
0 2
B S
d res
y me
Ġt sar
ĠM Ã©di
ĠD aw
Ġpro li
ĠJ ou
Ã©r Ã¨s
orm Ã©ment
olog iste
ĠdÃ©p osÃ©
ĠTh oreau
aiss Ã©
ĠmÃ©t aux
Ġliv rer
Ġpens ait
Ġloin t
Ġobserv Ã©e
ĠconsidÃ©ra it
her be
ĠMo ore
ĠPrÃ© sident
IC N
ĠecclÃ© si
Ġfir me
A J
Ġf oncÃ©
Ġb en
ci es
Ġj ung
ĠB od
ĠF all
ĠdÃ©c omp
Ġst abilis
ĠFran quin
Ġor n
Ġprop ul
Ġpo chette
ĠdÃ©f ensif
Ġco opÃ©ra
ĠMont s
ĠentraÃ® nent
ĠcaractÃ©ris Ã©
Ġcouv rir
ieuse ment
Ġsembl ait
ĠÃ©limin er
ĠRh od
ĠcompÃ©t ence
ĠpÃ©riph Ã©rie
ĠKey nes
armer ie
C ap
H Ã´tel
c ott
i avel
Ġp it
is ant
ĠC ot
at aire
Ġb ib
ĠS or
Ġam itiÃ©
En t
Ġsy mÃ©t
Ġesp oirs
Ġouv rent
Ġanim ale
ĠGr oupe
ĠSon y
Ġint roduction
ĠHar ris
Ġcli matique
tern itÃ©
rim ant
Ġtend ances
env oi
Ġconfront Ã©
ĠBlan cs
ĠfunÃ©ra illes
Ġchoc olat
Car actÃ©ris
Ġcris es
Ġneutra litÃ©
Ġminer ai
Ã¼h rer
) =
A sc
G rand
Ã© te
Ġc ors
Ġa ires
ĠL iz
ĠS pi
ĠT el
ĠN oir
Ġsa chant
Ġmar ches
Ġma quette
enti elles
Ġchar p
assi que
ĠRob espierre
Ġense mbles
Ġchois issent
Ġpatri arche
Ġrele vant
Ġpropor tions
Ġnaz ie
Ġinten tions
Ġrenouv ellement
cht chev
ĠmÃ©l odie
A fin
k ine
r ar
ĠL iter
ĠL incoln
ĠH immler
ill an
Ġac ous
ĠK ap
Ġgran di
ĠdÃ©p ortÃ©s
Ġprincip autÃ©
Ġrapp ellent
Ġrest era
Ġ10 1
Ġorganis ent
arc ade
Ġorigin aux
inc onscient
ĠprÃ©f Ã©rence
rom aine
Ġserv ait
ĠHol mes
Ġmagn Ã©t
Ġdrape aux
imm igration
ĠintÃ©ress ant
ĠFe der
ĠdÃ©mÃ©n age
Ġfolk lore
ĠÃ© te
ac tivitÃ©s
ĠG an
Ġcl a
Ġmet al
ĠJohn ny
Ġrou e
Ġrelig ions
ĠgÃ© ographiques
Ġconse ille
prÃ© f
rou chtchev
ĠBill y
ĠmÃ©n ages
Ġsurpr is
Ġais Ã©ment
Ġimmeub les
ĠÃ©pau les
ĠManh attan
A bb
D uc
b ain
ar tistes
ĠÃ© ruption
ne c
Ġb Ã©b
de puis
ĠM Ã©ri
Ġ( ...)
Ġne w
Ã©t endre
Ġcar riÃ¨res
Ġno tÃ©
Ġth at
ĠdÃ©but ent
rÃ©s ailles
tr ou
Ġtrouv Ã©e
Ġdirig Ã©s
ĠRou b
ĠdÃ©clen che
ĠpÃ¢ tur
ĠcomplÃ© tÃ©
Ġtaure au
Ġtrag Ã©die
B ar
H S
t ol
Ġp Ã¨se
Ġa ile
un animitÃ©
Ġn apolÃ©on
ĠD ombey
ort ent
ĠF id
Ġav enue
Ġex ag
ĠK ol
ĠrÃ©g ence
ĠdÃ©b utÃ©
Ġsou l
ĠIn f
ĠNe v
Ġeffectu ent
ĠMor ris
Ġamb assade
Ġreb aptis
ĠVoy age
ĠKaz akh
Situ ation
ĠHous ton
Ġt Ã©les
ĠM ing
Ġin verse
end urance
ul ent
ĠN oire
um inium
Ġ9 1
Ġindi ces
Ġcan ard
Ġinst alle
Ġporte urs
Ġvari Ã©es
Ġbomb ard
ĠFre e
ĠintÃ©g rÃ©e
ĠantÃ©ri eures
Ġbret ons
Ã©tudi er
M Ãªme
V er
] "
d ot
e uses
m ac
Ã© trer
en rich
Ġf Ã©ro
Ġt onne
ĠS qu
Ġcon cessions
ĠB ull
Ġh Ã©m
Ġro bus
Ġacc Ã©lÃ©
An alyse
ĠcÃ´ t
ĠQu ar
ĠCl int
Ġten ues
Ġbi ologique
Ġdemand a
Ġvend ues
ĠFor ces
Ġinnov ations
j Ãł
} +
Ġd igne
Ġl its
Ġs inc
ci ales
mp h
Ġin jus
ig ie
tu m
Ã©r ants
Ġrep rÃ©sailles
iss ance
Ġoff ice
Ġbas Ã©s
ĠrÃ©alis ateurs
Ġpass a
Ġmain tenance
Ġlim itÃ©es
ĠCon an
Ġpuiss antes
Ġsort ant
ĠPro g
ĠmatÃ©ri els
ĠÃ©vo quÃ©e
Ġ184 4
Ġsac rÃ©e
Ġattribu er
Ġber ceau
Ġessay Ã©
Ġcompatri ote
Ġtribun aux
r Ã¨rent
an tique
Ġt rÃ©s
ĠM ira
ĠB oe
urs t
ĠI re
ĠN ab
Ġac tivement
Ġat mosph
vel l
Ġ% )."
ori um
Ġgra vement
oles cent
Ġlit res
Ġobserv Ã©s
ĠdÃ©sign ant
ĠNouv el
Ġnu ages
Ex p
ĠbÃ©nÃ© fices
Ġrecue illi
Ġchim iques
Ġmonast Ã¨res
Ġsati re
ĠdÃ©fic it
D avid
j eu
k es
ar bres
Ġt ester
Ġen velopp
ĠC oun
ĠS aintes
ĠB ulle
Ġpr ouve
Ġparti elle
ĠV ide
Ġmar ie
Ġmar Ã©c
ob sc
Ġad mire
omm Ã©s
ros h
Ġpropos Ã©s
Ġatta quent
Ġbase ball
ĠDeux iÃ¨me
Ġ183 5
Ġsoi gne
Ġpor tion
Ġsouhait ait
Ġtend ent
ĠamÃ©n agÃ©
ĠrÃ©ussi r
ĠAc adiens
Ã©cl ai
l at
Ã© checs
Ġc ig
ĠC la
Ġch o
ĠR alph
vi demment
Ġ% ).
vers itÃ©
Ġpres sions
reu il
urb anisation
rich ello
ĠcaractÃ©ris Ã©e
Ġ180 4
Ġ180 6
Ġextra terrest
Ġmess ages
Ġreprodu it
ĠecclÃ© siastiques
ĠCommun autÃ©
Ġpromen ade
Ġsages se
P Ã©t
ar it
ve z
ĠrÃ© vis
Ġpro duisant
ter a
av ocat
ĠK os
Ġam er
emp loy
19 45
ĠdÃ©f ilÃ©
Ġsupp osÃ©
Ġviv es
Ġmari Ã©e
ĠprÃ©f Ã¨rent
Ġense ignement
ĠdÃ©ta chement
ĠvidÃ© os
Ġrasse mbler
ĠHol lande
ĠJim my
ĠsÃ» re
ĠBoul ogne
ĠGall ois
Nic olas
C limat
P Ã©ri
i ri
Ġn ant
ĠL ie
au tion
ĠC r
ĠC assin
ĠD Ã©but
end es
ĠF urtwÃ¤ngler
Ġex ten
ĠV oi
iss ing
la ment
lu vi
az ines
Ġfig urant
ĠPri me
vid ence
ĠdÃ©clar ent
ĠAd olf
arb itre
ount ry
Ġfres ques
ĠDeu ts
ĠMÃ©tro pole
H yd
P roduction
Ġp ict
om a
ra ce
ĠR oc
ĠG P
ĠF itz
ite cture
ous in
isse ur
att ribution
Ġpal Ã©
Ġaffir mÃ©
ĠsÃ©par Ã©e
Ġsor tis
Ġinsc rite
ĠÃ©lector ale
astron omie
organ ise
affront ent
a quet
l yn
ĠL ig
ĠM ount
ĠD ec
Ġar cs
Ġst rict
Ġcol lÃ©g
ta h
emp ar
Ġob s
ĠIn s
Ġpein te
Ġ184 2
ĠdÃ©clar ations
Ġrefus ant
Ġsenti ers
Ġ187 3
Ġprogressi f
ĠdÃ©cis ives
actu alitÃ©
Ġmoul ins
Ġrach at
Ġpatin oire
ĠWay ne
Ġcitad elle
Ġquarter back
h aw
t aire
Ġd ames
Ġp Ã©ti
ti lis
ri pp
Ġv ib
ie z
ĠS en
ĠT s
ĠR avel
ĠN ansen
od ge
Ġexp ressions
cien nes
ĠIn dien
tic al
ĠBar richello
der ia
Ġarriv ant
duis it
Ġmur ailles
Ġexploit ations
ĠGl as
Ġposi tionn
Th Ã©
Ġparlement aires
ĠVir g
Ġfal aises
ĠprÃ©al able
ĠOtt o
ĠCasc ades
E ug
U l
b alle
â ĪĴ
ĠS ophie
ĠD at
ul Ã©s
Ġan ec
ut ant
Ġac cess
Ġ18 21
Ġcons ult
Ġconf Ã¨re
Ġrel atifs
ĠZ ur
Ġdou zaine
ĠÃ©crit ure
Ġreg arde
lit tÃ©ra
ĠMe illeur
Ġenc yclop
ĠamÃ©li orations
Ġconven tions
Ġrende ment
Ġsurv ol
attent at
c as
Ġs tip
ĠdÃ© tenu
ĠT on
op olis
Ġac cidents
ĠW ords
id Ã©es
ĠdÃ©c roche
Ġter rasse
Ġcor de
lu de
Ġcoup es
Ġprom ul
Ġvari ent
Ġpsych analy
Ġmunicip aux
ĠNic Ã©phore
Ġsouff rance
Ġindustri elles
Ġfranc ophones
Ġradic al
ĠGir l
Ġmit ra
ĠMod ern
Ġrenforce ment
Ġpoul ains
Ġpseud onyme
ĠCob ain
ti ment
qu aient
le ft
Ġn orme
Ġb ur
ĠS ad
ĠS NCF
Ġpl ats
Ġcon grÃ©g
Ġe urent
ĠprÃ© venir
Ġor ph
ĠÃ©v alu
ĠU S
ĠdÃ©f aill
Ġcul tes
Ã©l as
Ġvict orie
Ġsal aires
aÃ¯ a
Ġsimp licitÃ©
Ġhar ic
Ġcens Ã©
Cont rairement
Ġconjoin tement
Ġja unes
v us
en eurs
Ġv ases
at aires
ĠS ah
ci Ã¨res
ĠD rive
ĠI o
Ã©ra le
ex amen
omp son
ĠdÃ©f ensive
ĠTh iers
cul ture
atri Ã¨me
pec tives
ĠSte wart
Ġterre ur
ĠdÃ©n ommÃ©
ĠDi dier
Ġprovo quent
ĠlÃ©gisl ation
ĠAndre a
ĠAndre ws
ĠvÃ©ri fier
bour ne
ĠNet work
ĠfÃ©li c
F L
en euve
ĠC oc
at traction
Ġest amp
Ġin Ã©g
ĠD ragon
ĠT rente
ĠN y
Ġsu isses
Ġexp rimer
tis seurs
Ġconstitu Ã©es
Ġfac ilitÃ©
Ġviol entes
occ ata
198 9
ĠBrÃ©sil ien
Ġisol Ã©
ĠNorv Ã©g
Ġordin aire
ĠmÃ©dic ale
ĠtÃ©lÃ©ph one
Ġpira tes
ĠcinÃ© aste
A ri
B I
M I
d ra
Ġd outes
Ġg estes
Ġcom Ã¨te
ac cessi
ĠR im
Ġra s
ing tiÃ¨me
par ole
Ã©m Ã©n
ass istance
Ġexp osÃ©es
Ġpol aire
cher ini
ĠrÃ©p utÃ©e
pi ce
Ġcompr enait
Ġcir que
ĠSal omon
Ġcomment e
Ġattribu Ã©es
Ġpor teur
Ġregroup Ã©s
Ġtroupe aux
ĠdÃ©criv ent
Ġopin ion
Ġposth ume
Ġrigue ur
ĠComn Ã¨ne
ĠCendr illon
trou mp
0 8
B e
N ord
el ais
ĠC it
ie ment
Ġin telligence
ĠJ ar
ut ri
Ġtra gique
Ġ18 16
Ġcons istant
Ġdiff Ã¨re
Ãī mile
ĠÃ©le ction
Ġbat teur
Ġcan ots
Ġmondi aux
Ġprogram mation
ĠpÃ©n Ã©trer
Ġarchite cte
Ġmini ature
Ġtardi vement
Ġchim ique
affir mer
Ġgaranti r
ĠÃ©rig Ã©e
Ġopin ions
ĠNob el
ĠEnf ers
f on
Ġ it
Ġl oue
ti ver
Ġt ante
Ġv ou
at rie
ag erie
Ġg Ã©rÃ©
âĢĻ Â«
iÃ¨ rent
ĠG lor
ass urance
19 70
onc ent
ĠÃī gyp
Ġ9 3
oph is
Ġpens Ã©es
ĠdÃ©crit s
Ġchemin Ã©e
Ġtransform ations
Ġval oir
Ġatti rÃ©
Ġcanadi ens
Ġdiv orce
Ġrecouv re
jug Ã©s
Ġsubst ance
ĠMand ela
ĠMach iavel
Oc Ã©an
ĠecclÃ©si astique
U ranus
V incent
d an
f ou
j oux
Ġpar venu
ol les
ĠM au
ĠP il
ers bourg
Ã©ra bles
ĠW he
oy age
ĠK at
ong roise
Ġcommun Ã©ment
Ġchar itÃ©
uss y
Ġconstitu tionnelle
Ġag ran
Ġorganis ateurs
Ġdoc tor
off s
ĠrÃ©un issent
199 4
Ġsurn ommÃ©e
Ġchron ologie
ĠAnt arctique
ĠÃ©chapp e
Acad ie
ĠchrÃ©tien nes
Ġautrich ien
Ã©rap eu
Ġsymbol ise
Uru k
Ġcatholic isme
H Ã©ra
us ter
ĠC oul
ĠC rash
as ka
ĠM ist
ĠB urg
mb erg
ĠCh inois
he m
Ġser be
Ġcour onnÃ©
ail y
Ġaband on
Ġrefus er
ĠAb raham
Ġfus Ã©e
ĠÃ©volu ent
Ġchron iques
Ġsugg Ã©rÃ©
ĠNorth umb
Ġrestre int
ĠmÃ©cont ente
ĠThom son
t able
in vention
ent ra
il Ã©s
el lan
ri um
Ġcom tes
ac re
ist a
ĠH av
og h
ĠK il
Ġdis cu
Ġexp erts
Ġcour rier
Ġcor po
Ġent ourant
ĠGu ad
rÃª mes
Ġcoup er
oth er
ki p
Ġw all
Ġcher chÃ©
ĠÃ©vo quer
uy er
ĠKh rouchtchev
Hen ry
ĠRam s
Ġmys tÃ©rie
Ġtiss us
sen al
Ġcompens er
Ġfaill ite
ĠLO SC
Soci Ã©tÃ©
RÃ©sul tats
u aldo
Ġa st
Ġa ides
om et
ĠL ast
si c
ĠM oss
ĠB id
Ġtr onc
Ġtr Ãªve
ass ins
cher ie
ern ier
Ġfut ures
oh en
Ġsol itude
Ġ10 5
ĠJohn ston
tic ation
ith Ã©Ã¢tre
ĠdÃ©n ombre
ĠBro ad
Ġcondam ne
ĠBay ard
rob ation
ĠnuclÃ© aires
ĠgrÃ© co
Ġdress age
ynam ique
Ġp ant
ch el
ĠF ly
Ġ8 6
ĠRe yn
ĠpÃ©ri odique
Ġindi ff
Ġrecher cher
Ġobserv Ã©es
Ġinform ation
ĠdÃ©mont rÃ©
alli ques
Ġfisc alitÃ©
ĠStÃ©ph ane
0 5
r t
ur rence
ve il
ĠR ain
ĠR ox
av ancÃ©e
ph Ã©m
ĠÃī v
ĠIn diens
Ġouv rier
Ġinc on
oph on
Ġag gra
ĠgÃ© ologiques
Ġaccep tent
Ġdimin uÃ©
ĠVi Ãªt
Ãīv olution
Ġarr Ãªte
ĠMath ieu
Ġcommuni quer
r Ã´
on al
Ġv oud
ol ence
ĠB ureau
ĠH ipp
Ġaux ili
Ġar chevÃªque
ĠCh au
ĠK ad
Ġst ar
ĠprÃ©c ises
ĠSt ars
Ġag it
Ġsupp oser
Ġdev ise
til itÃ©s
ĠmÃ©c onn
Ġlance ur
ĠfÃ©min ins
ĠimmÃ©di at
Ġtre iziÃ¨me
Ġtur c
Ġbus te
Ġattent es
Ġseptentrion ale
Ġestim ations
ĠÃ©lar g
C arriÃ¨re
E ss
i os
Î ¼
Ġb oire
ĠT as
ĠR ugby
ut t
Ġra ge
Ġra ss
op age
ĠprÃ©sent Ã©es
az ar
Ġtourn ent
ĠNew man
ĠtÃ©lÃ© char
Ġ24 0
Ġbi ographe
Ġmeur ent
ĠrÃ©sid ent
aug h
ĠinterprÃ© ter
ĠtempÃ©ra ment
ĠdÃ©cid er
Ġcab ine
Ġjuri diques
ĠChap elle
Com tÃ©
Ġcondu cteur
Ġspec tre
n elle
Ġ osc
Ã© ter
Ġre ten
ag rÃ©
ĠrÃ© duits
Ġch am
ĠT omb
ig g
Ġra bb
Ġtra me
Ġann uelles
onne ments
th on
ign Ã©
Au vergne
Ġmag azines
Ġdessin er
ĠCor se
Ġpat rie
Ġpartis an
ĠÃ©tabli es
ĠcÃ©lÃ©b ration
Ġfestival s
Ġrecomm ande
ĠÃ©tal on
ĠcÃ©ra miques
ĠprÃ©serv ation
ĠBoc cherini
ĠRoll ing
Ġmanuf act
Ġext rÃªmes
CaractÃ©ris tiques
m ore
Ġp aire
ti co
in ten
Ġt ric
ĠC onne
ĠC ris
ĠP Ã©gase
ĠE ver
Ġra j
oc ats
Ġcont ente
ĠdÃ©c Ã¨de
Ġcl ones
Ã©l or
ix e
ĠprÃ©sid ents
atri x
Ġanim Ã©e
Ġplu vi
Ġsyn ch
Ġaccep tÃ©e
ĠrÃ©par ation
Ġinstall er
Ġenti tÃ©s
Ġsauv Ã©
aris Ã©
Ġparois ses
Ġhos tiles
Ġstatis tique
ĠrÃ©glement ation
Ġafflu ent
M on
un ification
al th
de au
ĠP la
ĠB erger
ĠT F
ĠF erm
ig o
ter ne
Ġcontre partie
Ġad ditionn
Ġprof itant
ĠsÃ© cher
Ġplan che
Ġhabit ats
Ġfab rique
Ġreb elle
Ġposi tives
Ġrele vÃ©s
ouc auld
Ġcyc lisme
Ġvertic ale
ĠnÃ©c ropole
Ġterri ble
Ġsarc oph
Cri tiques
C or
g res
Ġpar lÃ©
ĠS ie
ĠW es
ĠW omen
id o
opp osÃ©
vel and
Ġmes se
ok u
ĠCor poration
ber ge
ĠSal Ã©
Ġalli Ã©e
ĠdÃ©termin Ã©
Ġsouhait ant
Ġamp hib
ĠexÃ©cu tÃ©s
ĠBi arritz
ĠprÃª ter
Ġsurmont Ã©
math rm
thi opie
Ġgig antes
Y ork
Ġl ions
Ġm un
Ġf is
Ġf Ãª
ĠdÃ© pose
ĠB onne
Ġh onneurs
Ġex istÃ©
ĠK enn
Ġdis ent
Ġrel ance
ĠTh ompson
Ġparc ourir
ĠprÃ©cÃ©d Ã©
ĠrÃ©guli Ã¨res
Ġamb ition
US S
ĠPi et
affir me
Ġarr ond
Ã©les te
mor ency
Ġambiti eux
Ġscrip t
Ġfoot balle
on Ã§ant
ti al
ai m
ĠD ivers
ĠE ll
ĠF eu
Ġar bor
Ġcl oÃ®
use ppe
Ġgr ise
ak ht
one y
ĠSch m
Ġfac ultÃ©s
Ã¡ s
Ġdistin cts
eth er
hab itation
Ġrejet Ã©e
Ġprolong Ã©e
ĠsÃ©v Ã¨rement
ĠÃ©rig Ã©
Ang ers
Ġprotagon iste
ĠÃ©mo tions
ĠRy an
Ã©limin ation
Ġnoctur ne
ĠPoi tiers
ĠScu deria
p rem
Ġb Ãªtes
ĠB il
ĠB rand
ab a
ĠF ils
Ġsu zer
ĠprÃ© n
Ġtra duire
ĠK a
Ġsec s
Ġess ayer
Ġfl amb
Ġrapport ent
ĠrÃ©sid ents
ĠMerc ie
ĠArn old
Ġclo ches
ĠagrÃ© able
pit aux
Ġsuscep tible
ĠGÃ©n Ã©ral
affront er
Ġvass aux
ĠdÃ® ner
Ã©clai rage
C onst
H erm
n ing
Ġv Ã©c
Ġb in
Ġch rom
Ġin dem
Ġpro cession
ic itÃ©
ĠJ ason
Ã©ri es
ĠH ergÃ©
Ġex am
che z
ph y
Ġti rÃ©s
la f
ĠdÃ©p endance
Ġpart agÃ©e
ĠmÃ© ch
eff ici
Ġarriv Ã©s
Ġtri angle
Ġali gn
ĠLib ye
Ġcontinent al
ĠportÃ© es
Ã± o
ĠStu art
ĠLud wig
ĠTÃ© hÃ©ran
Ġcorrid a
j onc
ra lement
Ġau g
ĠC ow
Ġb lesse
de ur
ĠP all
uis s
Ġres pi
Ã©di tions
ĠcrÃ© di
ĠgÃ© ants
ĠCol lection
Ġtomb Ã©e
Ġ180 1
Ġsex uel
ĠNeu chÃ¢tel
ĠAls ace
ĠTchÃ©cos lovaquie
Ġpourcent age
Lou ise
A O
S al
Ġp isc
ar rive
Ġm use
el age
ag isse
di ce
ĠN ant
ĠH ou
ate d
Ã©di es
Ġph arm
Ġdonn ait
Ar istote
Ġbat tue
Ġcomb inÃ©
Ġten us
ĠPol onais
ĠvÃ©gÃ©t aux
Ġlic enci
Ġabb Ã©
Ġmul titude
ĠMatt he
Ġmorph ologie
ĠBey oncÃ©
Ġrecr uter
affron tement
horiz on
Ġbiblioth Ã¨ques
" :
v ol
ra di
Ġh ind
ouv Ã©e
ĠG amb
Ã´ n
Ã©r in
ach eter
Ġparc ourt
ĠRob inson
mar ine
Ġ184 1
Ġfranch ises
Ġemploy Ã©e
Ġprotest ations
Ġjamb e
ĠJon athan
ĠCopp i
ĠvÃ©tÃ© rin
Ġiv oi
ĠmÃ©diterran Ã©en
Ġfes tivitÃ©s
Ġviole mment
ĠGarc ÃŃa
Ġphras es
0 4
S ite
d ay
Ġs Ã©min
Ġre tient
Ġj eter
Ġcont ourn
Ġass istent
Ġfam ine
Ġform ellement
Ġform ules
ĠspÃ©ci fic
Ġcad av
ĠprÃ©f Ã©rant
198 4
198 6
Ex position
ĠboÃ® tes
ĠLar ry
imagin aire
F I
N otes
y les
Ġc urÃ©
Ġf osse
Ġt oi
ĠÃ© videmment
ĠM ig
ĠP am
ĠT ah
Ġra tif
ĠV inc
Ġ18 22
Ġcl avier
tis ation
la h
Ġaut o
Ġpermet tra
Ġcul mine
Ġri re
ĠspÃ©ci ales
Ġchasse ur
198 7
Ġrejet Ã©
ĠAc ade
Ġheur te
ĠMcK in
ĠPick wick
Ġs ocle
in Ã©ma
ĠL ouv
Ġpar ach
Ġv ignes
de p
Ġin tra
ac Ã©s
ĠR Ãª
agn ac
ĠÃ©v ite
Ġaff ili
ĠmÃ©t alliques
inc ar
ĠdÃ©par ts
ĠdÃ©t ruites
ĠprÃ©par Ã©
Ġphilosoph es
ĠrÃ©vol tes
ĠtÃ©lÃ©vis Ã©es
Ġprim ordi
Ġbap t
ĠprivilÃ©g iÃ©
Ġexplic itement
audi ence
ĠFrances co
Ġdispos ait
ĠAlph onse
E FA
P C
b eau
an tis
in ch
vi ation
st en
ill ustra
Ġcomp arer
ĠCh Ã¢te
19 80
sy l
Ġpil otage
Ġopp osÃ©e
Ġcolon ial
ĠdÃ©g uis
atta quant
Ġvit raux
Ġ180 8
198 8
ĠMil ton
Ġinstru ctions
ĠÃ©criv ant
ĠfaÃ§ ades
Ġpous siÃ¨re
Ġble us
Ġfigur ines
Ġdan ois
ĠGes ualdo
Ġconsens us
H ol
S yn
V e
c Ã©s
l ux
Ġd us
Ġd urent
il ie
el berg
Ġau tel
ĠS em
Ġcon vi
Ġdis per
ĠgÃ©n Ã©tiques
lan che
Ġacc um
ĠMe use
Ġiniti ative
ĠsÃ©lection nÃ©s
Ġappr ouvÃ©
Ġfigure r
ĠChamp ion
Is is
Ġimpos ant
Ġhui le
Ġappli quÃ©e
Ġpay Ã©
ĠNÃ© erlandais
Ġannex e
inqu iÃ¨me
ON U
ĠRoub aix
tol Ã©m
ĠÃīgyp tiens
Ġp omme
ĠL iÃ¨ge
ch us
ĠP ot
li ques
ĠB aker
Ġsur rÃ©
ĠT it
ĠT ai
ĠR ois
Ġpas tor
ĠN im
mb ert
Ġcl os
Ġsy ll
ĠÃ©v ang
Ġgrand it
ĠsÃ©rie usement
tÃ©ri eux
Ġcompos ants
ĠPe i
Ġva ches
Ġperd ant
Ġtyp iques
Ġath lÃ©
je ctions
ĠBur ton
ĠrÃ©pand u
ĠJeff erson
Ġrense ignements
Ġasi atique
Ġmalt ais
ĠmÃ©canis mes
R S
c it
h Ã©ros
l ain
Ġp iv
Ġc Ã©leste
re ll
ch ot
at telage
Ġ2 20
che vi
ru cture
ĠCar n
Ġouv rant
mis tice
Ġreconn aissent
Ġplac ent
Ġbi joux
Ġrenfor cÃ©
Ġdiffus er
Ġdiffus Ã©s
emb ouchure
Ġmentionn ent
ĠThÃ© odore
ĠCat alog
ĠBarb ara
Ġmons tres
Ġrecens Ã©s
ĠocÃ©an ique
ĠdÃ©pe int
L oc
v ana
y t
Ġt rophÃ©es
Ġn aissent
Ġb ai
ĠS le
Ġre lÃ¨vent
ĠP ip
ul aritÃ©
st ar
An ge
orti er
acc Ã©l
Ġroy autÃ©
Ġinc ite
Ġpri or
Ġconser vant
ĠÃ©quipe ment
Ġcentra lis
Ġcombat tant
Ġsau ter
Ġarm oiries
Ġphysique ment
Ġnu its
Ġrele ver
Ġmix tes
Ġapproxim ativement
Ġheb domadaire
littÃ©ra lement
A in
Y ves
est ern
ĠP av
di mbourg
ĠT GV
ap ogÃ©e
ĠK on
Ġ18 24
Ġ9 8
ĠU ru
ĠnÃ© er
Ġbat tus
Ġgra in
Ġus ages
Ġ183 8
ĠrÃ©flex ions
ĠAng ers
Don ald
ĠVide o
S M
m ur
Ġh erb
ĠR an
ĠV il
ad vers
ĠK elly
Ġam or
Ġrep osant
ign ons
ĠY ap
Ġdro gue
orti e
Ġinc roy
Ġcoup ure
Ġsal ue
Ġop tion
Ġbr us
Ġsac re
Ġ183 3
ĠmÃ©m orial
ĠrÃ©cup Ã©ration
ĠWar ren
ĠBat aillon
Ġrelie fs
Ġentou rage
Ġtran che
Ġeffic aces
ĠpÃ¢ le
Ġpoly techn
Ġabond ante
ĠÅ ł
ĠÃ©nerg Ã©tique
ĠdÃ©lÃ©gu Ã©
Ġmout ons
Ġjud aÃ¯sme
PÃ©t ersbourg
M en
c ue
c ieux
an ais
Ġs am
ar ab
Ġn et
Ġg laces
ĠM ys
Ġan alog
ĠdÃ©c ol
Ġcons ultÃ©
Ġrep Ãª
ĠdÃ©p ouille
Ġsol enn
Ġrencont rÃ©s
Ġprog resse
Ġinc arn
ame d
Ġhistor iquement
ley rand
Ġvari ation
ouss es
Ġcy cles
Ġbl ason
ĠCap it
Ġhabitu des
Ġcos m
guer res
Ġpan or
ĠÃ©vent uellement
Ġfondament ale
Ġnat ation
ĠCle veland
Ġdesserv ie
E D
G Ã©n
l li
n est
Ã© lo
Ġl anciers
Ġc oy
un Ã©
Ġdu cs
ĠC ole
ic at
ir on
og Ã©n
ad y
Ġ18 29
Ġcar refour
Ġpol yg
ĠdÃ©p assent
Ġoccup ants
ĠBro ok
ĠSal v
atis tiques
Ġban ques
Ġpot able
Ġgard Ã©
ĠFrank lin
ĠlibÃ©ra le
Ġpla Ã§ant
Ġsignific atif
ĠrÃ©Ã©d itÃ©
Ġclin ique
Ð¾ Ð
ĠÃ©rup tions
k as
Ï ħ
ĠS ound
Ġch Ãªne
Ġsur vient
ĠprÃ© limin
ĠCh ild
Ġob stacles
Ġad verse
ĠZ h
Ġloc omo
ĠCro ss
ĠdÃ©mocra te
Ġvir us
Ġfamili ales
Ġtab ac
ĠantÃ©ri eurs
Ġarr ondissement
Ġnatur aliste
Ġpseud o
Ã©land ais
Ġpneum atiques
ĠColor ado
ĠMoun tain
N o
g ow
Ġp ans
Ġp ond
Ġf aille
el ik
ĠC and
ĠP le
ĠR at
onn iers
ge oise
Ġav enir
ap an
ĠK ob
Ġapp lications
Ġst ri
ĠO ct
ĠMar co
Ġman ge
Ġcommun ale
ĠY ann
ĠSt and
Ġcent enaire
Ġdisp utÃ©es
Ġind Ã©
ĠCan al
ĠBar rett
arg ile
ĠprÃ©f ig
Ġremar quÃ©
Ġconfir ment
ĠamÃ©li ore
ĠstratÃ©g iques
Ġnu age
Ġcui rass
Ã¦ d
ĠTw o
Ġpun k
Ġmys tÃ©rieux
ĠStudi es
Ãīt oile
Av ignon
hyd rogÃ¨ne
sax onne
ĠMul house
AT P
ĠDuc ks
ĠVos ges
S te
T R
h is
on ix
Ġp Ãª
ĠB ush
ĠD aily
ĠG Ãªnes
Ġex ercice
ĠÃ©t rus
ĠPar ker
Ġor nÃ©
orte ment
orig in
Ġeng agÃ©es
ian i
Ġconcern Ã©s
ĠcomplÃ¨ tes
ĠCons erv
Ġmassac res
Ġsoup Ã§
otter dam
ĠGri ff
Ġdesqu elles
Ġspons or
Ġlap ins
Ġcadav res
S ch
t d
Ġs Ã©c
ar restation
Ġla titude
ĠB oris
ĠprÃ© pond
Ġou til
ill is
Ã¢ n
ĠMar ch
Ġaut obi
Ġvi aduc
Ġsupp rimer
Ġco effici
esse ur
ĠSch troump
ĠfÃ©min istes
ĠBen e
orb Ã©ry
ĠBob by
ĠdÃ©pend ent
Ġglaci aire
Ġclient Ã¨le
Ġgend armerie
Top onymie
ĠultÃ©rieure ment
Ġbombardi ers
0 1
l oient
m od
Ġl Ã¨ve
Ġm Ã»
Ġn aÃ¯
ĠdÃ© ception
Ġcom ic
Ġcon quis
les i
ĠG olf
Ġsa x
ĠV o
ad olesc
av y
Ã® tre
ob lige
Ġindi re
Ġliv ra
ĠSe p
orig inal
ĠCol in
Ġ179 5
Ġall ures
ĠprÃ©cis er
Ġrestaur Ã©
Ġmyth ique
ĠRÃ©g ime
Ġsynag ogues
ĠRap haÃ«l
Ġpotenti ellement
Ġcoutu me
ĠWW E
ĠcloÃ® tre
g ames
Ġl unes
Ġc ancer
Ġa i
is Ã©es
ar Ã©
ĠÃ İle
ra il
Ġv ierge
Ġch angent
ran gement
ac tifs
ĠN u
ĠN il
Ã©t ang
ass o
amp li
ĠdÃ©b lo
Ġsi ff
Ã©p ave
Ã©l arg
ĠCar lo
Ġaugment ent
ĠdÃ©sign Ã©e
ĠsÃ©par ent
ĠNic ol
Ġquin ziÃ¨me
Ġacqu Ã©rir
Ġrur ales
Ġaccueill ent
ĠCant orbÃ©ry
ĠVik ings
Ġvolc ans
Ġinvas ions
Ġclavec in
L Ã©on
a q
b ur
l ou
p an
w iller
z an
Ġp ian
Ġc uri
ou lÃ©
Ġf ib
ro ck
Ġj onction
ĠE mble
ĠE SP
og er
Ġ18 27
Ġapp ortÃ©es
Ġcar c
ib us
Ġgr oup
En se
Ġcour onnement
ĠDe g
Ã©p ous
Ã©p aule
ĠAl d
iti alement
ath on
Ġcul tu
Ġliv ret
intÃ© resser
Ġto il
Ġmob iles
ĠGi useppe
Ġinves ti
ĠmÃ©n age
o ke
} {\
Ġl Ã©op
ĠL it
Ġv oter
ĠrÃ© agit
Ġque relle
ĠG issing
ĠW ald
Ġju ger
Ġexp l
Ġvis itÃ©
ĠWe ek
ĠSm ol
198 3
Ġbal les
Ġgrav ure
erse y
Ġquator ziÃ¨me
Ġcollabor ateurs
A mi
P arc
Â ²
an ia
er ick
un er
us c
Ġpar d
Ġre lÃ©gation
ĠB eck
Ġr entrÃ©e
ĠR un
ĠR as
ĠprÃ© occupation
im ages
ob ates
Ġces ser
Ġman oir
Ġsou tiens
Ã©p id
ĠÃ©p ais
ĠRe view
ĠspÃ©ci men
Ġatt endu
ĠHar old
Ġmunicip alitÃ©s
Ġrais onn
Ġcontempor aines
Ġenregist rÃ©es
Ġgrav itation
Ġglob al
stron g
antill y
ĠpÃ©riph Ã©rique
Ġabat tu
P DF
en aient
ti la
Ġf ui
Ġpar ade
ĠC ros
ĠC auc
mp es
Ġr ite
ĠT et
ĠT oute
ĠR oute
ĠN Ã©ron
Ã´ nes
ĠW agner
Ġ18 19
Ġcl ar
Ġmon g
ĠnÃ© bule
ĠZ id
Ġsign ent
lin ois
Al l
Ġbar rages
Ġlet t
ĠDisney land
ĠdÃ©cla rer
Ġinv asion
ĠSal on
198 5
ĠDon key
Ġpi Ã©t
Ġterritori ales
Ġtue ur
Ġcontrovers es
ĠmaÃ§onn erie
Ġdign itaires
Ġcellu le
ĠAug ust
Ġgalax ie
h Ã©li
t our
Ġde uil
Ġc ann
ĠL at
ĠC iv
ĠS ap
ĠM organ
di fication
ĠR ER
ĠF air
ĠJ es
vi ers
Ġex amin
ine m
Ġou t
che min
oin es
Ġmar oc
Ġat omique
ĠÃ©c oul
Ġatta quant
Ġconsac rÃ©es
Ġmur aille
198 1
Ġprati quÃ©e
Ġdur ablement
Ġgui des
Ġafric aine
ĠRest auration
illus tre
ĠEmble m
É Ļ
el ieu
ĠdÃ© Ã§u
Ġcon sent
ĠM Ã©l
li Ã¨res
ĠA re
ĠA ge
ĠN ak
Ġimp rovis
Ġro ses
mi ers
opp ort
ĠÃ©p aisseur
Ġaff ection
Ar n
Ġinc ons
Ã©li bat
ĠÃ©m erg
ĠrÃ©un issant
Ġessenti elle
Ġcouv erts
Je unesse
ĠdÃ©termin ation
Ġboule vers
Ġsil hou
Ġanc Ãªtre
Ġgri ff
erci ces
ĠRon ald
Ind ochine
Ġproclam ation
inves tissement
parti tion
ĠTemp s
Ġafflu ents
ĠOt ton
Ress ources
ĠCatalog ne
g han
Ġc umul
Ġa cier
Ġm Ã©g
ĠL aure
Ġv us
ĠC assi
ĠS itu
ĠM ap
ĠG aga
ĠH os
ĠMar l
ĠY our
ĠY ang
cul aires
Ġcompos ante
inst auration
Ġreven dique
Ġpein dre
ysi que
rÃ©g ation
ĠHall oween
Ġagric ulteurs
ES CO
Ag ence
ĠSk op
ĠrÃ©vÃ©l ation
Ġparticul aritÃ©s
Ġenseign ants
Sa Ã´ne
Ġendomm agÃ©
ĠJer ry
Alex is
P atri
i tionn
Ġp airs
Ġf ile
ag rand
ab i
ĠT ed
ĠprÃ© ten
ous t
ĠV as
Ã©t alon
ing en
Ġy ou
Ġsc rib
omb ie
ĠÃ©p aisse
Ġnation alisme
off rir
enf uit
Ġprofessionn elles
Ġsais ir
hou si
Ġautoris Ã©e
ĠSeu le
Ġexerc er
Ġcoutu mes
Ġdign itÃ©
ĠCrois ic
ĠmÃ©dioc re
Pal marÃ¨s
D Ã©m
m ons
s ouris
t ario
v ara
Ġc ac
Ġm iss
ĠL up
ĠL ipp
ĠC art
Ġb ul
Ġb ains
Ġg el
eu l
ĠE is
st ad
Ġpoin tes
ĠÃ©v acu
ern iÃ¨re
ĠreprÃ©sent ait
Ġinf orme
Ġdisp ens
ĠMont morency
ĠmÃ© fi
ĠSu Ã©d
ĠAt ari
Ġabs orb
Ġafric ain
oblig ation
Ġprotoc ole
p os
p tel
ar gu
ĠL Ã©
Ġv acc
au th
li oz
Ġch i
ĠT andis
ĠLe ic
Ġses sions
Ã® t
Ġche ptel
if ier
ĠAn dy
Ġconstitu tionnel
Ġag ir
Ġanim ation
Ġorganis me
Ġrev ues
Ġrespec tifs
oll on
Ġdocument aires
Ġinstall ation
ĠprÃ©d omin
Th omas
Ġang les
Ġbanc s
Ġorch est
led ge
Ġbib lique
} ^{
Ñ Ĥ
en ues
Ġf lex
Ġt atou
om Ã¨tre
ĠL ug
ĠM itch
Ġch Åĵurs
ĠB M
Ġpro jec
ĠT ot
Ġh Ã©ritÃ©
ot tes
ĠJ ersey
ĠdÃ©c Ã©dÃ©
Ġcl Ã´t
lis son
Ġrec ouverte
Ġman uel
Ġ9 4
Ġtou chant
ĠlÃ©g al
Ġfer ait
Ġtechn ologique
ĠHar as
Ġfai m
ĠdÃ©r oute
Ġcommand Ã©s
orde ment
ĠfÃ©d Ã©rations
Ġanti cip
198 2
ĠPress es
ĠintÃ©g rÃ©s
Ġnul s
ĠDou ai
Ġdirect s
Ġpati ent
ĠdÃ©te ction
Gu illaume
Î¿ ÏĤ
ĠRet our
ĠalÃ© atoire
ĠSpar te
ĠHin ault
Ġantis Ã©m
ĠGlas gow
ĠZur ich
I ls
b ilis
s wick
er i
te ction
Ġf iss
Ġt ables
Ġv eux
ol ia
Ġse iziÃ¨me
Ġr ing
ĠF ul
ĠN asser
Ġdis ait
lÃ¨ ches
des c
app lique
Ġprodu c
Ġappar tement
Ġmilli mÃ¨tres
ĠPort o
ĠVal ley
Ġfix er
Ġred dition
Ã©tab lis
Ġcontribu er
ĠForm ula
Ġisol Ã©e
Ġsor ciÃ¨re
ĠathlÃ¨ te
GÃ© ologie
ĠMaj or
Em manuel
ĠnorvÃ©g ien
ĠRoh an
artis anat
ĠCraw ford
R ich
Ġd ictionnaire
est a
ĠC ountry
ĠS ang
ĠS lov
Ġre part
ĠP ant
ĠB uck
ab ase
ig le
id jan
Ġcar rÃ©e
Ġinter ventions
app robation
acc um
aur a
hi op
ĠJeux video
Ġaffir mer
ĠÃ©lect rons
Ġmi di
ĠComm and
Ġexc ent
Ġexplo itÃ©
ĠbÃ©nÃ©fici Ã©
St atistiques
ĠGau lle
champ ion
jon ction
ĠprÃ©occup ations
excl usion
ĠFors ter
Ġsolid aritÃ©
ĠjÃ©s uites
accue illir
ĠGameSp ot
ĠextrÃ©m itÃ©s
ĠBoe ing
Ġsuzer ain
k ar
z in
z one
Ï Į
Ã© par
Ġg h
Ġcom tÃ©s
ais ance
ĠB Ã¨de
ĠB ian
Ġcons ci
Ġcl Ã©s
eur opÃ©
ĠO scar
Ġvers ants
Ġent rant
ĠrÃ©p utÃ©s
Ã©l oigne
Ġcent rÃ©
form ation
ĠLouis iane
ĠPro che
ĠÃ¢ gÃ©es
ĠNo vel
Ġcontribu tions
Ġreli Ã©s
ĠComp uter
Ġfoss Ã©
Ġressembl ance
ĠLeon ard
entle man
d ae
Ġc asse
ra teurs
mp er
ran de
Ġex trÃ©mitÃ©
Ġjus tement
Ġent rÃ©
20 18
ĠlÃ©g Ã¨res
Ġdou bles
Ġten ait
aw aÃ¯
Ã©cur itÃ©
Ġconver tis
Ġsav ants
Ġinvent Ã©
offici ers
AD N
ops is
ĠTest ament
games h
P A
h m
h ad
n ois
z ig
Å Ĵuvres
Ġc ort
Ġm ors
om Ã¨re
Ġb av
Ġpl atine
ĠP el
Ġch ou
ĠH is
ex termination
alis ations
ante ur
min i
ris h
em m
Ã¯ de
gu y
enc ad
ĠCl aire
Ġfra u
Ġcommerci alisation
ĠintÃ© rieurs
ĠDi ane
Ġdra ft
Ġ183 4
Ġidentif ier
ĠNorm ands
ĠLiber tÃ©
Ġtremp lin
ĠCham onix
Ġrelanc er
kip Ã©dia
Ġp ag
Ġs o
in cident
il an
Ġn ich
ch al
ĠR ingo
ul us
ay es
raph ique
ĠÃ©p Ã©e
ak ar
Ġense igne
Ġtotal ise
ĠimpÃ©ri aux
Ġdipl Ã´
indi vidus
ĠPont oise
Ġisol Ã©s
Ġsatisf action
Ã©chapp e
Che z
Ġbor nes
ĠBulle tin
P ont
c at
Ġd angers
Ġp uni
ĠM TV
ac ri
ĠR ush
tin ctions
Ġcl andes
lan e
Ġpo il
Ġvis uel
Ġcent rÃ©e
ĠChar lie
rop oles
Ġcoup Ã©
Ġviv ante
duc teurs
Ġclass Ã©es
Ġincl uent
ĠprÃ©cis ant
Ġsusp endu
197 9
ĠmathÃ©m atique
Ġinsc rire
ĠTal leyrand
Ġbarb ares
ĠFranc fort
ĠRÃ©s istance
Ġv el
Ġb Ãª
ĠD ame
Ġcontre r
Ġcor romp
Ġbas Ã©es
Ġgar age
Ġpens Ã©
Ġconcern Ã©es
ĠAd vance
Ġmultip lication
ĠÃ©cl aire
ĠcontrÃ´ lÃ©e
tue use
ĠprÃ©t endant
ĠWi kipÃ©dia
ĠMen elik
ĠMass a
Ġincendi es
Orig ines
ĠAch ille
Ġvign oble
Ġcardi aque
an iste
ra teur
Ġn uis
ol us
ĠD oub
ĠT ell
ĠR ico
ĠH Ã©ro
Ġav ois
lÃ© ments
od or
La zare
Ġti rant
Ġter rass
Ġ9 7
ĠÃ©v Ã¨nement
Ġloc u
aff ection
Ġatt rib
Ġanim ations
Ġappel er
ros se
ĠRen ard
Ġlog istique
hum iditÃ©
ĠWe h
ĠdÃ©sign Ã©s
Ġtyp iquement
Ġavanc er
Ġconqu Ã©rir
ĠindÃ©pendant es
ĠenchaÃ® ne
Ġtub er
ossi bilitÃ©
abond ance
Brun swick
L Ã©g
h ai
p ard
z el
z ie
Ġd Ã´me
Ġp ile
ti ale
ra te
ĠC N
ĠR ib
ĠG ol
ĠprÃ© cep
ĠCh ant
Ġ18 28
ang ile
Ġprop ulsion
Ġport age
ow ell
ĠdÃ©m arre
Ġsub al
Ã©lÃ¨ vent
ĠPl aton
Ġadap tÃ©es
Ġvois inage
ĠComm on
ĠSer ies
Ġexpli quent
Ġreconst ruite
ĠexÃ©cu tion
ĠAv ignon
Ġbag ad
Ġasi atiques
institu t
ĠDall as
relie fs
Ġorn ith
e a
Ã Ł
Ġ ion
an Ã§a
Ġg rÃ©g
ai gu
ĠM onn
âĢ ³
Ġin Ã©v
ĠD rag
ac ci
ĠLa ff
ĠW inn
Ã¢ tres
ĠdÃ©c ap
Ġor ange
orm an
Ġrem or
Ġpolitique ment
ik o
Ġ180 7
ĠrÃ©serv oirs
Ġparall Ã¨lement
ĠBat aille
Ġrh in
ĠWest ern
Ġparis iens
ĠconsÃ©cu tifs
Ġajout Ã©e
ĠGeoff roy
Ġchapite aux
advers aire
R T
s ans
Ġc amb
Ġf lÃ¨ches
ĠS ut
ĠS ciences
ĠM assi
ĠP s
ĠrÃ© organisation
Ġch aude
ĠT ab
ĠT Ã©lÃ©
ĠE dition
ĠF Ã©bus
onn iÃ¨re
Ġex amen
im meub
ct on
Ġ18 26
lis sier
Ġti mbre
Ġob stacle
Ġmor ales
ĠprÃ©v oy
ĠTra jan
ĠÃ©qu ilib
Ġru de
Ġinform Ã©
ĠamÃ©li oration
car tes
Ġsurn ature
Qu Ã©bec
ĠCont re
ĠamÃ©n agÃ©e
Ġmonop ole
ĠTer ry
Ġtur cs
Ġral lie
ĠAux erre
Ge orge
Ġressembl ent
Ġressembl ant
Ġracc our
Ġparad ox
ĠmathÃ©mati cien
ĠMarian ne
ĠZid ane
O xford
f ient
Ġs ion
er ve
om i
ment Ã©
Ġv ies
ĠC lem
ĠC SI
at ori
ag le
ĠG ray
ĠFran ck
amp ton
Ġcour tis
Ġconst ant
ĠrÃ©p ons
Ġrest ants
ĠZ o
Ġloc alitÃ©s
ĠCol lÃ¨ge
ĠÃ¢ ges
ĠDi ff
Ġinspi ration
oug Ã¨res
Ġnorm ande
ĠrÃ©tab lissement
Ġul tÃ©rieures
col onel
ĠrÃ©compens Ã©
ĠhÃ´ pitaux
ĠDÃ©s ormais
ĠÃ©chantill ons
T ous
b ois
an alys
Ġs age
Ġc Ã©d
Ã¨ ze
ĠF ait
cher on
Ġcor rÃ©
Ġmes urent
ach ie
Ã©ci le
Ġsucc Ã©dÃ©
ĠJoh annes
Ġmain tenu
Ġvoy ait
ĠbÃ¢ti e
ĠrÃ©sul tant
Ġexist ants
Ġconcur r
ĠÃ©volu ant
197 4
Alexand rie
ĠGil gamesh
ĠNÃ© olithique
ĠrÃ©sist ants
ĠCub a
A ir
R A
T ou
n t
Ġd og
Ġp ommes
ĠB est
ran o
ĠT at
ĠT ill
ĠH amb
Ġnom ades
ĠK as
Ġ18 25
ann on
Ġcour b
mi x
app e
Ġtou chÃ©e
Ġsign aux
Ġsub ord
Ġfer rÃ©e
aÃ¯ s
Ġpein ts
ĠdÃ©g ager
ĠdÃ©ta che
Ġobserv ation
Ġnos tal
Ġdynas ties
Ġreconst ruire
osa ures
Ġfisc ale
ĠErn st
Ġescad rons
ĠdÃ©lÃ©gu Ã©s
Ġampli fic
UN ESCO
ĠBret ons
ĠESP N
w ich
Î ¬
Ġp alestin
Ġc Ã©libat
as i
ĠP lÃ©
ain queur
ĠJ enn
and ro
Ġra vi
ĠV illage
par tement
Ġph yl
Ġpublic itaire
ĠBe aux
idÃ© ologie
Ġpil ier
Ġoccup ant
ĠÃ©li mine
Ġtop onyme
ĠdÃ©plac Ã©
St ar
ĠLis zt
Ġfondament al
Ġrecon quÃªte
Ġfabri quer
ĠVill eneuve
Cert aines
Arch itecture
Hor us
Ġnourris sent
ĠmÃ©contente ment
ĠLeic ester
a ussi
c ot
l ag
m it
v int
ti mis
is tÃ©ri
ĠR otterdam
ĠG la
Ġan ge
Ġsa fran
op l
im an
ĠCh ron
ouve ment
Ġmat ri
Ãªte ment
Ġent housiasme
Ġvi vement
ĠSh aw
Ġcommerci alisÃ©
ĠdÃ©n iv
Ġ179 8
Ġorient ation
Ġenti tÃ©
ĠLuc ky
Ġidentif iÃ©e
Ġprivil Ã¨ge
Ġintrodu ite
ĠCong o
Ġregroup ent
ĠdÃ©plac ent
ume ur
ĠaÃ©ro d
Ġvamp ires
Ġcrist all
ĠprÃ©cur seur
Ã©bre u
ĠMcKin ley
N ouv
S ystÃ¨me
en eur
Ġa dep
Ġm uti
Ġ1 19
ĠN ash
ĠprÃ© histor
ter ling
Ġju gent
Ãī ducation
Ġpubli ent
ble au
Ġab attus
Ġver be
Ġliv rÃ©e
Ġaccompagn er
Ġlum ineux
Ġdest roy
Ã©tend ent
Ġordin ateurs
ĠPÃ© lissier
Ġsoulign ent
ĠHan ov
ĠArm Ã©niens
Ġgaranti e
ĠhiÃ©r arch
Ã©mi tisme
Gen Ã¨se
Ġphara on
Vict or
ĠMÃ©di cis
ĠtrÃ©s ors
g rand
l Ã¨s
n os
y ph
ti ser
el ia
Ġun anime
Ġdu rer
Ġpar ue
am us
Ġh onn
erre ur
lÃ¨ nes
orte x
Ġman i
Ġsupp osÃ©e
ĠRoy an
Ġperd ure
Ġpeup lement
ÃŃ s
enf uir
rat rice
Ġlut h
ovi Äĩ
ĠcÃ©rÃ© b
Ġmultip lie
Ġsimil itudes
ĠNorm an
Ġhos tilitÃ©s
ĠBur ns
ĠChris tine
ĠDie go
ĠLem ieux
ĠSus an
Ġdestru ctions
Ġvec teur
A lan
P ays
b oks
u ka
Ġ *
es e
Ġp illage
Ġs ulf
Ġa Ã©ron
ĠÃ ĩ
us te
ĠS ax
Ġpl ainte
ĠB ib
Ġsur veill
ĠLe x
ĠLe igh
ĠH unt
Ã©m ies
if ormes
Ġexp rimÃ©s
ĠRe y
ke ting
ĠHar vard
Ġdisc uter
Ġaffir m
Ġarch aÃ¯que
Ġsuff rage
ani um
Ġorient Ã©
ĠChamp s
ĠÃ©n ormÃ©ment
Ġâ Ĩ
ĠconsidÃ©ra bles
tig ation
Ġorgan es
Ġheure use
ĠspÃ©cialis Ã©es
Fin alement
Ġchauss ures
Ġvictor ieux
Ġbale ine
Ġexcell ente
sep tiÃ¨me
Ret our
R C
R Ã©c
f aire
Ġs iens
Ġc rÃª
ar ge
Ġt endre
Ġb Åĵuf
ĠS ul
ĠrÃ© cep
Ġin tÃ©rieures
ĠD ragons
Ġh ur
Ġh ard
ĠF ol
Ġtr iste
Ã´ tes
Ġcont our
he b
Ġrep oser
ĠdÃ©b ord
Ġren ard
Ġob tenues
Ġman quer
Ġchev et
Ġsoci o
Ġvis ages
Ġpublic itaires
ĠCl ermont
Ġreconn aissant
ĠnÃ©g atives
Ġorient Ã©e
Ġcomment ateurs
Ġ180 5
ĠMo on
enz o
ĠÃ©vent uelle
Ġimplant Ã©
ĠbÃ©arn aise
Ġhit tite
Ġsoign er
Ġvuln Ã©rable
insp irant
Ġfoul Ã©e
Ġcommunaut aire
Ġlivra ison
B lanche
O regon
l ys
u Ã©s
y c
Ġpar ag
mb lÃ©
Ġex act
Ġ18 17
En g
ĠdÃ©p ortation
Ġper cÃ©e
lu ences
Ġfa usses
ĠrÃ©s istant
Ġgouver neurs
ah n
Ġcompos ant
Ġvoy ager
ĠPro ject
Ġir landaise
Ġguer rier
igh ts
Ġexcep tions
Ġdon jon
Ġenvironnement ale
ĠMans field
Ara bie
tio che
ĠAur Ã¨le
ĠhellÃ©n istique
dim ir
syl van
v it
Ð º
Ġl ith
Ġc ibles
in qui
ent housiasme
Ġv enger
ĠT ang
ot yp
Ã©n on
ad mi
imp ossibilitÃ©
Ã©t endant
Ġcar ross
ĠTh at
Ġvol et
ĠSon ic
hui tiÃ¨me
Ġmag iques
Ġfac es
ĠEd mund
Ġarriv a
ult ures
Ġfinanci Ã¨rement
Ġdistribu Ã©
Ġperdu es
Ġinaug ure
Ġpou ces
ĠÃ©tro ites
Ġcriti quÃ©e
Ġforter esses
Ġlinguis tiques
ĠVit rÃ©
Ġinterd its
Personn alitÃ©s
Ġparas ites
ĠhÃ©ri tiers
Ġbulg are
l au
l ong
r ary
Ġd rain
Ġs lovaque
ou tre
ra ble
us anne
ĠC rÃ©t
ci aux
Ġpl ages
and in
ĠW el
Ãī le
ars en
Ġbou e
Ġlut tes
ĠfÃ©min iste
oz y
ĠNation ale
entraÃ® ner
ĠinfÃ©ri eurs
Ġpap iers
ĠcÃ©lÃ©b rÃ©
Ġaffec tÃ©s
Ġpy ram
Ġsoulign er
Ġcreus Ã©
Ġcontent er
Ġiran ien
ĠSpring boks
ĠDeb ussy
Ġhospital ier
ĠBent ley
Ġsurpl omb
O de
l ers
v ert
Ġs Ã¨ches
ti tre
ti ments
Ġm ond
us tin
Ġg uise
Ġsur veiller
ĠR oth
end orf
ĠK it
aine ment
ĠMar ÃŃa
app liquer
ĠdÃ©f un
ud son
Ġcul p
Ġas pi
Ġmilli er
Ġli ve
ĠQu in
Ġouv riÃ¨re
ĠthÃ© olog
aill er
aill ard
ma Ã§onn
ital ien
Ġdat Ã©s
Ġcli chÃ©s
ĠSp in
ĠÃ©lect roniques
Ġtrib unes
Ġcommenc Ã¨rent
erb aÃ¯d
Ġ[âĢ¦] .
Ġmob ilitÃ©
ĠintÃ©g ralement
Ġrasse mblement
At lan
we y
Ġsh ow
Ġtransp orte
Ġfi abilitÃ©
Ġappli quÃ©
Ã± a
ĠRod erick
Prem iÃ¨res
Ġtunis ienne
Christ ophe
Gr Ã¢ce
ĠGlob al
Ġmour ut
Ġsympt Ã´mes
erbaÃ¯d jan
E A
Ġt amb
Ġb ain
Ġch assÃ©
op ol
Ã©r ente
Ġju vÃ©n
ĠÃī d
ĠdÃ©p oser
ĠRe b
tel la
Ġcontra ints
ĠreÃ§ ue
Al ger
Ã©qu ences
Ġsyn onyme
Ġprote ctorat
Mar ne
Ġexist antes
Ġreli Ã©e
ĠMat th
ĠCam ille
Ġcoh ab
Ġracont er
Ġprosp Ã¨re
Ġcommiss aires
ĠCast le
Ġreconstitu er
Ġadress Ã©e
ĠpÃ© chÃ©
ĠmÃ©tropol itaine
ĠbrÃ©sil ien
Ġnaiss ances
ĠnÅĵud s
ĠElli ot
ĠdÃ©ter mine
Ġbapt Ãªme
0 6
E ff
l os
et o
Ġv enti
Ġb aign
se ction
ĠP ay
ab att
ĠG ouvernement
ĠF oot
ĠCh allenge
Ġ18 11
Ã©v itÃ©
Ġman quÃ©
Ġmen eur
Ġcomb ien
ov o
Ġsucc Ã©der
aff e
aff aib
Ġbr ise
ĠÃ©qu ations
ĠimpÃ©ri ales
ĠÃ©lev ages
Ġreli Ã©
Ġsouhait Ã©e
Ġlaiss Ã©e
Ġdiplom atie
ĠDen ver
Ġench Ã¨res
Ġdict ature
ĠCond Ã©
ĠMiy amoto
ĠdÃ©barrass er
Ġserp ents
Ent ente
h ymne
Ġd urs
Ġp ent
or re
Ġb ob
ol ph
Ġg lac
ĠB eng
pp es
ĠT en
ĠG our
ĠF rom
Ġex haus
nes ota
ang ue
ici enne
Ġjou it
Ġacc lam
Ġnouveau tÃ©s
ĠÃ©ch ouÃ©
Ġviv ait
occ urrence
Ġlog es
Ġ179 7
Ġach Ã¨ve
Ã©ral dique
Ġpor tÃ©s
Ġbour se
ĠRog ue
Ġemprun tÃ©
Ġmascul ins
Ġmos aÃ¯ques
Ġcalcul s
Ġsynth Ã©ti
Ġtraite ments
ĠcoÃ»te ux
ĠÃ©tend ues
Ress ource
Ġvar ier
e aux
Ġ uk
Ġle aders
ĠB lu
ĠT omm
Ġh arc
ĠR ouss
and er
ĠÃ©t hiop
Ġar ticul
Ġst Ã¨le
all y
Ġeff ond
ign er
Ġconf id
ris me
ĠSh i
ĠSh in
Ġten eur
ĠBar ra
aud it
Ġeng ager
Ġgal actique
Ġinform atique
Ġmonument ale
Ġsusc itÃ©
Ġajou tÃ©s
Ġterritori al
Ġgerman iques
Ġfrom age
rm acht
Ġalg Ã©b
Ġrecons titution
Ġcrimin els
Ġvirtu elle
Ġpotenti els
Ġvamp ire
ĠSÃ©v ille
Ġassembl Ã©es
ĠWeh rmacht
a tin
e mblÃ©e
o che
w itz
Ġf ief
ĠC au
ĠC lisson
as que
ĠS ite
ĠP on
ĠP ent
ĠB erne
ĠLa f
tres se
av ent
ĠW ater
ate ment
Ġ5 50
ta wa
ĠAr my
Ġdisp osÃ©s
Ġcompos antes
illi on
ĠÃ©quip ages
Ġvoyage ur
Ġiniti ales
Ġarch Ã©t
ĠCom ment
Ġexc Ã¨s
ĠrÃ©serv Ã©s
Ã©si ens
ĠArm strong
ĠÃīc ossais
ĠinÃ©d it
Ġparf um
Ġvass al
ĠFontaine bleau
Off ice
wal ker
Ġpolon aise
A H
Ø §
Ġt orp
om ac
ĠL ans
ĠC F
ĠP erson
ĠD og
ĠT all
ĠT own
ĠR id
ĠG arn
Ã©n ienne
Ġpers an
ang ues
Ġcour antes
Ġconst ater
Ġappar ait
Ġappar ue
Ġver b
ĠAm Ã©ric
Ġtent ant
Ġbou tique
ĠDis c
Ġcrois Ã©e
ĠBra wn
Ġexplo sion
ĠMic ron
ĠindÃ©pend amment
Ġlign Ã©es
ĠrÃ©col tes
Ġrecommand ations
Ġcommuni quÃ©
Personn ages
Ġtaure aux
Ġannon Ã§ant
yll obates
Ġp ension
Ġp anth
Ġle Ã§ons
ĠL ions
Ġch aos
Ġsur c
ab at
ĠJ osh
Ġan neau
ĠH ubert
ĠLa v
he re
erre r
19 14
Ġmin iÃ¨re
ĠU s
Ġpal ette
ĠCel tic
antin o
Ġprovin cial
ĠDi am
ocra te
Ġurb anis
Ġamb assadeur
Ġabandonn Ã©s
ĠCour onne
Ġrestaur ants
histor iographie
Ġexcl u
Ġvo tÃ©
Ġflam me
Ġchronique ur
atti rer
ĠÃ©pr ouve
Ġaper Ã§u
ĠhÃ©roÃ¯ que
ĠÃ©car tÃ©
ĠfÃ©l in
ĠhÃ©li cop
ĠBamb i
O l
O hio
o ven
Ġd oul
Ã© remment
en vergure
ra ines
al b
al ia
ab yl
ĠT ort
ĠCh ancel
Un ited
Ġrec rÃ©
em mes
Ġparc elles
Ġdev ra
Ġhum our
ĠCor ne
Ġoccup ation
ĠdÃ©clar Ã©e
ĠBer lioz
Ġrestaur Ã©e
Ġsex es
Ġindividu els
Ġstand ards
Ġpure tÃ©
ĠNeu f
Ġloy autÃ©
Ġillust rÃ©e
ĠarmÃ©n ien
ĠHerm ann
ĠProdu ctions
ĠrÃ©chauff ement
Ã©puis ement
ĠrÃ©habil itation
ĠSkop je
ĠSuÃ©d ois
3 00
H y
I rak
N az
P er
k u
q rt
es tement
is ons
ĠL Ã©o
ĠC ec
ne uv
ĠP rÃ¨s
ĠB oule
ul Ã©es
ois se
ĠV ich
Ã©ra lement
Ġapp ellent
vent ure
Ġmont Ã©s
ĠdÃ©f endu
Ġhab itÃ©
ĠCon sid
Ġviv res
ĠRich elieu
ĠpÃ©n Ã¨tre
Ġemb au
Ġreb ond
Ġprati quent
Ġsav ait
Ġratta chÃ©
Ġcoh Ã©rence
ĠaÃ® nÃ©e
Ġengage ments
AA F
Ġcoord ination
Ġinsuffis ante
ĠHab sbourg
Orig ine
inclin ent
ĠRow ling
Ġmerveille ux
ĠhÃ©rÃ© d
ĠnÃ©glige able
ĠrÃ©pons es
C yr
b ons
n ord
s oci
Ġp aires
Ã¨ be
ĠL ass
ch ange
ĠS o
Ġpl uri
ĠM am
ĠB ard
ers en
ĠJ orge
ĠN Ã©o
ĠV allÃ©e
Ġtra um
oc al
Ġapp ellation
Ġcol lier
19 61
Ġinter actions
ĠÃī tudes
cl Ã¨s
ade o
aill Ã©
ĠDes cartes
Ġtechn iciens
Ġenviron nements
Ġqualif iant
Ġw estern
Ġrev Ãª
ĠDis co
Ġiniti atives
ae us
ĠdÃ©g age
Ġloin tain
Ġmot o
Ġemb arc
Ġcouv rent
ĠrÃ©sid ant
Ġsouff ert
ĠJus te
Ġphilosoph iques
Ġexploit Ã©e
ĠRos berg
Ġconnaiss ait
Ġrecue illir
ĠLang ue
odi ques
Ġram Ã¨ne
ĠBulg ares
ĠHob bit
Ġdoig t
ĠBron cos
Ġauth entique
ĠCassin i
ĠVirg ile
Ã©pous er
P ol
b en
o ques
v aient
y rie
z on
en vis
Ġc um
Ġb erg
ĠP ink
ĠB ess
ĠB attle
ĠD ah
Ġh onte
ĠJ ui
Ġav ocats
ĠW ard
Ã©r entes
ĠrÃ©g ent
19 75
iss aire
Ġret ran
iti en
ĠRe in
ĠprÃ©c Ã¨de
ĠcÃ´ tiÃ¨res
Ġaur ont
ĠMont ana
Ġlim itÃ©s
ĠbÃ¢ t
Ġtu y
ĠnÃ©g ation
can al
Ġinspi rÃ©es
Ġi mb
ĠÃ©loign Ã©e
Ġparent Ã©
ĠÃ©lector al
Ġgratu itement
ĠlatÃ©ra les
Ġtunis ien
ĠSky walker
ĠLum iÃ¨res
ĠpÃ©dag og
Ġpisc ine
B at
M or
M at
P G
a cide
t oise
ar ma
om s
rÃ© tion
ro log
ĠM ille
ĠP os
ĠP sych
ĠR ATP
Ã§ aient
oc chio
iv ores
Ġacc rue
Ġvis ibilitÃ©
Ġform Ã©es
ĠlÃ©g ales
ĠmÃ© chant
Ġenv ie
Ġord onnÃ©
Ġremplac Ã©es
ham mad
Ġconv iction
ĠsÃ©par ant
Ġ180 2
ĠDel porte
ĠMin nesota
ĠÃ©gyp tiens
Ġbrill ante
ĠÃ©par gn
irond elle
Ġridi cule
Ġfis cal
akht ang
V ille
b urn
t te
z ard
Ġp Ã¨res
Ġen s
est hÃ©tique
Ġpar rain
Ġpar adis
ĠP ois
ine use
Ã©n avant
Ġrep osent
Ġjou Ã©es
Ġmont ent
ver n
Ġcor nes
ĠrÃ©p arer
Ġappar ente
ĠSh am
Ġhum oristique
ĠbÃ¢ tis
Am sterdam
Ġend Ã©mique
ĠWh o
Lors qu
Ġeffic acitÃ©
ĠmÃ©diÃ©v aux
ĠPaci fic
Anne cy
Ġpoly val
Ġgall ois
Ġsanctu aires
ĠCre ek
oig nement
ĠaÃ©ro port
ĠvoÃ» tes
Ġpaque bots
Ġoubli Ã©
Ġparam Ã¨tres
ĠexÃ©c uter
Ġprocure ur
insc riv
ĠChampions hip
Chap elle
neuv iÃ¨me
O E
s qrt
Ġb ook
ac Ã©es
ab re
am Ã©ricains
ot Ã©e
ĠLa usanne
ati o
Ã©v al
Ġ17 58
Ġcontra diction
Ġlar mes
ĠMich igan
Ġorigin elle
Ġreven ant
ĠPro f
ĠUnivers al
Ġgraph iques
Ġlaiss Ã©s
ĠfaÃ§ ons
Ġnarra tive
Ġral lier
ĠRÃ©g ion
Ġdange reuse
effond re
Ġfum Ã©e
Ġminor itÃ©s
Ġinuti le
ghan istan
b ald
g or
il Ãł
Ġf oire
Ġt aur
ĠJ obs
ĠH ut
Ġsa vent
Ġcomp as
Ġpeu x
Ġfin es
19 50
Ġgu eu
Ã¯ tÃ©
Ġimport ations
Ġmis Ã¨re
Ã©le ver
Ġadop tent
Ġferm er
Ġradi os
ĠstratÃ©g ies
Ġsculp tÃ©
ĠmÃª lÃ©e
Ġtempor aires
Ġcontest Ã©e
ĠMoul ay
ĠfÃ©l ins
Ġhel lÃ¨ne
ĠRach el
Ġacous tique
ĠbÃ©b Ã©
ĠCros by
H omer
S av
z es
qu ise
ur p
ĠÃ© du
si bles
ci el
ĠJ ourd
Ġan ges
ill ots
entre prises
ad j
Ġcor pus
Ġsol aires
oth s
oth y
ritann ique
ĠMont agne
ĠnÃ©g ociation
Ġrang Ã©es
ĠrÃ©pond ent
Ġcam ion
Ġexploit s
Ġmentionn Ã©s
Ġprotest ante
ĠGro hl
har mon
Ġnid s
ĠCos ta
Es prit
ĠsuÃ©d oise
ĠBle us
Cal ais
ĠSing ap
Patri moine
' m
0 9
C ube
L M
m oi
ti de
ur us
ĠC ig
ĠF ound
ut en
mb o
Ġ18 23
ĠdÃ©c oll
ĠO ppenheimer
oci de
if t
Ġman uels
int ro
Ġpays an
Ġass ocie
lu ent
ak s
ĠAr ena
Ġref let
ĠentraÃ® nement
ĠSch le
Ġtu ant
esti me
Par allÃ¨lement
Ġpor cel
ĠdÃ©veloppe ments
Ġenvis agÃ©e
Ġtran chÃ©e
Ġenregistre r
Ġradic aux
Ġmuse au
ĠMarl borough
Naz aire
T itre
à ª
Ġd ort
on ia
ur iers
Ġdans es
Ġj oint
ĠrÃ© jou
ĠA lesi
Ġh is
Ġh Ã©rite
ouv ert
ĠE p
ĠF oucauld
ru ct
Ġ18 18
Ġjus tesse
19 60
iss age
Ġoff ensives
are k
Ġvis uelle
Ġnouveau tÃ©
ĠrÃ©s iste
Ġcas erne
Ġcontin ents
aff luence
Ġco qu
ĠMal Ã¨gue
ĠdÃ©crit es
ĠRo ver
Ġrespec tives
ĠCro atie
ĠUnivers itÃ©
Ġancienne ment
Ġmonument al
Ġchau ds
Ġconcent rent
Ad ap
ĠMur d
Ġretourn ent
Ġimagin Ã©
Ġappli quer
ĠBart ali
Ġreprodu cteurs
Ġethn ique
ĠCoch rane
Ġparad oxe
ĠSid ney
ĠdÃ©cal age
Ġsembler ait
Ġculp abilitÃ©
I M
k m
p ot
v ues
ur ale
li ce
Ġj adis
Ġsur g
ĠG aller
ĠprÃ© vention
ĠV ati
ise aux
ĠPar t
19 67
ope dia
Ġdat er
ĠAnd ronic
ĠMarc us
Ġgard ant
Ġbel ges
affir mation
Ġdouce ur
Ġoblige ant
ĠsÃ©d ent
ymb ol
Ġestiv ale
maÃ§onn erie
) \
e arch
h Ã©b
m ai
v oy
w i
ti ss
Ġdes crip
Ġn iÃ¨ce
Ġau tiste
ĠC ous
Ġb Ãªte
Ġb orÃ©
ol ore
ĠS we
ĠP P
di ennes
ab ilisation
Ġson ge
ĠH og
ĠV illa
ĠÃ©c rans
riv Ã©
Ġchar n
Ġsub li
rec te
Ġcommand itaire
Am our
Ġsau ts
Ġnum Ã©riques
Ġsac rÃ©s
ĠrÃ©t ros
Ã©si en
Ã¦ dia
Ġradic ale
Ġrenouv el
ĠcomplÃ©ment aire
Ġpassionn Ã©
Ġempris onnÃ©
ĠFond ation
ĠChac un
ĠPenn sylvan
ĠGue vara
Ġescal iers
ĠnÃ©bule use
Å Ħ
en b
qu Ã¨rent
ĠL td
ĠÃ© phÃ©m
ch ets
si gne
ĠdÃ© tresse
ĠS ark
ĠP tolÃ©m
âĢ ĳ
di rent
ĠR aw
ul ie
ĠG erm
ĠJ ardin
ĠN em
ĠN uit
ill usion
tin i
ru d
ĠFran che
ĠPar fois
Ġren fort
19 65
ver ro
Ġsy l
Ġlong Ã©vitÃ©
,, ,,.
ide ment
Ġviol onc
Ġsus pect
Ġsuper vise
ha fi
Ġamb iance
Ġmas ques
ĠprocÃ©d ures
Ġcircul er
Ġseigne uri
ĠCas tille
ĠJane iro
Ġdiver tissement
Ġdomes tication
Ġprotest ation
Ġdiplom ate
ĠCaliforn ia
Ġamen er
Ġlourde ment
Ara be
Ġmyst Ã¨res
ĠsÃ©di ments
Ġhol landais
ĠDoc teur
ĠBoh Ãªme
P at
P rodu
k inson
Ġ ic
Ġp ompe
or iste
ĠT ac
Ġh ameaux
ul u
ĠF M
ille ure
Ġan nexes
Ġfor cÃ©e
he d
ex erc
En viron
Ġacc umul
ĠdÃ©velopp ant
Ġemp ois
ĠlÃ©g umes
Ġcontra dict
Ġmondi ales
Ġbar oque
Ġord onnance
Ġdispar us
Ġdesc endance
Ġappr ennent
Ġrefus a
rog raphie
Ġcit Ã©e
Ġimpos Ã©e
ĠLib rary
Ã©tend ue
Ġoblig ations
ĠrÃ©t ro
ĠcollÃ¨ ges
Ġprotest ant
Ġinconn ues
ĠrÃ©fug ier
ĠsÃ©n ateurs
Ġsoulign ant
ĠÃ©lab orÃ©
Ġcatast roph
Ġabrit ent
Ġflu ctu
hos tilitÃ©
mber ley
ĠLup in
Ġcort Ã¨ge
D C
L o
g al
p ays
Ġl in
on ance
Ġs omp
Ġc age
Ġc uite
un ds
au er
ĠS ok
Ġre voir
Ġg Ã¢
li b
ĠrÃ© duisant
ĠT aÃ¯
ĠY oh
ĠsÃ© jours
Ġ12 8
Ġref rain
Ġ11 5
inter romp
inst abilitÃ©
ĠSp yro
ĠMc N
ĠGre e
Ġmeurt rier
Ġlum in
Ġgard ent
Ġgui d
ĠToul on
Ġtardi f
Ġrenvers er
ĠExp ress
Eug Ã¨ne
E T
P l
V i
is olement
Ġen tiers
ĠP opp
ĠrÃ© ac
Ġo is
ĠH and
ĠH ach
ier ie
ine ment
Ġti rent
ĠrÃ©g Ã©n
emp orter
19 40
Ġinter pr
vis ions
Ġno ces
Ġk h
ric on
acc oup
Ġim agine
Ġsupp rimÃ©
inter prÃ¨te
Ġfac iles
eld jou
ĠBel ges
Ġven ues
ĠBl ues
ĠamÃ©li orÃ©
Ġbout ons
Ġposi tifs
ĠGra ham
Ġfi able
ĠvÃ©gÃ©t ales
ĠdÃ©di Ã©s
Ġment ale
Ġcreus er
Ġincap ables
Ġrecon ver
ĠgÃ©omÃ©t rique
App le
ĠMu hammad
cli us
ĠRa oul
Ġlill ois
Ġuk rain
N IE
k el
o tiques
p ie
Ġc oton
Ġle ctures
Ġv ingtiÃ¨me
ĠC aire
ĠdÃ© tention
ĠS lovaquie
ag as
Ġg oÃ»
ĠB j
ĠG ou
ĠG or
ut a
ap o
ert y
), "
ĠW y
cu it
Ġimp ar
ĠMar t
Ġor ale
Ġti b
Ġass ises
lig ht
erg y
ĠcÃ´ tiÃ¨re
Ġca chÃ©s
Ġprojet Ã©
Ġeffec tive
Ġsup rÃ©m
ĠLuc y
Ġpor che
Cl oud
Ġbre vet
ĠEm inem
ĠlÃ©gisl atif
Ġsil enc
Ġsav oy
Ġsyndic ats
ĠcamÃ©ra s
Ã©loign er
Ġfores tiÃ¨re
Ġmiss iles
B lanc
G ar
H onneur
n ir
Î ´
ĠL oth
ve re
ĠM ann
Ġ( âĢ¦)
ĠI ci
imp osant
ĠW it
En c
Ġsec rÃ¨tement
Ã©di fication
Ġprop ice
Ġrel ay
ĠTh orn
Ġpass ait
Ġpri mes
Ġreconn ues
ĠbÃ¢ti r
Ġfra ction
Ġquelque fois
ĠdÃ©cor Ã©e
ĠGame Cube
Ġmos quÃ©es
ĠGro ening
ĠPin occhio
Deux iÃ¨me
ĠpÃ©r il
ĠgÃ©omÃ©t riques
ĠinÃ©d its
Ġindic ations
ĠSat y
Ġinhum Ã©
ĠAcade my
Ä ±
Ġf iÃ¨vre
ĠC M
ĠB Ã¢le
ĠR out
ĠE sc
ir onie
tres s
Ġcomm et
ph ants
ĠMar ne
Ġju me
Ġ7 67
Ġesp Ã©rant
Ġas p
ĠreÃ§ us
ĠnÃ©cess itant
Ġbar res
Ġdistin ctions
Ġdirec teurs
ĠdÃ©ta illÃ©e
Ġmanif estement
Ġcircul ent
Ġcre ux
ĠPol y
Ed ward
Ġpel ouse
ĠâĤ¬ ,
Ġaudi ence
Ġplant ations
ĠdÃ©tec ter
oly te
Dis tinctions
ĠbÃ©nÃ©di c
Ġrestri ctions
ĠrÃ©du ites
NIE FF
D ieu
E X
E ast
S au
m ay
v ais
Ġ up
Ġa ustra
ou ac
it ta
Ġt Ã©t
ol in
ĠH yp
Ġal luvi
ĠV akhtang
Ġfor ge
Ġmar ines
ĠdÃ©c rets
ob a
Ġexp uls
Ġaut obiographie
Ġconn ut
Ġmen tions
Ġrel ativitÃ©
ĠAr s
ore ille
ĠPh illi
Ġeng endre
Ġcommand ants
Ġsignif ier
Ġfourn issant
Ġessenti els
Ġdra p
ĠMi ami
Ġstra te
Ġly cÃ©es
Ġsex ualitÃ©
ĠÃ©di fiÃ©
Ġhabitu el
ĠMat ch
Ġrappel Ã©
Ġlun di
Ġton alitÃ©
ĠCat al
champ s
Ġtac tiques
Ġstric te
ĠthÃ©m atiques
Ġcoff ret
Ġfati gue
ĠfÃ©ro ce
Ġsynch ron
ĠVati can
verro Ã¨s
N apolÃ©on
f ille
İ les
Ġle x
ĠC aval
ol ure
ĠS ay
ci f
ĠM uss
ĠB ai
ĠB ang
ac Ã©t
ĠF rÃ©
ĠJ offre
Ġdi d
Ã©g ide
Ġfil iÃ¨re
ĠPar ty
aÃ® tra
Ãī thiopie
iss Ã©
Ġconf Ã©d
Ġfond Ã©es
acc roissement
ĠdÃ©s ordre
Ġtechn ologiques
Ġdeven ues
ĠgÃ© ante
Ġrecher chÃ©
Ġ179 9
Ġuti les
ĠrÃ©uss ie
Ġexist er
ĠMac intosh
fait s
Ġhom onyme
env ol
Olymp ic
Ġcous ine
col m
ĠUr bain
commun ications
acqu Ã©rir
Ġcombus tion
ĠArd ennes
Ġsuperf ici
ĠÃ©coss aise
ĠKenn eth
B en
b ri
t rices
Ġd orÃ©e
il ia
Ġg onf
ĠM Ã¡r
Ġh ouille
ĠR ail
ĠN Ã©m
Ġmar x
ten berg
Ġexp rimÃ©
An atolie
ĠNe g
Ġdisp utÃ©s
ĠPh Ã©n
lit z
Ġpasse relle
ende ur
ĠAb del
ĠTur ner
ĠCour t
Ġfant asy
Ġpor tique
oub li
Ġexploit er
Ġtop ographie
197 3
yclop Ã¦dia
Ġpes ant
ĠarrÃªt Ã©e
lum in
Ġsoud ain
ĠMem orial
ĠHard y
Ġautomatique ment
ĠRic ardo
ĠWell s
Ġgise ment
ĠCorm ery
Ense ignement
D istribution
T ours
v ic
Ġa z
Ġt arde
est at
ĠS Ã©l
di Ã¨res
ran ces
ab olition
iÃ¨ ne
ĠT able
Ġex hum
oin ette
Ġmar ron
ĠO h
ass ure
19 39
Ġcour bes
iss a
ĠdÃ©p la
ĠdÃ©f endue
Ġconc Ã¨de
Ġchar tes
ĠCar aquet
ĠSh o
Ġcontin gent
oris Ã©
sp ahan
ĠWal ker
Ġcouv ertes
ĠBeau mont
Ġassi gn
Ġinfluenc Ã©e
Ġrap iditÃ©
ĠlibÃ©ra lisme
Ġaccueill ie
ĠDal ÃŃ
alph abet
ĠWind ows
ĠSuz uki
ĠÃ©pid Ã©mie
ĠCah iers
Ġsquel ette
oen ix
ĠWords worth
housi aste
ĠMicron Ã©sie
F amille
X VII
b run
Ġs ir
Ġs log
ĠÃ ´
Ġn ain
ĠL un
au teurs
ch arg
Ġpro v
ĠT rophÃ©e
ouv rages
ĠN ES
Ġst Ã¨les
lis er
Ġmil ice
Ġtemp Ãªtes
enti citÃ©
Ġth Ã¨ses
Ġremp art
ĠZ ombie
ili ce
ĠXVII I
ĠPri est
Ġemb lÃ©matiques
Ġdeme ures
Ġphot ographe
ĠdÃ©termin Ã©e
ĠÃ©limin Ã©e
ĠHor ace
ãĥ ¼
Ġsignific ativement
rastru cture
Ġaim Ã©
Ġcommen Ã§ant
Ġcompens ation
Ġattent ats
Ġmagist rats
tÃ©b rÃ©s
Ġjung le
H ipp
R om
R Ã©g
j eux
Ġc ock
Ġn utri
ri rent
ĠL ane
ĠP uy
ĠB T
ĠB eth
ĠR aj
Ġpr Ã´
Ã©m otion
Ġman quant
Ġ6 50
Ġent housiaste
Ġoff ic
Ġesp Ã©rer
Ġca ve
ĠCar ter
lant a
ĠdÃ©t ente
Ġstatut s
Ġmy c
Ġsouhait Ã©
Ġhabitu elle
Ġcra ignant
197 1
Ġtran quille
Ġrecense ments
ĠchÃ¢ tel
ĠEv il
Ġexplic ations
ĠRes earch
ĠVend Ã©ens
ĠDÃ© jÃł
ĠFilm s
ĠRel ig
Ġcryp te
Ġbol chevi
ĠLut her
Ġrad ar
Ġinscriv ant
Ġintrig ues
ĠKad hafi
G P
P rix
p al
Ġs at
ti um
is ent
rÃ© rie
Ġun es
de ira
Ġ2 70
ille m
ob tient
Ġdiff Ã¨rent
Ġma qu
ĠdÃ©p lore
az ote
Ġsal ons
Ġlib y
quel ine
Ġatta chÃ©e
ĠPort al
Ġ179 6
Ġautom ne
appar ente
ĠBos nie
Ġpron oncer
Ġdoub ler
Ġfi bre
Ġradic alement
Ġenvah it
Ġfacil ite
Ġsurmont Ã©e
ĠrÃ©pÃ©ti tions
Ġrece vant
Ġdiale cte
ĠFr Ã¨res
Ġincert aine
ĠdÃ©missionn er
ĠSingap our
ri ennes
Ġv ogue
que til
Ġb id
Ġpl aint
ĠD arius
ĠT rÃ©sor
che f
Ġapp orts
all a
co h
Ġimp orte
Ġrep Ã©rer
Ġtrav Ã©es
19 78
Ġper ce
ĠâĢ ľ
Ġmod alitÃ©s
Ġindi ens
ĠrÃ©f ra
ĠNe il
ĠlÃ©g ale
Ġgra du
Au tre
ĠMe h
ĠnÃ©g atifs
Ġcorrespond ances
ĠdÃ©sign ation
Ġatti rent
Ġboule verse
Ġjuri diction
Ġdynam isme
ban ais
Ġclo che
ĠBerg en
ĠrÃ©current s
Ġave z
aig le
Ġfres que
ĠtÃ©n Ã¨bres
Ġmitra ille
N Ã©anmoins
n ose
Ġde mie
er x
ĠS oft
Ġg erm
Ġpl astique
Ġch ameau
ĠA qu
Ġin vention
ac cession
ĠH ockey
Ġra ils
ĠCh antilly
ph al
rois s
Ġob tenant
Ġeff ray
Ġno tions
oul Ãªme
Ġass ur
Ġoff ensif
Ġvis ent
ĠGu ardi
Ġhab ite
Ġgouver ner
ach Ã¨vement
Ġcou cher
inc er
idÃ© al
Ġpein tes
Ã« rie
Ġtrouv a
Ġtrouv Ã©es
ĠVal en
Ġclass er
af t
Ġdirig ent
Ġenvoy Ã©es
Ġsout enant
ĠPer ry
Ġ180 3
Ġferm iers
ĠGi org
Ġpron onciation
197 7
ĠcÃ©lÃ©b ritÃ©
Prem ier
Ġquotidienne ment
Ġorthod oxes
Ġrepar tir
A uc
I T
d os
e ctions
k owski
Ġc ib
Ġc unÃ©
ou z
ent z
ar on
or raine
ro irs
ĠL en
ĠC ome
ĠA cad
Ġin visible
di de
ĠprÃ© vision
ous es
ter i
ĠV esp
Ġcont enus
Ġ3 20
eur re
sid es
Ġjou ets
ĠdÃ©b ouche
Ġvers er
Ġ7 47
20 19
Ġappar aissant
ĠrÃ©f Ã¨re
Ġpublic itÃ©s
Ġlongue ment
ĠBel ge
Ġmarch ande
Is lam
ĠFor est
Ġconcep tions
ĠdÃ©cid Ã©e
Ġexplo ite
Ġexplo rer
Qu atre
ĠÃ©tablis sant
Ġchau des
Ġcaus Ã©s
Ġsacri fices
Ġalg orith
Ġrepouss Ã©
Ġpaci fique
Ach ille
ĠâĨ Ĵ
B i
J eux
L it
U kraine
X II
d Ã©m
Ġc auche
ent endre
Ġg Ã©rÃ©e
ĠB Ã©n
ĠR ot
tu de
Ġdi able
ĠN a
ir vana
Ġmar keting
ĠK ath
rit Ã©s
ĠO d
Ġnombre use
iss on
Ġdire ctions
Ġrom ane
inter national
Ã©ch antill
ĠBr und
ĠVal entin
Ġsuper p
oÃ¯ se
Qu ant
ĠrÃ©di gÃ©e
Ġcaus Ã©e
197 2
197 6
ĠMy st
Ġbyzantin es
ĠAnn ales
Ġferrovi aires
ĠGard en
Op Ã©ra
Uru guay
ĠArg entine
loc u
Ġnomin ations
Ġatmosph Ã©rique
ĠVich y
erx Ã¨s
A fric
v ins
w are
Ġf ol
Ġt es
ĠS ith
de z
Ġcon duits
ĠrÃ© amÃ©n
di le
ĠF loyd
ĠH off
im al
Ġtra itant
ĠCh and
ĠK ate
ĠdÃ©c om
Ġst rophe
Ã©g Ã©m
ĠÃ©c os
Ġfil et
Ġor nÃ©e
Ġam ical
lÃ¨ tes
Ġpos tÃ©rieure
Ġma Ã¯s
cl erc
Ġ13 5
Ġpri Ã¨res
In see
ĠprÃ©sid Ã©
Al pes
Ġparticip ations
tr ant
dic at
ĠPort rait
Ġfac ture
ĠÃ¢ mes
ĠEd win
Ġnav ette
ĠDel ta
ĠAt lan
Ġcollec tivitÃ©s
Ġdiscip les
Ġintrodu its
ĠprÃ©t endre
Ġferme ment
ĠÃ©vid ente
ĠsÃ©p ulture
Ġisol Ã©es
ĠQue ens
appr endre
Ġesc ale
Ġoccasionn ellement
ĠPlut on
amph ithÃ©Ã¢tre
Ġdor Ã©navant
ĠGuad al
Ġrhin ocÃ©ros
ĠsuprÃ©m atie
A ustrali
c rÃ©
d ite
k la
Ġp ins
Ġp iles
Ġs pe
qu ins
in th
Ġla urÃ©
Ġt ons
ĠL ure
li quent
ĠD et
ort on
ĠF il
Ġte ct
ĠW ith
if er
ĠDe wey
vel op
An gel
Ġoff randes
Ġconsid Ã©ration
Ġconsid Ã©rations
exp ulsion
acc al
adi ers
Ġviv aient
Ġtu me
Ã¼ k
Ġprofond s
ĠBru ges
Ġouvert ures
Ġcroise ur
Ġrecru te
ĠmÃ©tÃ©or ologique
Ġethn iques
ĠAh med
Ren Ã©
ĠcoÃ¯n cid
ĠHeid feld
Ġpersuad Ã©
Ġgigantes que
H ong
I A
P ublic
g ang
y des
en land
el ins
ĠP lant
ĠB ond
ĠH ors
ĠprÃ© side
ill ie
Ġfor cer
ĠAn ubis
Ġmin ce
ĠTh race
ĠZ am
ĠPh oenix
mar k
ĠRobert o
Ġconstr uisent
ĠcollÃ¨ gue
Ġquoti diens
ĠÃ©tablis sent
195 9
Ph il
ĠapprÃ©ci Ã©e
Ġapport Ã©e
ĠHaw ks
Ġexplic ite
ĠcÃ¢ ble
ĠÃ©val uer
Ġacad Ã©mique
ĠPanth Ã¨re
Ġgram maire
Ġot ages
ĠDauph inÃ©
Ġsurc roÃ®t
U P
c lÃ©
i ait
j ons
r ui
Ġd ys
Ã© loge
ro ie
ĠL our
as tres
ĠD a
Ġdi ab
ĠV es
Ġac tiv
Ġimp ortÃ©s
Ãī poque
onc Ã©e
enti els
ĠDe ad
Ġcan ne
ĠDes sin
Ġcal otte
arg ue
Ġgen oux
Ġcontinu a
rom agn
ini ve
Ġdivis Ã©s
occup ant
Ġconver tir
heure usement
Ġaccomp lir
Ġimpli quÃ©s
Ġdevi enne
Ġromp re
Ġchauff age
ĠhÃ´ tes
ĠHend rix
ĠHind enburg
ĠRost om
ĠmÃ©lanc olie
ĠnÃ©er landaise
ĠrepÃª chage
ĠGaller y
ĠMÃ¡r quez
c ombe
y ton
en cl
Ġp ack
Ġp ics
it ure
Ġ1 000
ĠC ologne
ie fs
ĠS oul
ĠB ing
ĠT aur
ul at
ort ant
ĠE u
Ġfor esti
Ġcl arin
ib al
ins pecteur
Ġder by
19 64
Ġma illots
man e
app uyer
ĠU SD
Ġtou chent
Ġrem ake
Ġz oo
amb ition
cul a
ust y
Ġsub ventions
Ġgar rot
ĠgÃ© ologie
ĠCan adi
crit s
eth oven
ĠCor inthe
ĠmatÃ©ri elle
}} {
Ġserv iteurs
ett y
Ġautor itaire
ĠGen ev
ĠprÃ©d ateur
Ġidentif iÃ©es
Ġap ost
ĠrÃ©di ger
ĠmÃ©diÃ©v ales
ĠperÃ§ ue
Ġdistrict s
ĠBau le
bour geois
ĠdÃ©coup age
arriv er
ĠrelÃ©gu Ã©
Ġrefroid issement
empar ent
ĠMatthe w
ĠlÃ©op ard
P uis
U ICN
f l
i tinÃ©raire
Ġl us
in os
il ity
Ã¨ bes
ag g
de e
de mp
ĠB ass
ue z
op tique
Ã©n at
ĠLes car
Ġpers pectives
ĠÃ©c oute
ubli ques
Ġces sent
Ġperm ission
Ġmin uit
cl Ã©e
Ġbas al
Ġchar gÃ©es
Ġsub di
Ġrend ait
Ġreg ain
Ġlit urg
Ġint ui
ber tin
ĠpÃ©n it
Ġcompar Ã©e
ĠSm ash
ancien nes
Ġmontagne ux
Ġaliment ation
Ã©ran te
Ġhom ogÃ¨ne
ĠAlbert o
comm unal
ĠempÃª chant
Ġarchitectur aux
Ġsauve gard
Ġbris er
Ġmeu bles
Ġbot anique
Loc alisation
ĠLangue doc
ĠSark ozy
ĠPtolÃ©m Ã©e
1 50
H ug
P as
c il
o ge
ar mistice
un ir
Ġn Ã´
ĠC yr
ĠS pect
Ġre tenir
ag eux
ĠR is
ĠR af
ois y
ue ur
ĠN adeo
ĠH at
ier ra
Ġra len
st aff
um i
Ã©t ale
ĠK or
ĠÂ», ,
Ġrec ette
19 69
Ġob tint
Ġad join
Ġpubli a
Ġass ise
ĠQ in
ĠpÃ©ri ple
ĠUn der
ĠrÃ©s umÃ©
Ġsupp lant
Ġfourn is
Ġfourn ie
Ġcherche ur
ĠÃ©cl air
ĠsÃ©jour ne
Ġprovis ions
ĠmÃª le
ĠChap lin
ĠperÃ§ oit
Ġimplant Ã©e
Ġsouter raine
ĠHaw k
ĠStudi o
ĠpÃ¨ler ins
Ġcolomb ien
Ġaveug le
Ġfact o
ĠmÃ©fi ance
B eau
b ah
c elle
t an
es claves
Ġl Ã©z
Ġc ue
er gement
in Ã©es
ĠL us
ĠM ick
Ġch ag
Ġin cul
ĠT yr
ĠG ond
ĠE le
ĠCh an
ate au
ĠMar ge
Ġter ti
Ġpos ent
ĠY ellow
Ã©l ites
ĠCar aÃ¯
Ġdomin er
ĠHe ad
ĠÃ©d itÃ©e
Ġrang Ã©e
Ġfix es
Ġant agon
ĠintÃ©g rale
ĠVer dun
Ġratta chement
Ġflam mes
Ġlabor atoires
ĠcomplÃ©ment aires
Ġprimi tif
ĠRud olf
Ġanaly tique
ĠdÃ©ploie ment
Ġner veux
Oli vier
ĠÃ©mer ge
ĠrÃ©quis itionn
ĠDat abase
Ġvictorie use
A f
C rÃ©ation
G C
d as
Ġc alif
in sectes
rÃ© nÃ©
ĠM ission
ĠP IB
di versitÃ©
ĠJ our
Ġsa urait
Ġra il
Ã® mes
oit ou
amp a
Ġres titution
lÃ¨ mes
Ġme e
ĠTh ree
aque duc
Ġpres by
ĠdÃ©s espoir
assi mil
In st
Ġsupp orts
aff ec
ĠMont g
inter valle
Ġenv oient
Ġpatri mon
ĠprÃ©par atifs
ĠamÃ©li orÃ©e
ĠMag h
ker que
ĠcontrÃ´ lÃ©
Ġlatin s
Ġfonctionn aire
Ġdo tÃ©s
ĠIr landais
Ġrecru tÃ©
Ne w
iro v
Ġprovisoire ment
ĠÃ©quival ente
Ġgratu it
Ġcrain dre
Ġrassembl ent
Ġindic ation
Angl ais
ĠmacÃ©d onienne
Ġcade au
ĠmÃ¢ch oire
Ã¼l ler
ĠGree ce
H L
I b
T outes
W h
v ra
w od
an ion
ĠL ub
Ġb rique
Ġg ags
Ġin tim
ĠD oy
Ġr onge
ĠF ren
ĠN FL
Ġal tÃ©
ĠV ern
Ġcl aires
Ġam Ã©rindi
Ġcol oration
Ġju gÃ©es
ta Ã¯
olog ical
ĠcrÃ© ateurs
lo sion
Ġ17 70
Ġutilis ateurs
Ġform elle
acc roÃ®tre
ĠbÃ¢ ton
ĠBe ethoven
Ġtrop icale
uel a
Ġ23 0
Ġbord Ã©e
Ġmarque ur
Ġvain cus
ĠEd ge
ĠÃ©tudi Ã©s
Ġsembl ant
Ġprol ogue
Ġnav ales
ĠdÃ©cor ations
Ġespagn oles
Ġmagn ifique
Ġtransp ortÃ©
Ġacqu it
ĠSeu il
ĠlÃ©gisl ative
ĠsÃ©p ultures
Ġrecue ille
Ġarchitectur ale
Ġexerc Ã©
Em ma
ĠVar zi
ĠRand y
f ax
i able
k os
Ã© anti
Ġp acte
Ġs oy
Ġs atur
er f
Ġm ue
Ġt rÃ©
Ġt ailles
rÃ© v
ĠS und
Ġre tenus
Ġcom itÃ©s
Ġcon ditionn
Ġch orÃ©g
ĠA venue
ĠD uck
ĠD ennis
ff ord
ĠG Ã¶
Ġra ll
ĠIl lus
Ã§ age
tin ct
ĠK ans
Ġsou mises
vis me
Ġcor rection
Ġrencont rÃ©es
Ġcro ss
Ġcro ient
tr ans
Ġroman esque
ĠdÃ©fin is
Ġsau te
Ġcontinu Ã©
Ġaccord er
oure usement
Ġcollec tifs
Con ception
ĠPan ama
ĠLis bonne
Ġbourg ui
Ġapport ant
Ġmorte lle
ĠMos ley
ĠCri mÃ©e
Ġsurv it
ĠYe ar
Ġobsc ur
ĠarmÃ©n ienne
ĠSib Ã©rie
Ġpit tor
ĠcollÃ©g iale
wod ros
S T
d ore
i ji
u en
u al
ĠÃ© min
Ġb esti
Ġpl as
Ġse gment
ĠD av
Ġh Ã©rit
ĠJ ur
Ã©n ien
ord onnance
ĠdÃ©p lor
gn Ã¨s
ĠY van
ĠThe atre
Ġ10 4
amb assade
In s
Ġlib Ã¨re
ick el
lace ments
uli en
ĠMal tin
Ġatta chÃ©s
ĠÃ©quip ier
Ġlongue urs
ĠSa Ã´ne
Ġ28 0
ĠÃ©lect ro
Ġaugment ant
Ġabandonn ent
ano Ã¯
Ġmagn if
Ġdiss Ã©min
Ġfavoris Ã©
deux iÃ¨me
Ag de
Ġpan ier
ĠPÃ© rez
Gu inÃ©e
Ġsubst anti
Ġcouvert ures
ĠdÃ©lic ate
Ġappuy Ã©
ĠstÃ©rÃ© otype
Ġrede vient
ĠBlo od
Ġflui de
Ġboute ille
Ġbibli ques
opport unitÃ©
ĠMonn aie
A le
P lage
p or
Ġ ...
en tis
ou an
il yn
al ty
Ġpar king
Ġv ides
Ġb uis
ĠM Ã©t
ĠP ack
Ġch ang
ĠB ug
Ġpas sions
Ġal b
entre pr
ĠV HS
Ġar range
ĠK art
rit h
Ġapp els
Ġti rÃ©e
Ġpos tÃ©rieures
19 68
Ġinter cep
ĠAn quetil
Ġth Ã©rapeu
Ġ10 2
Ġprob lÃ©matique
oph y
Ġgouvernement ale
tÃ©ra ture
Ã©f ique
Ġcorrespond re
ĠdÃ©n ommÃ©e
Ġpatri otes
Ġalli ances
oud ite
uisse aux
Ġpap es
Ġnu ances
195 4
Ad ministration
ĠAut o
ĠCam eron
ĠLac an
Ġtit ul
ju dice
Anne au
ĠÃ©pous er
ĠcinÃ©mat ographiques
Ġplong Ã©e
Cons Ã©quences
Ġcoute au
Ġtouchdown s
Can ada
Ġmut ations
encad rement
ĠgrÃ©g or
W illiam
g as
p aud
y an
Ġ om
Ġj ac
ĠrÃ© alistes
ĠA M
ĠJ arn
im i
Ġne g
ĠV ars
ĠW oll
ob server
Ġcl ans
Ġ17 80
ath lÃ¨te
Ġrem erc
Ġca chÃ©e
Ġfon ciÃ¨re
Ġcomb ler
Ġ11 1
Ġ11 2
ast ers
ĠMe yer
ensi ble
Ġdispar ue
ĠSc andin
ĠÃ©l ue
Ġphysi cien
Ġdirig Ã©es
Ġ180 9
ĠBl air
Ġchron ologique
we alth
Ġsouv ient
Ġve ine
Ġglob e
Ġinconn us
ĠJo an
Ġexclus if
Å¡ ice
Ġcompl Ã©tÃ©e
Ġpay Ã©s
Ġmol Ã©cu
ĠrÃ©conc iliation
Ġcade aux
ĠPÃ©r ou
ĠmystÃ©rie use
ĠsÃ©cher esse
ĠCauc ase
d ad
n itÃ©
Ġp anique
Ġt umul
el ds
au p
ĠM ovie
ĠP ir
ĠT ong
ĠT amb
Ã§ us
Ġac adienne
Ġann uels
sid ents
ats on
Ã©c ar
ĠgÃ©n ocide
emp run
19 38
Ġinter viennent
Ġmin uti
mble don
Ġmis sionnaire
Ġref lÃ¨
anti qu
ĠSte ad
Ġbou tiques
ĠCor fou
Ġpens ant
Ġappr entissage
Ġir onique
Ġenvoy a
Ġcer f
ĠintÃ©g rante
ĠbÃ©nÃ©fici ant
ĠprivilÃ©g ie
Ġmodern itÃ©
Ġimpressionn Ã©
ĠFant asia
ĠBonn ard
Ġer ron
DÃ©but s
Ġenj eu
ĠfÃ©c ond
G A
Ï ī
Ġd urÃ©
Ġp Ã¢te
Ġs tress
et ter
om atique
Ġun is
ĠL er
Ġv and
ol aire
ain issement
ĠF igh
ĠF ougÃ¨res
ĠH um
ĠH auts
Ġfor ger
Ġmar Ã©e
Ġfin ancÃ©
Ġrep ousse
Ġpos Ã©es
Ġinter communal
ole y
uc ky
oph ane
In t
Ġgra d
Ġess aye
Ġatt ente
ros oft
Ġrou tiÃ¨re
Ġrev Ãªt
ĠPri ce
ĠMon di
ĠDu ke
Ġtri ang
Ġven geance
Ġali ments
yg iÃ¨ne
omer y
Ġaffront ent
Ġcrit Ã¨re
ĠmÃ©ridion al
ĠmaÃ®tris er
ĠMong olie
Ġnant ais
ĠÃĩ a
H awaÃ¯
M ars
f amille
Î ³
Ġd ens
Ã© ennes
Ġa id
Ġa isÃ©e
ar ticles
ur anium
ont Ã©
ĠS ik
Ġcon j
ĠP aix
ĠP ercy
Ġsur venue
am el
ĠT S
ĠR ien
ĠG aud
ĠF ight
vi r
Ã©r one
Ġann ulÃ©e
Ġcol s
19 33
asse mbl
ĠÃ©v itant
Ġprincip autÃ©s
ĠnÃ© f
erg ue
ell ations
oth Ã©rapie
Ġdev anÃ§ant
lic a
ĠÃ©quip Ã©es
eng agent
ĠSp or
Ġsouver aine
ĠcomplÃ¨ tent
ĠCap ital
car Ã©
oÃ¯ de
Ġoblig Ã©s
Ġryth mique
ĠrÃ©fug ie
ĠPortug ais
ĠdÃ©lic at
Ġmena Ã§ant
Ġsubstitu tion
Ġtol Ã©rance
Rel ations
ĠPhilipp ines
Ġbrouill ard
PÃ©ri ode
unds en
D el
al and
ri ra
Ġv ant
ol ine
Ġg entleman
de a
ĠD id
ĠD art
ĠT a
ĠR ue
ĠG ot
ot ti
ĠN inive
ĠH ub
Ġra vage
ĠV ador
Ġrec ond
19 37
ari es
ich i
chÃ© ance
Ã©l odrome
Ġas tÃ©
Ġim min
ach i
Ġcoup Ã©e
ĠpiÃ¨ ge
ĠdÃ©si reux
Ġcal deira
Ġpal lier
Ġenc er
Ġtransf Ã©rÃ©e
Ġfant astiques
Ġsuivi es
Ġmyth ologiques
ĠBas ket
Ġabou tir
Ġaltern ance
ĠJuli us
Ġajout ent
Ġrenv oyer
Ġfortif iÃ©e
agu ar
Ġfall u
Ġcondu ites
ĠKra us
Su per
ĠBaud ouin
ĠBabyl one
Ġvicom te
cast le
adolesc ence
Ġparag raphe
ĠRout ledge
S Ã©bastien
i ade
m ort
re am
at tra
ĠS ex
ĠM Ã©z
ĠM ouvement
ĠB un
ĠD anny
ĠF iction
ĠV ig
Ġcomp agne
id an
Ġat tÃ©n
ĠdÃ©p osÃ©e
Ġsc rup
ĠDe an
anc Ã©s
ĠIn noc
lac k
Ġpri ori
In donÃ©sie
ori o
ĠMal colm
ĠnÃ©cess itent
ĠPe mberley
aw ks
Ġkil ogrammes
Ġincl use
ĠMil ieu
ĠGen Ã¨se
Ġhabitu de
ĠHel en
ĠmÃª lant
Ġbrut alement
ĠinÃ©d ite
Ġromp t
Ġmens uel
Ġrassembl Ã©s
ĠSn ow
Ġaffaib li
ĠFel ipe
Ġdisper sion
B ois
F ilm
J ou
M i
a ques
h art
n orm
r ough
u aires
w o
Ï Ĩ
Ġ ut
an on
Ġpar se
ch ers
Ġre quÃªte
Ġpl ur
Ġj etÃ©
ĠrÃ© agir
Ġch en
ac ture
ĠprÃ© rog
ĠW is
Ġti ck
Ġsui cid
Ġ10 7
Ã©l istes
Ġref ait
Ġinst ances
ĠDes tin
Ġcro quis
Ġcapit ales
Ġorigin ellement
Ch ris
ĠHar per
Ġvra is
ĠAd olphe
ĠGal ax
ĠKe ith
lÃ©g ations
ĠÃ©limin ation
Ġmanifest ants
Ġautoris ation
ĠempÃª chÃ©
Ġrappro chent
aret te
Ġrach Ã¨te
ĠWat ers
Ġtap isser
Ġautonom es
Ġescad ron
kk ad
Ã©limin er
ĠLion el
Ġempre inte
ĠSmol lett
C E
c isme
f orts
u Ã©es
Ġs ien
Ġc itation
ri os
ĠL SD
Ġv int
ch at
ĠC ard
ol ari
ĠM oÃ¯se
ĠP ros
ĠP ira
Ġpour ront
ers ti
Ġin accessi
Ġh Ã©r
end ront
ĠJ as
Ġdi oxyde
ĠN an
uis ses
Ġal co
av ons
Ġter rib
Ġob us
Ġexp ressi
Ġmin istÃ©ri
Ġab ri
Ġab st
mble dore
Ġvis ionn
Ġbas tion
ĠRe agan
uss ie
inst ant
ĠdÃ©fin ies
ĠRoy aumes
ĠÃ©m ises
ĠEd mond
Ġconv ois
Ġmassi vement
Ġpor c
Ġaliment Ã©
Ġexpli quÃ©
Ġadvers es
uz i
orph ologie
Ġaltern atif
ĠexpÃ©riment Ã©
Ġmu et
Ġsoix antaine
Ġtiss er
Ġmotiv ation
Er nest
ĠthÃ©Ã¢ tres
ĠmÃ©tropol itain
Ġaqu atiques
Ġintellig ent
ĠPÃ©t rone
Ġfaud ra
origin alitÃ©
Ġlett rÃ©s
ĠprÃ©voy ait
H aute
I d
O ct
u or
v or
Ã¨ phe
Ġf ours
Ġt ube
ro pe
Ġv ase
si ves
ĠS aw
ĠS aints
Ġg ib
Ġpour vu
ĠB aie
ĠB leu
am mon
pp ort
Ġr uisseaux
end ent
Ġex ercices
ĠV ick
Ġ3 30
Ġdis su
ĠPar adis
Ġres cap
19 46
ĠprÃ©sent ait
exp lication
Ġenf erm
Ġsout enus
ĠPer p
ĠÃ©criv ent
Ġcaus ant
Ġprolong er
Ġimagin ation
Ġdel la
ĠrÃ©tab li
ĠRÃ© forme
roÃ¯ de
Ġprimi tive
ĠguÃ©r illa
ĠMoh amed
hol m
Ġrus tique
ĠVla dimir
Ġaccess oires
Ġestamp es
ĠBM W
C our
z ona
Ġ ira
Ġc lef
er ing
et ton
or ic
ĠM ang
ĠA tt
ĠA sperger
ĠI ron
ĠF lavi
ĠH yd
ĠH Ã¶
ss Ã©e
Ġrep Ã¨re
th a
Ġph y
tÃ©ri m
yn ost
pl oit
Ġcad avre
Ġint ensitÃ©
Ã©le vait
Ġsymb oliques
ĠdÃ©n oncer
Ġconserv atrice
Ġlog iquement
Ġferm Ã©s
Ġrais onnement
Ġly rique
Ġsex uelles
Ġconver g
ĠdÃ©v ast
omÃ©t rie
ĠWi mbledon
ĠdÃ©l ais
ĠconsÃ©cu tif
ĠMel bourne
ĠVol taire
ĠWhite head
Ġrenouv eler
jus qu
Ġforc Ã©s
ĠZe us
ĠAnti lles
Ġcylind res
ĠrÃ©cip ro
ĠTrin itÃ©
ĠÃ©ru dits
ĠdÃ©niv elÃ©
ĠMatth ieu
f olk
i Pod
r Ã¶
É Ľ
Ġl iti
on cle
Ġc yn
est one
Ġre mix
Ġin h
am ie
ic iles
ĠV oie
ĠCh ester
Ġfin aliste
Ã©m igration
Ġor nement
Ġret able
Ġdire ctes
oule urs
aiss ait
,, ,,."
Ġrou tiers
ck er
Ġw as
ĠSur vey
ĠRobert s
ĠBel fort
Ġlog iciel
Ġtransf Ã©rÃ©s
Ġprati quant
ĠBay ern
Ġfour neau
ĠMy ers
Ġlu tins
ĠantÃ©ri eur
Ġfondament aux
ĠDun kerque
Ġspons ors
ĠRev olution
Ġprud ence
Ġmiti gÃ©
Ġgaul ois
Ġcah ier
Ġsoigne usement
ĠBian chi
Ġattrib uts
ocal yp
L ife
O scar
R ay
S Ã©lection
b olds
i ante
n d
Ġ à¦
Ã© ans
in nov
Ġm Ã©r
al f
ĠL loyd
Ġb ad
Ġpl Ã©b
Ġpl aign
ĠM Ã©n
ĠE C
vi enne
ĠN ath
Ġtr istes
Ġex er
ĠV id
Ġcont este
Ġjou ait
Ġpe aux
emp rise
ĠÃª tes
Ġad jac
Ġjeu di
Ġmod Ã©rÃ©
Ġ10 3
ĠIn v
Ã¨g rent
Ġangl ophones
ĠMal heureusement
Ġpropos a
ĠPe ople
ĠBe ach
Ã©le my
orth ographe
Ġpeup lÃ©
ĠdÃ©partement ales
Ġi tinÃ©raire
Ġly onnaise
Ġbal nÃ©
Ġcollab ore
ĠKar th
ĠAut rich
Ġtran chÃ©es
ĠBo ard
Ġconsul at
Ġesc lave
Ã©vÃ© nements
Ġcontrovers Ã©e
ĠPlut arque
alg Ã¨bre
ĠdÃ©cern Ã©
Ġhydrauli que
ĠpÃ¢tur ages
ĠWald en
ĠcrÃª tes
ĠGuadal canal
bolds ymbol
L ong
P N
c f
g et
g ary
i tif
z ar
ou Ã«t
it ait
Ġdu rement
Ġb rac
Ġcon nec
ĠM ore
ĠrÃ© uni
ac ie
ĠG ogh
ĠJ enson
ĠN ig
Ġpr estations
ĠÃ©t angs
ĠW as
ĠW inst
Ġentre tenir
par lers
tif ication
Ġmil itant
min istre
Ġsou fre
Ġab stra
ĠU SS
ĠâĢ ¦
ĠsÃ© duit
az e
Ġ15 5
Ġ10 8
ĠdÃ©m olition
Ġplan Ã©taire
Ġgra des
Ġense ignements
Ġsais it
Ġimpos Ã©es
ĠAlexand rie
ĠPrin cip
Ġappro fon
ĠfrÃ©quent Ã©
ĠMic rosoft
Ġrecouv erts
St yle
ĠEur opa
Ġ75 7
Ġchale ure
Ġbris Ã©
Ġache min
Ġcoord onnÃ©es
Ġvictor ienne
Ġparcour u
ĠHi rosh
ĠAnim al
Ġchass Ã©s
ĠdÃ©dic ace
Ġdoctor at
antis Ã©mitisme
ĠWeek ly
ĠCommon wealth
Hong rie
A ragon
E u
G S
M A
M orphologie
c amp
c ock
h en
an um
ĠÃ İles
Ġt ach
ĠL ock
ĠC Åĵur
ĠS Ã©g
ĠS Ã¡n
am is
ĠF ais
ĠLe vant
ut to
ĠV iv
Ġat lantique
Ġro ll
Ġmil les
Ġmin us
ĠDe velop
gn ation
ĠAr ist
Ġsign Ã©s
Ġliv rent
Ġdisp osÃ©es
tic us
Ġfl ott
Al ph
Ġeur o
ĠFin landais
At ta
Ġchante urs
ĠHer vÃ©
Ġregroup er
ĠPan zer
Ġanc est
Ġafric ains
ĠArch ives
ĠFland res
Ġfolk lor
As pects
ĠFle ury
Tour isme
Ġlimit rophes
Ġinterdis ant
Ġagran di
Ġrabb in
ĠGuardi an
m ier
Ġ ÏĦ
is ol
il iÃ¨re
ol or
ĠS ouv
ĠS uc
Ġg ains
ĠM org
ĠP ris
ĠB att
ĠJ ust
ĠN ou
che urs
Ã©d it
ann el
lÃ¨ rent
Ġpos tÃ©rieurs
19 49
Ġass auts
Ġoff erte
Ġcommun aux
Ġsitu er
ĠcÃ´ ne
Ã©lÃ© g
Ġcontra c
Ġinst ants
ĠCl audi
Ġdix iÃ¨mes
ĠsÃ©lection ner
ĠVal ais
ĠDu mbledore
ĠrÃ©pond ant
Ġbal ay
Ġfus il
uff le
US D
195 5
ĠcÃ©lÃ©b ritÃ©s
osc ane
ĠTer rit
Ag riculture
ĠprivilÃ©g iÃ©e
ĠTex tes
Ġrent able
Ġinterromp ue
Inf luence
ĠSpring field
ĠFay ard
ĠÃīg lises
Ġlond onien
Ġbio diversitÃ©
Ġcuri ositÃ©
ĠMitch ell
Rich ard
C atherine
T C
b s
i rique
k l
l ette
Ä ĥ
Ġc od
in ant
Ġm Ã©rit
Ġpar ap
Ġb eurre
Ġpour parlers
ĠB ridge
Ġin duit
ct rices
ĠdÃ©c ad
ati c
ĠO m
ĠX i
ĠPar me
Ġti mide
Ġpos ture
emp ortent
ĠdiffÃ©r enci
Ġappar tenu
lin aire
Ġparticip a
Ġcapit ulation
Ġroman tiques
Ġcentra ux
Ġiniti Ã©
Ġprofessionn alisme
ĠÃ©tudi Ã©e
Ġappr ouve
oll um
Ġsouff rir
Ġcam ions
Ġbout on
Ġvoi ci
Ġamp h
Ġintrodu ites
Ġpropor tionnelle
Ġsusc iter
Ġdescend ent
Ġabb aye
Prem iers
Ġexplor ateurs
Ġprononc Ã©e
adh Ã©sion
ĠGram my
Ġcond ens
ĠSti vell
Ġfier tÃ©
affich age
ĠWick ham
ĠLiter ature
ĠtÃ©les cope
ĠHamb ourg
ĠCaraÃ¯ bes
ĠreflÃ¨ tent
A BC
D ire
E t
y x
ou la
Ġf ailles
Ġpar venus
ĠP ec
am med
ĠT ER
ĠV amp
ĠV ingt
Ġfin issant
ĠdÃ©c l
Ġcol oss
19 18
Ãī pire
Ġsec rÃ¨tes
onc Ã©s
iss aient
aur aient
Ġroy alistes
Ġag ence
tic itÃ©
ule ux
Ġbar be
Ġvari ant
Ġbois sons
ĠTra de
Ġfou ille
Ġnour ri
Ġinflu ent
Ġbal ance
ĠÃ©di fiÃ©e
ĠrÃ©cup Ã©rÃ©
ĠPrin cesse
ycl opedia
Ġspati aux
Ġexcep tÃ©
ĠThÃ© ophile
195 8
ĠFrank enstein
ĠcÃ©lÃ©b rations
Ġcens Ã©e
ĠRec ord
ĠMel un
Ġtroupe au
Ġral li
Ġregroupe ment
orp tion
Ġcrimin el
ĠPatri ots
Ġfame use
ĠhÃ©b erge
Ġsond ages
Ali ce
Ġjal ousie
Ġnett oyage
Ġaf ro
ĠvÃª tu
Ġconnex ion
ĠFore ver
ĠLiz zie
ĠSaty ricon
ĠPriest ley
ĠMagh reb
irov sky
H ab
M ort
X I
Ġ ÏĢ
Ġd opage
Ġl os
Ġs terling
ent h
Ã¨ dre
ĠC ase
ĠD iction
Ġpro jette
Ġh ivers
Ġh Ã¢te
ĠI ss
onn ante
ĠprÃ© lude
ert z
ĠV ita
ob y
Ġcar g
Ġro bot
ĠgÃ©n Ã¨re
th ers
Ġsou cieux
cl in
Ġph al
oul ous
ĠPh yllobates
Ġdisc rÃ¨te
Ã« rm
Ġcrois iÃ¨re
Ġlanc Ã©s
Ġappr enti
Ġval ent
Ġsouff rant
Ġanti qu
ĠRou Ã«rie
Ġfront on
Ġmagn Ã©tisme
ĠCal gary
Ġorgan ique
Ġvir gin
Ġprolong Ã©
Ġaction n
Ġmig rations
ĠGro enland
Ġaccueill ant
Ġnage oires
ĠOff ice
ĠÃ©pous Ã©
ĠexpÃ©di tionnaire
Ġadmi ration
ĠKen ya
ĠDig ital
ĠPoin carÃ©
Ġincont ourn
Ġbouddh isme
Ġenqu Ãªtes
Ġfootballe ur
. âĢĳ
A k
G al
b in
h all
Ġd ote
Ġp rag
Ġs acc
Ġc ale
Ġa il
ĠÃ Ĩ
il ent
el ine
Ġpar alys
ol ais
Ġj oign
ĠrÃ© organis
ac er
ĠG av
ĠE ls
ĠLe a
ĠH umb
ĠCh es
Ġtemp ore
19 66
Ġpol Ã©miques
ĠDe m
Ġper tin
Ġent ourent
Ġ8 50
Ġins ol
Ġtou chÃ©s
Ġinst ance
ĠGe mini
Ġfl Ã»te
ĠtÃ©lÃ© communications
orn ith
Ġfac tions
Ġdat Ã©es
rom es
ĠpÃ©n urie
Ġcompar ant
ĠfÃ©min isme
Ġvoul aient
Ġach Ã©mÃ©n
Ġnorm and
omin ations
ĠthÃ©or iques
Ġaffec te
Ġdel ta
ĠJuli an
ĠsÃ» rement
ĠHel ens
ĠrÃ©vÃ©l ant
Ġtram ways
Ġsouter raines
Ġsab re
Ġconstat Ã©
Ġrense ignement
Ġressenti r
ĠDire ct
Ġgenti l
sig ma
Diff usion
Prin cip
ĠKans as
H on
b ro
n g
Ã© lan
Ġl andes
Ġf oires
Ġen vergure
ri al
Ġpar don
ch in
ĠC ler
ag ie
Ġpl Ã¢tre
Ġch Ã¨re
ac a
ac tes
ĠR ip
ĠR idge
vi ol
ist rict
ĠH itch
ĠÃ©t off
ĠV ier
Ġnom ment
ĠCh en
oy a
ĠK ill
ate l
he ures
Ġcar bon
ĠFran co
amp e
Ġrep lier
asse ments
Ġass aut
ĠTh al
ia que
Ġ16 00
Ã©lÃ© vation
Ġconstitu ante
tel les
Ġag glomÃ©ration
Ġdev oirs
Ġbar que
Ġcr oupe
ĠPl ayer
Ġvend ent
Ġress ource
Ġpoursui vant
Ġminim ale
ĠMiss ouri
Ġtoit ure
ĠmÃ©dic ales
Inter national
fran Ã§ais
ĠByz ance
hom a
ĠOl ga
ĠEli ot
ĠPoin te
Ġdin osaures
ĠÃ©th ique
ĠVent oux
ĠPix ar
OT AN
Ġsilhou ette
Tou jours
heb domadaire
accal aurÃ©
; "
F ace
L aye
M r
b ul
ou iller
it oy
ĠS G
ĠS anti
Ġg a
Ġg ab
de x
Ġpro duis
ic ke
ĠJ i
Ġal chim
ĠEn se
Ġam iral
19 30
19 62
ĠAn akin
Ġmus cles
Ġfam ilier
Ġoc Ã©ans
Ã©li en
adi er
ros cop
Ġbois son
ĠJac queline
Ġlum iÃ¨res
ĠrÃ©serv Ã©es
ĠPrin ces
Ġexplo re
Ġappro fond
ĠMa una
ĠBob et
Ġcroise urs
ĠInter active
ĠLi ke
Ġbyzantin s
ĠempÃª chent
Ġconsul s
ĠGuy ane
Ġsignal er
Ã©th ique
Ġfar ine
ĠcafÃ© ine
Ġallus ions
Ġperc ussions
Ġdors ale
ĠprÃ©ten tions
ĠTomm y
ĠFound ation
ĠNÃ©m irovsky
F aune
M aj
P R
W an
d et
k t
it as
or itÃ©s
ri f
ro ll
Ġpar odi
as is
ve illes
Ġb aisser
ĠS Ã©le
ĠM yth
ĠB ris
ĠB az
ĠA lle
ĠF lo
ĠdÃ©c oule
Ġimp er
Ġimp Ã´t
ass y
ib lement
ĠdÃ©p osÃ©s
Ġgrand issante
Ġtrans vers
Ġsoci alisme
Ġinf ructu
Ġdom esti
ĠGu am
ĠsÃ©rie use
Ġindi ce
ĠCar not
ĠSh ad
uc ci
ĠgÃ©nÃ©ral istes
Ġag glom
ote chn
ĠCan yon
agit ation
Ġbar ons
import ation
ĠmÃ©th od
Ġdiffus eur
Ġreli Ã©es
appel er
ĠJuli a
appr Ãªte
ĠsÃ©v Ã¨res
ĠPlan Ã¨te
ĠdÃ©fend ent
Gu erre
Ġnar ratrice
Ġá ¼
ĠNatur a
escad re
Ġaud ac
ĠvÅĵ ux
ĠpÃ©ti tion
prem iÃ¨re
exerc er
kla homa
L orraine
s age
u ie
Ġ ond
Ġa pr
Ġun ie
ro gÃ©
Ġv as
ol ini
Ġcom ble
ĠP ing
ĠB oud
ab el
ĠN irvana
ĠH ok
Ġsa oudite
og Ã¨nes
Ġnom mÃ©es
ĠK el
ĠK aiser
Ġcons piration
Ġpers es
Ġ17 5
Ġremp lit
ĠTh aÃ¯
Ġinf ec
Ġemp orte
Ġconstitu ait
Ġgroupe ment
ĠSe an
att endre
ĠBar be
Ġtent a
ĠnÃ©g ocie
ĠÃ©d ite
Ġaliment er
Ġconver ti
Ġ178 7
ĠidÃ© ologique
Ġabou tissent
Ġang lic
elli p
Ġsouter rains
Ġaffron tement
ĠMath ilde
Ġcultiv Ã©
ĠKent ucky
Ġennemi es
ĠTib et
Ġpsychi atri
ĠdÃ©pour vu
ĠDisco very
L iv
s Ã©lection
u ve
y ch
Ġp air
ou ti
il as
Ġt omes
us a
Ġun i
ĠC H
Ġb ison
ĠdÃ© st
ĠS z
ĠS amp
ĠP ablo
Ġsur s
ut ur
ĠprÃ© lÃ¨ve
Ġal s
ĠCh in
ĠW atson
ĠdÃ©c oul
Ġdis si
Ġann oncer
Ġro t
Ġent oure
ĠrÃ©p Ã¨te
su le
ines s
ĠrÃ©c lament
Ġfer vent
mÃ© tique
arc raft
oris Ã©s
inter roge
ĠMal aisie
ĠAm y
Ġbi ographique
ĠIs ma
ĠDu f
ĠdÃ©ta illÃ©
Ġillus trer
ĠprÃ©par atoires
ĠCro ft
Ġenvis ager
ĠCamb odge
Ġregroup Ã©es
Ġajou tÃ©es
ĠstÃ© ril
math cal
Ġtunn els
Ġrepouss Ã©e
ĠKo Å¡ice
Ġran Ã§on
Ã©man cipation
ĠcoÃ¯n cide
accompagn er
Ġgise ments
Ġdiverg ences
ĠÃ©chou ent
ĠBh utto
obsc uritÃ©
Ġexam ens
Ġraisonn able
Ġlumin ositÃ©
g oun
h at
s elon
y ss
Ġ use
Ġl and
Ġs obre
Ġla mb
Ġf as
Ġn it
Ġch ari
ers tein
os ter
ĠT es
Ġan alogue
Ã©ri f
ĠH ern
Ġce int
ĠK rist
app orter
ĠÃ©p ique
Ġport able
Ġfond ant
Ġ10 6
Ġver res
Ġroman tisme
eff igie
ĠÃ©vo quÃ©s
atta ques
ĠEd wards
Ġarriv Ã©es
Ġlog er
Ġemb arque
ĠsÃ©par Ã©ment
Is Ã¨re
emb ar
Ġtre mblement
Ġlun ettes
Ġpav illons
Ġgren ouilles
Ġconfond ues
Ġaffich es
ĠpÃ¨ler in
Ġsymbol iquement
Ġdiagnos ti
Ġhal te
ĠcomÃ©di ens
prÃ©sent ation
ench aÃ®
Ġcorrig er
Ġsugges tion
ĠvÃ©tÃ©rin aire
admi ration
U F
g on
v ine
es pi
Ġs ables
ent ourage
le igh
el f
ro e
ve illÃ©
ĠS ierra
Ġg ang
ci ante
ĠP oul
ĠB rÃ©
Ġin no
Ġin Ã©gal
ĠD od
ĠI gn
ist ait
og en
ert o
ann ulation
ĠMar ilyn
Ġrec ourir
19 20
olog istes
ud o
Ġ15 00
ĠprÃ©c ieuses
Ġappar tenait
ĠrÃ©s out
Ġsecond s
lin dre
Ġfais ceau
ĠfrÃ© gate
rin a
ĠSi di
Ġdessin ateurs
ĠbÃ©n Ã©v
ĠcinÃ©m atiques
Ġcontinu ellement
intÃ© ressent
sc ars
ĠCont es
ĠidÃ© ale
Ġmenac ent
ĠBi Ã©lor
Ġfaibles ses
fer ence
ĠAnn ie
Ġgren ouille
Ġbrut ale
Ġargu ant
Ġfau con
ĠSou tine
Ġaristocra tique
Ġcerc ueil
Ġaffect Ã©e
Ġcombus tible
Ġmalheure ux
Ġjoin dre
ĠTroy es
Ġterrass es
D Ã©r
J o
Q ui
S ud
d ell
Ã© me
ent oure
Ġn us
Ġun iques
ĠS uisses
Ġch aux
Ġan arch
og ramme
Ġcl avi
19 63
19 44
ĠcrÃ© a
Ġsc ores
int endant
ĠY osh
ak o
yp t
ret our
ach im
Ġinst able
pec tivement
eff orce
Ġw ag
Ġrespec te
Ġmi el
ĠTerre ur
Ġfant as
Ġdiscip le
Ġexplo itÃ©es
ĠPhil os
Ã©lect rique
ĠCer f
Ġbu tin
AN C
ĠprÃª tÃ©
Ġcrist al
Ġbale ines
ĠÃ©gyptien nes
ĠPomp Ã©e
ĠpersÃ©cu tions
ĠPalÃ© ologue
Ã ²
Ġc aves
Ġest h
si en
ĠB uil
Ġin achev
ran cy
ab ella
ĠG asc
og a
ĠO il
Ġti rÃ©es
ĠrÃ©g ulation
Ġtemp o
Ġpe ines
Ġcontre forts
ĠU SA
ĠAl gÃ©rie
omb at
Ġins urrection
20 20
ĠIn g
ov ine
Ġid enti
Ġ11 7
Ġcou pole
ĠMe k
erc ors
Ġeffectu ant
Ġstru ctur
Ġarch ers
Ġgal op
Ġban quet
ctu ellement
Ġcre use
oÃ¯ que
ĠrÃ©t rog
ĠVi etnam
ĠdÃ©mocra tes
ĠGau tier
Ġarc ade
Ġabond amment
Ġfabri quÃ©
Ġsymbol isme
ĠguÃ©r ison
ĠRub ens
Ġtorn ades
ĠNorthumb rie
B el
T emp
k is
Å Ĵ
en bourg
Ġf autes
el i
ĠdÃ© tent
ĠS ymp
ĠP age
ĠB rid
Ġpro di
ac tif
ĠG est
ĠF ron
ĠF ili
ĠLe f
ĠN as
ad os
Ġcar av
ĠMar quet
ĠrÃ©g ner
emp his
Ã©v ÃªchÃ©
Ġconf iant
cl Ã©s
tionn Ã©
ĠIn dia
Ġcan ards
Ġloc ation
ionn at
Ġsub m
enc re
uni ors
ĠSur tout
Ġsuper be
Ġconv ul
ardin er
Ġplate forme
Ġreti rÃ©e
Ġjuge ant
Ġlaiss Ã©es
ĠNor folk
Ġmatin Ã©e
inn oc
ĠSeu les
bi han
ache vÃ©
Pro jet
ĠTar antino
Ġmorte l
ĠLy dia
ouill Ã¨res
ĠnorvÃ©g ienne
Ġhivern ale
industri alisation
ĠJos Ã¨phe
rah im
ĠEar ly
Ġconfes sion
ĠRams Ã¨s
ĠPiet ro
ĠathlÃ© tique
ĠDiction ary
C amp
Ã© pr
on iennes
Ġs ophis
in ier
ar ise
Ġla ss
un ier
il iens
Ã¨ vent
Ġqu o
us cade
est on
ĠS cul
Ġque relles
ĠA R
ĠD ro
am ite
ĠT ype
ĠR D
ĠG org
Ġ3 000
Ġmon astique
ins ki
19 29
ĠIn itialement
ĠZ i
Ã©li ens
ĠspÃ©ci alitÃ©
In ternet
Ġgra isse
tic k
Ġfl ash
inter venir
Ġqualif iÃ©es
ĠHar lem
ĠSte el
enf er
Ġconcl uent
Ġinv ain
Ġreti rÃ©s
Ġfront s
Ġtransf Ã©rer
Ġmentionn Ã©es
ĠPhil on
Ġottom anes
ĠÃ©lÃ©ment aire
Ġcomport ait
ĠexpÃ©riment Ã©s
Ġdesser vant
ĠÃ©loign Ã©s
Ġgren ier
Ġefficace ment
Ġsurpr end
Ġrent rent
Ġcart ouche
Ġchronique urs
ĠBag rat
Ġabrit ant
ĠVirgin ia
Ġrestre inte
Ġprestig ieuse
ĠCou bertin
Ġloup s
Ġtub es
ĠcÃ¢ bles
Ġpoign Ã©e
Ġpionn iers
ĠmÃ©lo dies
Ġextraterrest res
ĠMig uel
ĠCand Ã©
ĠdÃ©coll age
J ames
N A
m estre
en ham
Ġs eni
ou Ã©e
ar u
or ance
Ġqu elles
al in
ĠC ort
ĠS v
ĠB ox
ĠD ak
ĠT urb
Ġh ad
ĠR ai
ĠR Ã©v
ĠR Ã¶
end ants
Ġson des
ĠJ apan
ĠH ir
ĠH ang
ĠCh alon
Ġcons omme
Ġcar it
Ġ4 80
uti l
Ġdou Ã©
Ġangl ophone
Ġlim itant
rodu it
Ġcou lis
ĠmÃ©di um
10 1
Ã©ch anges
Ġriv alitÃ©s
Ã¡ lez
ĠVal ence
ĠrÃ©un ies
Ġis landais
Ġclass ant
Ġoccup Ã©es
ĠpÃ©n alitÃ©s
Ġven aient
ĠAd rian
Ġval u
ĠMin istÃ¨re
no tice
Ġmine ures
195 3
Ġsculp tÃ©s
Ġfamili aux
Ġfonde ment
fer me
ĠÃ©chapp Ã©
ĠHill s
RÃ© partition
Ġfre in
ĠSit ta
ĠDum as
Ġabsent e
instru ments
ĠMoh ammed
Ġproph Ã¨te
ĠCav our
Ġmira cle
Ġboy cott
stad t
ĠAutrich iens
ĠWinst on
B ilan
C inÃ©ma
T ourn
p Ã©ri
r ÃŃ
s Åĵur
Ġp Ã¨s
Ġc ure
ment e
ĠM ende
Ġin qu
ĠR Ã©m
ĠG ardiner
ĠF ritz
ĠF emme
ĠprÃ© di
op Ã¢tre
ill ac
ĠV ard
ĠV illiers
um Ã©e
Ġar ron
Ġcons onnes
Ġgran ite
erre ment
Ġes sence
Ġam Ã¨nent
Ãī lisabeth
ĠÃī glise
Ġper cep
Ġvi etnam
Ġ10 9
rig ation
tel ing
ĠSh y
Ġdev ons
Ġcat al
ĠÃ©l ite
Ou en
Ġconfir mation
ĠfÃ©d Ã©rÃ©s
Ġtransform Ã©s
ĠJack y
Ġconsomm ateurs
Ġfus ils
ĠVan nes
Ġorb ites
Ġspiritu alitÃ©
ĠÃ©tro its
Ġble ues
Ġaccueill is
ĠDun dee
Ġgymn ase
ĠCast ro
sax ons
Ġarg ile
tinÃ©ra ires
ĠprotÃ© geant
Ġpist olet
Ġluc ra
Ġcharp ente
ĠGolf e
Ġpian iste
ĠHach ette
C oll
Ġd ose
Ġp ana
Ġin temp
am as
ot ation
onn iÃ¨res
erm ann
ong es
ici els
Ġrec ti
aÃ® nÃ©
19 42
Ġinter ruption
Ġsec te
Ġacc ru
Ġmin ier
omb rables
Ġass istance
Ġoff ices
Ġni dification
ĠRe ed
Ġvol um
Ġdro ites
Ġindi rectement
ĠprÃ©sid ente
Ġco quille
ht ar
Ġremar ques
ĠEd die
Ġend Ã©miques
oux willer
ĠMor bihan
ĠFranÃ§ais e
Ġconcep teurs
Ġfrag ilis
ĠCal ais
Ġspati ales
Ġ178 3
Ġdiss ous
ĠÃ©lÃ©ment aires
Ġrac isme
ado que
Ġdram atiques
ache ver
Ġchinois es
ĠPic asso
Ġber ges
ĠdÃ©vo tion
Ġracc ordement
Ġindig Ã¨ne
ĠVoy ager
ĠrÃ©clam er
Ġrenvers Ã©
Ġomn ip
ĠAy mon
[...]
