{"<|endoftext|>":0,"!":1,"\"":2,"#":3,"$":4,"%":5,"&":6,"'":7,"(":8,")":9,"*":10,"+":11,",":12,"-":13,".":14,"/":15,"0":16,"1":17,"2":18,"3":19,"4":20,"5":21,"6":22,"7":23,"8":24,"9":25,":":26,";":27,"<":28,"=":29,">":30,"?":31,"@":32,"A":33,"B":34,"C":35,"D":36,"E":37,"F":38,"G":39,"H":40,"I":41,"J":42,"K":43,"L":44,"M":45,"N":46,"O":47,"P":48,"Q":49,"R":50,"S":51,"T":52,"U":53,"V":54,"W":55,"X":56,"Y":57,"Z":58,"[":59,"\\":60,"]":61,"^":62,"_":63,"`":64,"a":65,"b":66,"c":67,"d":68,"e":69,"f":70,"g":71,"h":72,"i":73,"j":74,"k":75,"l":76,"m":77,"n":78,"o":79,"p":80,"q":81,"r":82,"s":83,"t":84,"u":85,"v":86,"w":87,"x":88,"y":89,"z":90,"{":91,"|":92,"}":93,"~":94,"¡":95,"¢":96,"£":97,"¤":98,"¥":99,"¦":100,"§":101,"¨":102,"©":103,"ª":104,"«":105,"¬":106,"®":107,"¯":108,"°":109,"±":110,"²":111,"³":112,"´":113,"µ":114,"¶":115,"·":116,"¸":117,"¹":118,"º":119,"»":120,"¼":121,"½":122,"¾":123,"¿":124,"À":125,"Á":126,"Â":127,"Ã":128,"Ä":129,"Å":130,"Æ":131,"Ç":132,"È":133,"É":134,"Ê":135,"Ë":136,"Ì":137,"Í":138,"Î":139,"Ï":140,"Ð":141,"Ñ":142,"Ò":143,"Ó":144,"Ô":145,"Õ":146,"Ö":147,"×":148,"Ø":149,"Ù":150,"Ú":151,"Û":152,"Ü":153,"Ý":154,"Þ":155,"ß":156,"à":157,"á":158,"â":159,"ã":160,"ä":161,"å":162,"æ":163,"ç":164,"è":165,"é":166,"ê":167,"ë":168,"ì":169,"í":170,"î":171,"ï":172,"ð":173,"ñ":174,"ò":175,"ó":176,"ô":177,"õ":178,"ö":179,"÷":180,"ø":181,"ù":182,"ú":183,"û":184,"ü":185,"ý":186,"þ":187,"ÿ":188,"Ā":189,"ā":190,"Ă":191,"ă":192,"Ą":193,"ą":194,"Ć":195,"ć":196,"Ĉ":197,"ĉ":198,"Ċ":199,"ċ":200,"Č":201,"č":202,"Ď":203,"ď":204,"Đ":205,"đ":206,"Ē":207,"ē":208,"Ĕ":209,"ĕ":210,"Ė":211,"ė":212,"Ę":213,"ę":214,"Ě":215,"ě":216,"Ĝ":217,"ĝ":218,"Ğ":219,"ğ":220,"Ġ":221,"ġ":222,"Ģ":223,"ģ":224,"Ĥ":225,"ĥ":226,"Ħ":227,"ħ":228,"Ĩ":229,"ĩ":230,"Ī":231,"ī":232,"Ĭ":233,"ĭ":234,"Į":235,"į":236,"İ":237,"ı":238,"Ĳ":239,"ĳ":240,"Ĵ":241,"ĵ":242,"Ķ":243,"ķ":244,"ĸ":245,"Ĺ":246,"ĺ":247,"Ļ":248,"ļ":249,"Ľ":250,"ľ":251,"Ŀ":252,"ŀ":253,"Ł":254,"ł":255,"Ń":256,"Ġd":257,"es":258,"Ã©":259,"Ġl":260,"en":261,"on":262,"Ġp":263,"Ġde":264,"an":265,"Ġs":266,"Ġc":267,"re":268,"er":269,"ti":270,"Ġa":271,"ou":272,"is":273,"qu":274,"in":275,"ent":276,"ar":277,"et":278,"Ġla":279,"le":280,"it":281,"Ġm":282,"or":283,"ur":284,"un":285,"Ġet":286,"Ġle":287,"te":288,"ĠÃ":289,"il":290,"Ã¨":291,"Ġf":292,"Ġt":293,"Ġqu":294,"om":295,"tion":296,"ĠÃł":297,"Ġen":298,"ra":299,"čĊ":300,"Ġdes":301,"us":302,"Ġn":303,"al":304,"rÃ©":305,"el":306,"Ġun":307,"Ġles":308,"ant":309,"our":310,"ment":311,"ri":312,"est":313,"ro":314,"ĠL":315,"Ġdu":316,"Ġpar":317,"Ġv":318,"ont":319,"ce":320,"Ġ1":321,"ans":322,"ĠÃ©":323,"au":324,"me":325,"Ġau":326,"ch":327,"ĠC":328,"as":329,"ie":330,"res":331,"ĠÂ":332,"que":333,"at":334,"ve":335,"ne":336,"Ġest":337,"Ġb":338,"si":339,"ĠdÃ©":340,".\"":341,"ol":342,"ation":343,"ĠS":344,"Ġre":345,"ag":346,"Ġg":347,"se":348,"Ã©e":349,"Ġcom":350,"de":351,"ci":352,"ai":353,"mp":354,"Ġdans":355,"ais":356,"Ġpl":357,"Ġcon":358,"ĠM":359,"ĠP":360,"Ġse":361,"Ġ(":362,"Ġune":363,"li":364,"Ġj":365,"Ġpour":366,"tÃ©":367,"oi":368,"ĠrÃ©":369,"Ġch":370,"Ġque":371,"ĠB":372,"ĠA":373,"âĢ":374,"Ġqui":375,"ers":376,"Ġin":377,"ait":378,"ain":379,"Ġ2":380,"Ġsur":381,"eu":382,"di":383,"ĠD":384,"ran":385,"Ġpro":386,"les":387,"Ġ19":388,"os":389,"ĠÂ»":390,"ac":391,"Ġplus":392,"Ã©s":393,"ale":394,"ab":395,"âĢĻ":396,"iÃ¨":397,"am":398,"ff":399,"elle":400,"pp":401,"Ġr":402,"ĠT":403,"Ġe":404,"Ġh":405,"urs":406,"ĠR":407,"Ġo":408,"tre":409,"end":410,"ĠI":411,"ĠÂ«":412,"ul":413,"Ãª":414,"00":415,"ouv":416,"ĠG":417,"Ġson":418,"Ã¨s":419,"ort":420,"ĠE":421,"ĠF":422,"ui":423,"ig":424,"ux":425,"Ġil":426,"tu":427,"ic":428,"ot":429,"vec":430,"Ġ:":431,"itÃ©":432,"Ġsont":433,"ques":434,"ĠJ":435,"vi":436,"pe":437,"Ġavec":438,"onn":439,"Ã©es":440,"ille":441,"ons":442,"ge":443,"Ġan":444,"ois":445,"ĠLe":446,"ue":447,"Ġdi":448,"ist":449,"Ġpas":450,"ut":451,"ite":452,"pr":453,"aire":454,"age":455,"une":456,"ĠN":457,"ors":458,"Ġsu":459,"mb":460,"Ã©ri":461,"ĠH":462,"Ã¨re":463,"Ġsa":464,"ĠprÃ©":465,"and":466,"ique":467,"Ġpr":468,"ous":469,"Ġtr":470,"aux":471,"ier":472,"Ġav":473,"ces":474,"ter":475,"ction":476,"ir":477,"Ġce":478,"ette":479,"Ġra":480,"Ġex":481,"uis":482,"ĠLa":483,"ien":484,"op":485,"ine":486,"Ġou":487,"im":488,"st":489,"Ã©n":490,"ill":491,"che":492,"Ġparti":493,"ap":494,"ĠIl":495,"og":496,"rem":497,"Ġne":498,"Ġal":499,"Ġcomme":500,"entre":501,"ord":502,"Ġdeux":503,"ĠÃ©t":504,"ert":505,"ĠV":506,"ence":507,"Ġtra":508,"ard":509,"Ġcomp":510,"Ġaux":511,"Ã§":512,"oc":513,"oin":514,"Ã´":515,"Ġmais":516,"ion":517,"ad":518,"Ġprem":519,"ub":520,"tres":521,"Ġses":522,"ise":523,"Ġnom":524,"Ã©ra":525,"out":526,"),":527,"ond":528,"ĠLes":529,"ure":530,"um":531,"ay":532,"tique":533,"Ġcont":534,"ens":535,"ance":536,"av":537,"bre":538,"imp":539,"Ġcomm":540,"mes":541,"Ġar":542,"Ã©t":543,"sent":544,"Ġte":545,"oir":546,"iv":547,"ĠCh":548,"tin":549,"ace":550,"Ġac":551,"Ġpeu":552,"ĠW":553,"du":554,"Ã©r":555,"ph":556,"oy":557,"Ġfor":558,"ĠEn":559,"alement":560,"ations":561,"Ã®":562,"ct":563,"prÃ¨s":564,"ru":565,"oit":566,"id":567,"ours":568,"Ġmar":569,"ĠK":570,"Ã¢":571,"iÃ¨re":572,"Ãªme":573,"erm":574,"Ġ18":575,"Ġfin":576,"oire":577,"Ġentre":578,"Ġfait":579,"ĠdÃ©c":580,"Ġ200":581,"Ġ20":582,"rit":583,"Ġ;":584,"ate":585,"lÃ©":586,"Ġapp":587,"ĠÃ©tÃ©":588,"rois":589,"ing":590,"ments":591,"Ġcette":592,"ob":593,"sion":594,"ants":595,"Ġcons":596,"ati":597,"tes":598,"Ġ3":599,"Ġdis":600,"od":601,"par":602,"Ġlui":603,"he":604,"ouve":605,"Le":606,"cu":607,"eux":608,"Ġleur":609,"Ġcl":610,"Ġche":611,"Ġann":612,"cle":613,"able":614,"Ġgran":615,"Ġst":616,"Ã©d":617,"nes":618,"eur":619,"Ãł":620,"ĠO":621,"aires":622,"Ġont":623,"ex":624,"all":625,"Ġmon":626,"insi":627,"ts":628,"lis":629,"lle":630,"ĠÃ©g":631,"Ã©m":632,"erre":633,"ĠmÃªme":634,"co":635,"Ã©g":636,"Ġ201":637,"alis":638,"Ġes":639,"Ġcar":640,"tif":641,"Ġpers":642,"elles":643,"cip":644,"Ġimp":645,"ron":646,"ĠFran":647,"tions":648,"ante":649,"po":650,"iques":651,"Ġat":652,"ussi":653,"aine":654,"ass":655,"ture":656,"amp":657,"ĠsiÃ¨":658,"Un":659,"ib":660,"ang":661,"Ġro":662,"ins":663,"Ġalors":664,"endant":665,"ĠÂ»,":666,"aient":667,"ong":668,"ss":669,"Ġpuis":670,"Ġlors":671,"oup":672,"La":673,"ĠÃ©c":674,"oci":675,"Ġdont":676,"Ġfil":677,"qui":678,"Ġtrois":679,"ĠX":680,"teur":681,"ann":682,"ĠMar":683,"Ġnombre":684,"Ġtout":685,"ĠÃ©galement":686,"Ġainsi":687,"Ġaussi":688,"ĠPar":689,"Ġsous":690,"ubli":691,"sid":692,"ouver":693,"Ġder":694,"Ġor":695,"ec":696,"Ġelle":697,"Ġam":698,"Ġti":699,"ven":700,"oute":701,"onne":702,"ĠrÃ©g":703,"Ã¹":704,"Ġ4":705,"ats":706,"Ġser":707,"if":708,"Ġdiff":709,"Ġrep":710,"Ġres":711,"orm":712,"mbre":713,"ici":714,"Ġmil":715,"riv":716,"ourn":717,"Ġcol":718,"Ã©c":719,"fin":720,"ales":721,"use":722,"Ġrec":723,"Ġgr":724,"ten":725,"Ġtrav":726,"Ġfran":727,"Ġpersonn":728,"Ġju":729,"Ġprin":730,"Ġces":731,"lÃ¨":732,"ains":733,"Ġter":734,"ĠaprÃ¨s":735,"Ġpos":736,"ĠoÃ¹":737,"titu":738,"aÃ®":739,"Ġ5":740,"orte":741,"enne":742,"Ġjou":743,"ages":744,"iÃ¨me":745,"Ġtemp":746,"ĠsiÃ¨cle":747,").":748,"Ġ199":749,"ta":750,"lement":751,"ire":752,"Ġjus":753,"ĠgÃ©n":754,"ĠdÃ©b":755,"En":756,"Ġpe":757,"emp":758,"lan":759,"ĠÃª":760,"ĠÂ».":761,"Ġren":762,"Ġy":763,"ser":764,"Åĵ":765,"19":766,",.":767,"Ġperm":768,"itu":769,"Ġdern":770,"Ġinter":771,"ĠÃªtre":772,"Ġob":773,"ĠAn":774,"uti":775,"iste":776,"jet":777,"puis":778,"tra":779,"ieurs":780,"olog":781,"Ãī":782,"Ġexp":783,"ieu":784,"Ġcontre":785,"Ġsec":786,"onc":787,"Ġacc":788,"itÃ©s":789,"th":790,"tis":791,"Ġme":792,"ĠÃī":793,"Ġpol":794,"min":795,"ĠpremiÃ¨re":796,"ures":797,"II":798,"des":799,"Ġpremier":800,"Ġcour":801,"agne":802,"iss":803,"la":804,"Ġeff":805,"ign":806,"vent":807,"tiques":808,"igne":809,"Ġsp":810,"ĠtrÃ¨s":811,"Les":812,"ode":813,"gl":814,"Ã©di":815,"Ġsi":816,"its":817,"rent":818,"agn":819,"Ã©v":820,"Ġprop":821,"Ã§ais":822,"oupe":823,"Ġconf":824,"ĠcrÃ©":825,"Ġad":826,"ari":827,"Ġpeut":828,"mi":829,"ays":830,"Ġman":831,"Ġsou":832,"aut":833,"ves":834,"Ġmont":835,"Ġpubli":836,"ver":837,"Ġma":838,"ĠannÃ©es":839,"Ġcel":840,"Ġmin":841,"enn":842,"ĠCe":843,"000":844,"omm":845,"cl":846,"opp":847,"Ġmat":848,"ĠdÃ©p":849,"Ġbien":850,"Ġaut":851,"oins":852,"ues":853,"enti":854,"ents":855,"Ġavant":856,"Ġret":857,"ĠgÃ©nÃ©ra":858,"vis":859,"Ã©rÃ©":860,"Ã»":861,"ĠFrance":862,"Ġsy":863,"Ġsc":864,"ĠDe":865,"ente":866,"Ġno":867,"Ġnot":868,"asse":869,"Ġsans":870,"iers":871,"Ã©p":872,"Ġplusieurs":873,"Ġph":874,"Ġpartie":875,"ich":876,"Ġvers":877,"eau":878,"ble":879,"man":880,"Ġconst":881,"ĠprÃ©sent":882,"Ġ6":883,"Ġper":884,"ris":885,"app":886,"Ġpermet":887,"Ġ000":888,"rer":889,"aint":890,"ies":891,"Ã¨me":892,"Ġville":893,"raph":894,"lo":895,"Ġcert":896,"Ġab":897,"Ã©tÃ©":898,"vant":899,"Ġgu":900,"ĠÃ©tait":901,"cher":902,"Ġfois":903,"Ġconn":904,"ĠfranÃ§ais":905,"vel":906,"Ġpo":907,"aille":908,"Ġ%":909,"aison":910,"Ġans":911,"int":912,"Ġth":913,"ches":914,"Ãªte":915,"Ġdepuis":916,"Ġlong":917,"Ġplace":918,"core":919,"amment":920,"Ġ9":921,"Ġpoin":922,"omp":923,"Ġjusqu":924,"Ġk":925,"ĠÃ©v":926,"em":927,"elon":928,"Ġpays":929,"Ġsui":930,"Ġgrand":931,"ense":932,"Ã¨ne":933,"ges":934,"Ġ17":935,"Ã¨res":936,"utilis":937,"Ġremp":938,"Ġfilm":939,"Ġcap":940,"ĠU":941,"quipe":942,"ĠdÃ©f":943,"cep":944,"Ġcor":945,"oul":946,"Ġje":947,"gn":948,"vient":949,"Ġ198":950,"aines":951,"ĠJe":952,"ĠâĢ":953,"ĠAl":954,"Ġquat":955,"ton":956,"Ġprincip":957,"Ġtrans":958,"alitÃ©":959,"An":960,"Ġleurs":961,"Ġnouv":962,"endre":963,"ern":964,"omb":965,"els":966,"Ġass":967,"Ġnouve":968,"Ġtemps":969,"Ġ7":970,"Ġjeu":971,"Ġconc":972,"rÃ©sent":973,"ail":974,"Ġmus":975,"Ġcin":976,"anis":977,"nement":978,"olu":979,"Ġquel":980,"Ġent":981,"ieux":982,"rib":983,"cien":984,"mble":985,"ites":986,"ĠdÃ©but":987,"Ġ8":988,"Ġautres":989,"ud":990,"Ġchev":991,"Ġvi":992,"opul":993,"Ġoff":994,"Ġcommun":995,"Â«":996,"Ġpoli":997,"Ġprodu":998,"tement":999,"Ġfut":1000,",.\"":1001,"ade":1002,"Ġon":1003,"ĠreprÃ©sent":1004,"Ã¯":1005,"tÃ©s":1006,"ĠrÃ©p":1007,"Ġprof":1008,"Ġins":1009,"istoire":1010,"ĠÃ©p":1011,"are":1012,"lu":1013,"Ġni":1014,"Ġsitu":1015,"ĠElle":1016,"ug":1017,"vers":1018,"Ġfaire":1019,"Ġpart":1020,"ils":1021,"Ġencore":1022,"Ġpopul":1023,"iti":1024,"ĠY":1025,"teurs":1026,"cc":1027,"ler":1028,"omme":1029,"tionn":1030,"ath":1031,"urant":1032,"lig":1033,"Ġnotamment":1034,"ograph":1035,"ĠSaint":1036,"Ġsoci":1037,"anc":1038,"uv":1039,").\"":1040,"Ġnation":1041,"Ġmonde":1042,"Ġof":1043,"Ġ197":1044,"Ġaff":1045,"pi":1046,"Ġvis":1047,"ĠsÃ©ri":1048,"ĠÃĢ":1049,"uses":1050,"oh":1051,"Ġport":1052,"ak":1053,"Ġimport":1054,"velopp":1055,"ĠsÃ©":1056,"Ġbas":1057,"fois":1058,"vement":1059,"Ġmen":1060,")\"":1061,"Ġ196":1062,"Ġmal":1063,"Ġsoit":1064,"Ġpeti":1065,"Ġrapp":1066,"az":1067,"ĠQ":1068,"art":1069,"Ġdire":1070,"ĠrÃ©alis":1071,"ose":1072,"Ġrel":1073,"ĠdÃ©velopp":1074,"ĠRe":1075,"Ġvie":1076,"ĠTh":1077,"Ġ15":1078,"avi":1079,"ĠdiffÃ©r":1080,"ĠnÃ©":1081,"Ġconstru":1082,"ivers":1083,"Ġinf":1084,"onde":1085,"ĠpÃ©ri":1086,"sition":1087,"ouvent":1088,"Ġsep":1089,"Ġpouv":1090,"pendant":1091,"Ã©ric":1092,"Ġsol":1093,"ĠprÃ©c":1094,"yp":1095,"Ġcours":1096,"ĠUn":1097,"tiv":1098,"istes":1099,"ellement":1100,"Ġvol":1101,"Ġconsid":1102,"Ġcelui":1103,"Ġtous":1104,"Ġavoir":1105,"Ġdom":1106,"Ġmoins":1107,"Ġutilis":1108,"one":1109,"autres":1110,"Ġfa":1111,"erg":1112,"ell":1113,"dre":1114,"Ġparticu":1115,"oÃ»":1116,"Ġemp":1117,"Ġ\"":1118,"Ã¨tres":1119,"Ġ194":1120,"ĠDans":1121,"cont":1122,"ĠCette":1123,"tats":1124,"Ġmort":1125,"ctions":1126,"ict":1127,"Ġils":1128,"ia":1129,"ric":1130,"rie":1131,"Ġrom":1132,"ature":1133,"Ãªtre":1134,"su":1135,"cs":1136,"Ġcul":1137,"Ġcelle":1138,"Ã´le":1139,"Ġesp":1140,"Ġpass":1141,"Ġsaison":1142,"mÃ©e":1143,"Ġgrande":1144,"Ġmod":1145,"Ġnouveau":1146,"Ġdonn":1147,"Ġtour":1148,"oule":1149,"Ar":1150,"chÃ©":1151,"iens":1152,"Ġ16":1153,"20":1154,"riÃ¨re":1155,"Ġparticuli":1156,"poque":1157,"Ġfond":1158,"ĠcÃ´":1159,"Ġquatre":1160,"Ġdonc":1161,"Ġavait":1162,"Åĵuv":1163,"Ġtou":1164,"Ġchamp":1165,"Ġrest":1166,"ĠThe":1167,"aÃ®t":1168,"ĠÃ©le":1169,"ines":1170,"Ġ10":1171,"Ġbat":1172,"Ġsuite":1173,"tant":1174,"Ġfam":1175,"illes":1176,"Ġappar":1177,"Ġseu":1178,"exp":1179,"ĠâĢĶ":1180,"Ġrem":1181,"aiss":1182,"ĠParis":1183,"Ġchar":1184,"Ġver":1185,"ze":1186,"tent":1187,"Ġligne":1188,"Ġca":1189,"Ã©l":1190,"Ġas":1191,"ow":1192,"antes":1193,"Ġmatch":1194,"rig":1195,"aque":1196,"Ġtoute":1197,"ret":1198,"rÃ©e":1199,"uss":1200,"Ã©ro":1201,"iÃ¨res":1202,"istor":1203,"ĠrÃ©s":1204,"ry":1205,"ĠAu":1206,"Ġguerre":1207,"Ġform":1208,"Ġquelques":1209,"ateur":1210,"ĠGu":1211,"ĠSt":1212,"Ġmet":1213,"ĠAr":1214,"Ġfem":1215,"Ġnon":1216,"ganis":1217,"Ġpartir":1218,"ient":1219,"cid":1220,"ole":1221,"ĠsÃ©rie":1222,"Ġdro":1223,"mand":1224,"Ġindi":1225,"Ġhab":1226,"ix":1227,"Ġz":1228,"Ġpres":1229,"orti":1230,"Ġrepr":1231,"fs":1232,"Ġmis":1233,"lus":1234,"viron":1235,"Ġ[":1236,"ĠrÃ©gion":1237,"ĠGran":1238,"ions":1239,"ĠÂ».\"":1240,"Ã©lÃ©":1241,"ĠIn":1242,"rÃ©s":1243,"Ġ195":1244,"ĠJean":1245,"acc":1246,"Ġroi":1247,"Ġmo":1248,"Ġdernier":1249,"18":1250,"Ġconstitu":1251,"Ġmilli":1252,"Ġcri":1253,"Ġeffet":1254,"Ġgroupe":1255,"Ġlieu":1256,"Ġ193":1257,"eure":1258,"ĠdÃ©m":1259,"per":1260,"ram":1261,"Ġcan":1262,"Ġmeille":1263,"Ġcent":1264,"Ã¨rement":1265,"ables":1266,"Ġreste":1267,"ĠZ":1268,"ĠCar":1269,"Ġgouver":1270,"tel":1271,"illet":1272,"ences":1273,"\"(":1274,"Ã©quipe":1275,"Ġprob":1276,"Ġcas":1277,"tÃ©ri":1278,"Ġselon":1279,"ĠPour":1280,"Ġim":1281,"ennent":1282,"amb":1283,"ĠrÃ©f":1284,"pect":1285,"ili":1286,"ison":1287,"rier":1288,"ĠrÃ©c":1289,"Ġrencont":1290,"ore":1291,"part":1292,"ah":1293,"Ġri":1294,"Ġautre":1295,"grÃ©":1296,"ances":1297,"oÃ»t":1298,"aur":1299,"ĠChar":1300,"ĠNe":1301,"entes":1302,"ĠmÃ©t":1303,"Ġsud":1304,"rop":1305,"onom":1306,"oires":1307,"Ġli":1308,"ĠlÃ©g":1309,"Ġloc":1310,"Ġcontra":1311,"iter":1312,"gu":1313,"ke":1314,"Ġclub":1315,"Ġnouvelle":1316,"ĠpÃ©riode":1317,"Ã´t":1318,"Ġpendant":1319,"Ġmoy":1320,"Ġfon":1321,"yn":1322,"ateurs":1323,"Ġtard":1324,"ommes":1325,"Ġnord":1326,"Ġdou":1327,"rÃª":1328,"ĠQu":1329,"Ġprog":1330,"Ġmes":1331,"Ġouv":1332,"sions":1333,"fic":1334,"ach":1335,"Ġnombreux":1336,"Ġplan":1337,"IS":1338,"tat":1339,"ande":1340,"ĠSh":1341,"vier":1342,"ĠÃītats":1343,"Ġcomb":1344,"aul":1345,"ov":1346,"cul":1347,"Ġroy":1348,"Ġpolitique":1349,"rage":1350,"Ġmai":1351,"Ġsign":1352,"Ġfr":1353,"uit":1354,"Ġmois":1355,"Ġthe":1356,"lex":1357,"Ġdoit":1358,"Ġinc":1359,"son":1360,"Ã©ci":1361,"ionn":1362,"Ġliv":1363,"ises":1364,"eurs":1365,"Ġ-":1366,"Ġdevient":1367,"Ġnive":1368,"uc":1369,"temp":1370,"Ġsucc":1371,"land":1372,"ierre":1373,"Ġafin":1374,"itaire":1375,"mer":1376,"ĠgÃ©nÃ©ral":1377,"lac":1378,"ĠÃ©tant":1379,"Ġ14":1380,"ĠUne":1381,"rait":1382,"ĠthÃ©":1383,"ement":1384,"fi":1385,"aill":1386,"ust":1387,"Ġdisp":1388,"Ġ13":1389,"Ġforme":1390,"ĠdÃ©s":1391,"Ġ12":1392,"Ġtitre":1393,"Ġretr":1394,"ok":1395,"Ġbut":1396,"Ie":1397,"ĠXV":1398,"yant":1399,"ind":1400,"jours":1401,"Ġexemp":1402,"cess":1403,"Ġsouvent":1404,"oph":1405,"ienne":1406,"Ã©ration":1407,"ĠamÃ©ric":1408,"Ġoc":1409,"quer":1410,"urent":1411,"Ġcompr":1412,"tÃ©g":1413,"BN":1414,"Ġpublic":1415,"Ġenf":1416,"Ġref":1417,"chn":1418,"ame":1419,"Ġdurant":1420,"Ã©li":1421,"Xe":1422,"Ġsub":1423,"histoire":1424,"mbl":1425,"Ġchez":1426,"Ġcontin":1427,"Ã¨de":1428,"Ġpri":1429,"Ġvict":1430,"ĠspÃ©ci":1431,"ĠdeuxiÃ¨me":1432,"ĠrÃ©v":1433,"tier":1434,"Ġcoup":1435,"assi":1436,"ril":1437,"Ġpouvoir":1438,"Ġsal":1439,"aume":1440,"suite":1441,"ĠJoh":1442,"In":1443,"Ġprojet":1444,"ane":1445,"Ã¨rent":1446,"Ġ;\"":1447,"Ġinst":1448,"ange":1449,"isme":1450,"Ġaur":1451,"ribu":1452,"lar":1453,"Ġmaj":1454,"Ġcompos":1455,"alif":1456,"isse":1457,"lie":1458,"Ġnature":1459,"ration":1460,"be":1461,"tient":1462,"Ġsecond":1463,"ori":1464,"obre":1465,"enc":1466,"ps":1467,"Ġoffici":1468,"ISBN":1469,"Ġjuin":1470,"ĠÃ©tu":1471,"olution":1472,"oix":1473,"ĠdÃ¨s":1474,"sence":1475,"ope":1476,"rang":1477,"Ġtourn":1478,"Ġ:\"":1479,"Ġlib":1480,"Ġfer":1481,"Ġseul":1482,"Ġvoit":1483,"oth":1484,"Ã¨le":1485,"ls":1486,"Ġtrouve":1487,"ĠÃ©crit":1488,"act":1489,"ĠprÃ©sid":1490,"nation":1491,"Ġag":1492,"Ġlar":1493,"Ġcamp":1494,"oie":1495,"vin":1496,"Ġparc":1497,"Ġjourn":1498,"Ġid":1499,"Ġgra":1500,"Ġoct":1501,"Ġposs":1502,"ick":1503,"ĠprÃ¨s":1504,"Ġtot":1505,"cup":1506,"ax":1507,"Ġbeau":1508,"ilitÃ©":1509,"anvier":1510,"Ã©ti":1511,"Ġcheval":1512,"ĠIls":1513,"Ã¢ce":1514,"Ġtoujours":1515,"Ã¨g":1516,"ourg":1517,"ĠCes":1518,"lection":1519,"form":1520,"tembre":1521,"Ġcinq":1522,"Ġmain":1523,"Ġind":1524,"illi":1525,"..":1526,"aise":1527,"raÃ®":1528,"Ġ11":1529,"Ġjanvier":1530,"ĠDes":1531,"Ġmars":1532,"Ġsupp":1533,"Ġcertains":1534,"annÃ©e":1535,"quip":1536,"adi":1537,"Ġface":1538,"ast":1539,"Ġcommer":1540,"unes":1541,"Ġjours":1542,"Ġconser":1543,"Ġjuillet":1544,"Ġfamille":1545,"Ġgar":1546,"aff":1547,"auv":1548,"lace":1549,"ĠGe":1550,"ĠmÃ¨tres":1551,"Ġseptembre":1552,"Ġco":1553,"ma":1554,"Ġterrit":1555,"Unis":1556,"ĠJohn":1557,"ĠdÃ©ce":1558,"Ġdev":1559,"quÃ©":1560,"Ġhommes":1561,"Ġterm":1562,"Ġess":1563,"Ġatt":1564,"ys":1565,"oupes":1566,"iles":1567,"atri":1568,"Ġ191":1569,"Åĵuvre":1570,"andis":1571,"Ã¨te":1572,"lin":1573,"Ã§on":1574,"Ġrend":1575,"orts":1576,"esp":1577,"Ġorig":1578,"Ġdess":1579,"ĠPh":1580,"oles":1581,"mÃ©":1582,"erie":1583,"Ġniveau":1584,"tic":1585,"Ġpoint":1586,"pose":1587,"ologie":1588,"ĠreÃ§":1589,"Ġsorti":1590,"Ġoctobre":1591,"Ġanim":1592,"vembre":1593,"mande":1594,"Ġceux":1595,"Ã©poque":1596,"Ġensuite":1597,"Ġprend":1598,"Ġsuiv":1599,"ritann":1600,"Ġop":1601,"Ġayant":1602,"ĠdÃ©cembre":1603,"Ġappel":1604,"Ġgouvernement":1605,"ĠSe":1606,"Ġjour":1607,"ĠrÃ´le":1608,",,":1609,"ith":1610,"lic":1611,"Ġcompte":1612,"serv":1613,"Ġnovembre":1614,"Ġhabit":1615,"Ġcentre":1616,"Ġhistor":1617,"Ġchaque":1618,"Ġpossi":1619,"ome":1620,"Ġand":1621,"Ġsix":1622,"mis":1623,"ute":1624,"Ġtant":1625,"Ġclasse":1626,"orig":1627,"Ã©b":1628,"Ġtechn":1629,"ros":1630,"Ġpeuvent":1631,"Ġavril":1632,"Ġpoints":1633,"Ġservi":1634,"Ġreg":1635,"Ġtandis":1636,"Ġfl":1637,"ouis":1638,"Ġfonction":1639,"aÃ®tre":1640,"Ġsyst":1641,"Ġ192":1642,"anti":1643,"ĠCl":1644,"sionn":1645,"bum":1646,"Ġnombreuses":1647,"rip":1648,"Ġdeven":1649,"aissance":1650,"Ġauc":1651,"ress":1652,"cident":1653,"tive":1654,"ĠÃ©taient":1655,"tien":1656,"ds":1657,"ĠtÃªte":1658,"quel":1659,"ĠtroisiÃ¨me":1660,"rag":1661,"uli":1662,"ĠAprÃ¨s":1663,"tifs":1664,"Ġatte":1665,"Ġlit":1666,"ymp":1667,"Ġtoutes":1668,"ĠaoÃ»t":1669,"ĠÃ©ch":1670,"ĠsuccÃ¨s":1671,"Ã¨ce":1672,"enant":1673,"urope":1674,"ĠdÃ©j":1675,"ital":1676,"uire":1677,"Ġpopulation":1678,"ley":1679,"Ġhum":1680,"cteur":1681,"lles":1682,"ĠOn":1683,"ote":1684,"Ġorganis":1685,"Ġcro":1686,"Ġquar":1687,"ĠGr":1688,"ĠgrÃ¢ce":1689,"pide":1690,"Ġangl":1691,"78":1692,"ĠMont":1693,"Al":1694,"arch":1695,"Ã©vrier":1696,"rique":1697,"Ġpra":1698,"quent":1699,"Ġlim":1700,"Ġrou":1701,"Ġenviron":1702,"Ġpersonnes":1703,"apon":1704,"Ġtravers":1705,"reu":1706,"dition":1707,"Ġraison":1708,"Ġfig":1709,"bles":1710,"io":1711,"Ġfont":1712,"arc":1713,"vision":1714,"Ġfils":1715,"ĠbÃ¢":1716,"coup":1717,"ĠMais":1718,"ets":1719,"oris":1720,"onst":1721,"Ġporte":1722,"ĠÂ»\"":1723,"Ġcommune":1724,"Ġpremiers":1725,"rodu":1726,"Ġcet":1727,"ĠdÃ©jÃł":1728,"ĠfÃ©vrier":1729,"ĠXI":1730,"Ġalle":1731,"aÃ¯":1732,"Ġplu":1733,"Ġrapide":1734,"Ġdix":1735,"eures":1736,"lise":1737,"Ġretour":1738,"autre":1739,"Ġculture":1740,"ki":1741,"Ġexemple":1742,"Ġrelig":1743,"ĠII":1744,"anci":1745,"ĠSon":1746,"Ġlarge":1747,"Ġvoy":1748,"ditions":1749,"50":1750,"Ġparticip":1751,"ess":1752,"origine":1753,"Ġsite":1754,"Ġcependant":1755,"istre":1756,"ÃĢ":1757,"ape":1758,"Ġcou":1759,"inter":1760,"Ġhau":1761,"ĠgÃ©":1762,"Ġsour":1763,"ouse":1764,"mbres":1765,"ĠannÃ©e":1766,"Ã¢te":1767,"Ġeffec":1768,"ĠsociÃ©tÃ©":1769,"ĠNew":1770,"air":1771,"oign":1772,"ĠmÃ©":1773,"oritÃ©":1774,"Ġbr":1775,"Ġmondi":1776,"Ġmillions":1777,"Ġdevant":1778,"Ġcapit":1779,"ographie":1780,"att":1781,"ourd":1782,"Ġten":1783,"Ġ30":1784,"ĠMal":1785,"ĠpiÃ¨":1786,"ile":1787,"amais":1788,"ras":1789,"tex":1790,"ĠRob":1791,"ĠCol":1792,"ack":1793,"Au":1794,"Ġjoueur":1795,"ones":1796,"ĠderniÃ¨re":1797,"cole":1798,"Ġlang":1799,"ĠCan":1800,"quelle":1801,"ĠÃ©lÃ©":1802,"Ġinternation":1803,"Ġkm":1804,"ox":1805,"Ġrecher":1806,"sp":1807,"ĠGrand":1808,"Ġpersonnages":1809,"cture":1810,"ablement":1811,"ĠfranÃ§aise":1812,"ide":1813,"ĠsystÃ¨me":1814,"Ġblan":1815,"ĠCon":1816,"ĠCharles":1817,"Ġjamais":1818,"ĠAm":1819,"avant":1820,"Ġchevaux":1821,"ney":1822,"Ġdist":1823,"ĠnÃ©cess":1824,"Ã¨se":1825,"ative":1826,">\"":1827,"Ġlaquelle":1828,"\"<":1829,"ticle":1830,"Ġtravail":1831,"Dans":1832,"Ġviv":1833,"inst":1834,"Ġcir":1835,"Ġmer":1836,"Ġ0":1837,"Ġtex":1838,"Ġreconn":1839,"ĠdÃ©si":1840,"Ġchans":1841,"ime":1842,"Ġ190":1843,"mÃªme":1844,"tr":1845,"ĠmÃ©di":1846,"ĠBar":1847,"Ġbeaucoup":1848,"Ġpropos":1849,"ĠcÃ´tÃ©":1850,"aud":1851,"tal":1852,"ĠconsidÃ©rÃ©":1853,"ĠGeor":1854,"ĠNord":1855,"ennes":1856,"Ã©rence":1857,"temps":1858,"Ġpersonnage":1859,"Ãītat":1860,"ule":1861,"Ġjeune":1862,"Ġsup":1863,"Ġmembres":1864,"Ġ(Â«":1865,"Ġfort":1866,"Ġpuiss":1867,"ĠÃ©tab":1868,"ĠtÃ©lÃ©":1869,"Ġroman":1870,"Ġmom":1871,"Ġnous":1872,"ĠrÃ¨g":1873,"tout":1874,"Ġparfois":1875,"mon":1876,"Ġnavi":1877,"Ġeur":1878,"ĠCependant":1879,"Ġconstruction":1880,"tÃ©ra":1881,"ĠbÃ¢ti":1882,"ype":1883,"Ġparticulier":1884,"Ġqualif":1885,"ĠMich":1886,"ner":1887,"ork":1888,"agit":1889,"ik":1890,"Ġpu":1891,"Ġversion":1892,"Ġenv":1893,"tit":1894,"Ġdoc":1895,"Ġatta":1896,"Ġcontr":1897,"seau":1898,"rain":1899,"ĠpÃ¨re":1900,"ĠprÃ©sente":1901,"reg":1902,"ression":1903,"off":1904,"ck":1905,"voir":1906,"âĢ¦":1907,"join":1908,"Ġaurait":1909,"lique":1910,"Ġbar":1911,"Ġcorps":1912,"ĠdÃ©veloppement":1913,"Ġord":1914,"Ġcal":1915,"ĠÃ©quipe":1916,"ĠPe":1917,"esse":1918,"ĠdÃ©fin":1919,"Ġprom":1920,"Åĵur":1921,"Ġseulement":1922,"opÃ©":1923,"Ġproc":1924,"ĠBe":1925,"Ġeux":1926,"pl":1927,"Ġorigin":1928,"Ġchampionn":1929,"Ġtrop":1930,"for":1931,"uel":1932,"erne":1933,"Ġfinale":1934,"aprÃ¨s":1935,"ĠprÃ©sident":1936,"ouest":1937,"Ġesti":1938,"Ġsimp":1939,"asion":1940,"ice":1941,"Ġvictoire":1942,"vo":1943,"ĠLouis":1944,"Ġproduction":1945,"ards":1946,"vÃ©":1947,"Ġrapport":1948,"lit":1949,"ĠAinsi":1950,"Ã©qu":1951,"Ġmouve":1952,"Ġplac":1953,"Ġfais":1954,"Ġcourse":1955,"Ġcad":1956,"oss":1957,"crit":1958,"Ġcr":1959,"Ġpal":1960,"mpire":1961,"ots":1962,"dic":1963,"pec":1964,"Ġnational":1965,"reur":1966,"ĠÃ©conom":1967,"nÃ©":1968,"Ġdonne":1969,"urb":1970,"minist":1971,"10":1972,"eff":1973,"tÃ©rieur":1974,"Ġautour":1975,"Ġvill":1976,"Ġpasse":1977,"cide":1978,"Ġeu":1979,"rivÃ©e":1980,"Ġbritann":1981,"Ã®le":1982,"sement":1983,"Ġvari":1984,"Ġmise":1985,"Ġ25":1986,"uni":1987,"arg":1988,"Ġsurtout":1989,"Ã¨nes":1990,"Ġrencontre":1991,"Ã©tique":1992,"Ġint":1993,"ĠÃ©quip":1994,"Ġcentra":1995,"Ch":1996,"iment":1997,"Ġjeunes":1998,"ĠscÃ¨ne":1999,"ĠLors":2000,"hui":2001,"Ġlongue":2002,"Ġdivers":2003,"endo":2004,"Ġmor":2005,"xim":2006,"armÃ©e":2007,"ĠrÃ©sul":2008,"Ġcoll":2009,"action":2010,"port":2011,"Il":2012,"Ġtent":2013,"ĠRoy":2014,"Ġenfants":2015,"Ġjoueurs":2016,"inc":2017,"orn":2018,"ĠprÃ©cÃ©d":2019,"duit":2020,"ĠprÃ©sence":2021,"De":2022,"Ã¢teau":2023,"ception":2024,"ortÃ©":2025,"Ġsemble":2026,"Ġstat":2027,"yle":2028,"ĠdÃ©couv":2029,"Ã©ch":2030,"Ã©le":2031,"Ġw":2032,"Ġriv":2033,"lor":2034,"Ġelles":2035,"Ġconse":2036,"once":2037,"ĠHar":2038,"ĠMe":2039,"itaires":2040,"inf":2041,"ball":2042,"Ġcause":2043,"hi":2044,"Ġcela":2045,"crip":2046,"Ã©cu":2047,"gÃ©":2048,"ingt":2049,"ende":2050,"illeurs":2051,"lier":2052,"odes":2053,"Ġfinalement":2054,"ication":2055,"Ġcher":2056,"Ġ189":2057,"Ã¨ces":2058,"Ġdestin":2059,"aw":2060,"\"Â«":2061,"ĠCel":2062,"Ġdisc":2063,"Ġasse":2064,"ĠproblÃ¨":2065,"Ġparmi":2066,"antin":2067,"Ġseconde":2068,"ĠsupÃ©ri":2069,"Ġchap":2070,"Ġquit":2071,"Ġplupart":2072,"Ġmag":2073,"ition":2074,"ĠSte":2075,"Ġmari":2076,"ĠentraÃ®":2077,"17":2078,"Ã©rique":2079,"rant":2080,"der":2081,"ĠcrÃ©ation":2082,"Ġdemande":2083,"iquement":2084,"Ġgrands":2085,"actÃ©":2086,"icile":2087,"abord":2088,"utes":2089,"Ġbase":2090,"Ġsuivant":2091,"ĠSu":2092,"ĠSud":2093,"Ġtomb":2094,"rec":2095,"Ġancien":2096,"ock":2097,"ensi":2098,"ars":2099,"titude":2100,"glet":2101,"Ġtravaux":2102,"Ġrev":2103,"ument":2104,"Ġpris":2105,"Ġmoment":2106,"oise":2107,"Ġbou":2108,"Ġol":2109,"Ġfemme":2110,"Ã©f":2111,"Ġterritoire":2112,"estion":2113,"ĠSch":2114,"Ġtu":2115,"ĠfrÃ©":2116,"enir":2117,"Ġfai":2118,"Ġmeilleur":2119,"ĠmaniÃ¨re":2120,"oot":2121,"Ġsem":2122,"sy":2123,"Ġdispar":2124,"ensemble":2125,"gleterre":2126,"Ġreven":2127,"ĠpremiÃ¨res":2128,"urg":2129,"Ġaccue":2130,"idÃ©":2131,"Ġpein":2132,"Ã©ment":2133,"Ã©rit":2134,"tation":2135,"Ġmusique":2136,"Ġsein":2137,"ĠprÃ©f":2138,"prÃ©":2139,"dam":2140,"Ã«":2141,"Ġlet":2142,"oine":2143,"Ġpetit":2144,"Ġhabitants":2145,"Ã©lÃ¨":2146,"Ġcoule":2147,"Ġeng":2148,"Ġpil":2149,"Ġseule":2150,"oun":2151,"Ġ2007":2152,"quant":2153,"ĠnÃ©g":2154,"luence":2155,"lant":2156,"ĠHen":2157,"ase":2158,"Ġzone":2159,"gne":2160,"Ġ2010":2161,"tie":2162,"gment":2163,"ĠXIXe":2164,"men":2165,"Ġense":2166,"aliste":2167,"Ġposition":2168,"Ġsort":2169,"Ġcat":2170,"ĠDis":2171,"ian":2172,"ĠXVII":2173,"let":2174,"atique":2175,"Ġservice":2176,"Ġchef":2177,"oient":2178,"tivitÃ©":2179,"Ġrapidement":2180,"Ġ24":2181,"Ġchampionnat":2182,"Ġnationale":2183,"autÃ©":2184,"ĠeuropÃ©":2185,"Ġpropri":2186,"quÃ©e":2187,"ĠCoupe":2188,"Ġailleurs":2189,"Ġmilieu":2190,"tiÃ¨re":2191,"usion":2192,"Ġfemmes":2193,"rin":2194,"cipe":2195,"eng":2196,"Ġmoyenne":2197,"Ġscien":2198,"Ġcompagn":2199,"Ġimm":2200,"Ġdit":2201,"ront":2202,"erc":2203,"position":2204,"ĠPro":2205,"Ġ22":2206,"ĠSa":2207,"Ġassoci":2208,"Ġopp":2209,"tudi":2210,"ony":2211,"ht":2212,"bert":2213,"ĠSi":2214,"Ġcertaines":2215,"Ġcommence":2216,"aite":2217,"pond":2218,"magne":2219,"Ġanci":2220,"Ġmilitaire":2221,"Ġmaison":2222,"ĠlittÃ©ra":2223,"Ġ188":2224,"Ġgen":2225,"Ġ2008":2226,"ĠPort":2227,"Ġcelles":2228,"Ġpropre":2229,"ald":2230,"tenir":2231,"Ġsujet":2232,"Ġvingt":2233,"jourd":2234,"Ġbi":2235,"Ġdroit":2236,"rÃªt":2237,"Ġfac":2238,"ĠPierre":2239,"Ã©dition":2240,"Ã©on":2241,"Ġva":2242,"Ġeffectu":2243,"ulti":2244,"ades":2245,"ares":2246,"ĠMan":2247,"ĠcaractÃ©":2248,"ira":2249,"Ġallemand":2250,"ĠdÃ©par":2251,"Ġprogram":2252,"ilis":2253,"ll":2254,"Ġcolon":2255,"16":2256,"Ġtype":2257,"Ġdat":2258,"ĠPaul":2259,"ĠJeux":2260,"Ġolymp":2261,"Ġlorsque":2262,"Ġimportant":2263,"up":2264,"ĠfaÃ§on":2265,"15":2266,"Empire":2267,"och":2268,"ĠcompÃ©ti":2269,"Ġkil":2270,"ĠtÃ©m":2271,"Ġtroupes":2272,"endance":2273,"alitÃ©s":2274,"eld":2275,"Ġbataille":2276,"Ġfra":2277,"Ã¡":2278,"ision":2279,"by":2280,"Ġviol":2281,"ustra":2282,"Ġcli":2283,"Ġmoi":2284,"Ġquand":2285,"200":2286,"Ġdomin":2287,"Ġ2006":2288,"issent":2289,"ames":2290,"ĠIer":2291,"iver":2292,"Ġ186":2293,"ĠSp":2294,"ĠparticuliÃ¨rement":2295,"Ġ978":2296,"orie":2297,"ĠcarriÃ¨re":2298,"Ġcrois":2299,"ĠÃ©poque":2300,"ĠdÃ©r":2301,"ologique":2302,"Ġsyn":2303,"ĠIs":2304,"ĠLond":2305,"ĠdÃ©part":2306,"Ġdistin":2307,"'s":2308,"Ġsuc":2309,"ĠdiffÃ©rents":2310,"neur":2311,"ppe":2312,"Ġbois":2313,"Ġserait":2314,"yth":2315,"ĠIII":2316,"Ġchange":2317,"ĠGuerre":2318,"Ġvue":2319,"Ġfav":2320,"Ġlivre":2321,"Ġplut":2322,"Ġjeux":2323,"Ġdessin":2324,"Ġperd":2325,"Ġ23":2326,"Ġaj":2327,"Ġpossible":2328,"eth":2329,"Ġgrandes":2330,"Ġchois":2331,"Ġsituation":2332,"ĠchÃ¢teau":2333,"Ġbon":2334,"Ġmondiale":2335,"Ġcommand":2336,"Ġ2011":2337,"Ġfurent":2338,"respond":2339,"univers":2340,"Ġhaut":2341,"Ġimportante":2342,"Ġcombat":2343,"Ġsens":2344,"ĠprÃ©v":2345,"Ġbord":2346,"Ġneu":2347,"ordre":2348,"ity":2349,"ĠdÃ©t":2350,"Ġcommerci":2351,"mar":2352,"Ġ2009":2353,"Ġnouvelles":2354,"Ġspect":2355,"atiques":2356,"Ġterre":2357,"Ġanglais":2358,"Ġsymb":2359,"Ġvoyage":2360,"org":2361,"ible":2362,"oivent":2363,"ignes":2364,"assin":2365,"ĠrÃ©guli":2366,"Ġ2000":2367,"Ġlequel":2368,"duc":2369,"ĠplutÃ´t":2370,"ĠPri":2371,"Ġpriv":2372,"arde":2373,"jec":2374,"ĠespÃ¨ces":2375,"ouverte":2376,"Ġrejoin":2377,"ompagn":2378,"Ġdiffic":2379,"alle":2380,"Ġterme":2381,"ĠSur":2382,"Ã©min":2383,"ĠCor":2384,"Ã©tait":2385,"llemagne":2386,"era":2387,"Ġsus":2388,"anim":2389,"Ġstyle":2390,"ettes":2391,"Ġtermin":2392,"Ġtrouv":2393,"Ãªt":2394,"ĠRobert":2395,"ĠHe":2396,"loy":2397,"Ġmarque":2398,"otte":2399,"Ġcorrespond":2400,"pons":2401,"ĠBel":2402,"ereur":2403,"usse":2404,"cesse":2405,"Ġ21":2406,"Ġsera":2407,"Ġassez":2408,"Ġiss":2409,"ission":2410,"igue":2411,"onnes":2412,"iÃ©":2413,"Ġcath":2414,"loit":2415,"ĠintÃ©":2416,"Ġprendre":2417,"orth":2418,"ĠYork":2419,"rÃ©es":2420,"ĠSelon":2421,"ĠpossÃ¨de":2422,"Ġloi":2423,"Ġremporte":2424,"Am":2425,"Ġkilom":2426,"Ġconnu":2427,"moins":2428,"Ġpeup":2429,"osÃ©":2430,"30":2431,"Ġmesure":2432,"Ġsortie":2433,"Ġdate":2434,"aly":2435,"Ġvale":2436,"Ġstru":2437,"Ã¨mes":2438,"Ġpens":2439,"ĠdiffÃ©rentes":2440,"rist":2441,"ouss":2442,"occ":2443,"Åĵuvres":2444,"rich":2445,"Ġ2012":2446,"ĠmÃ©d":2447,"Ġtable":2448,"Ã¢tre":2449,"Ġmeur":2450,"ĠdÃ©cide":2451,"Ã©an":2452,"ĠmalgrÃ©":2453,"asc":2454,"Ġiniti":2455,"12":2456,"ĠgÃ©nÃ©ralement":2457,"ĠreÃ§oit":2458,"14":2459,"ĠbÃ©n":2460,"Ġprot":2461,"Ġprofes":2462,"Ġpetite":2463,"Ġpie":2464,"oration":2465,"Ġmouvement":2466,"ĠsÃ©lection":2467,"Europe":2468,"talie":2469,"Ġsau":2470,"ĠÃ©pis":2471,"ĠcaractÃ©ris":2472,"ÃŃ":2473,"Ġ28":2474,"auche":2475,"Ġrespons":2476,"70":2477,"Ġactu":2478,"avid":2479,"reuve":2480,"ailles":2481,"Ġremplac":2482,"Ġprix":2483,"Ġaffir":2484,"Ġdirection":2485,"Ġunivers":2486,"ĠSc":2487,"ood":2488,"ĠdÃ©n":2489,"Ġvra":2490,".-":2491,"ĠÃ¢":2492,"rid":2493,"Ã©cur":2494,"ĠÃ©lect":2495,"duire":2496,"ĠLondres":2497,"ly":2498,"iz":2499,"issant":2500,"viennent":2501,"ĠmatÃ©ri":2502,"Ġmuni":2503,"Ġbritannique":2504,"Ġple":2505,"ager":2506,"Ġrace":2507,"ĠmÃ¨re":2508,"ĠMc":2509,"Ġdirec":2510,"stes":2511,"Ġtravaill":2512,"Ġnoir":2513,"urÃ©e":2514,"Ã§ois":2515,"Ġconserv":2516,"osition":2517,"ville":2518,"Ġsuivante":2519,"Ġfeu":2520,"ailleurs":2521,"ĠBr":2522,"ootball":2523,"Ġdemand":2524,"Ġminutes":2525,"ĠJac":2526,"hab":2527,"Ġprincipalement":2528,"ĠDisney":2529,"ĠMon":2530,"Ġcy":2531,"ĠPlus":2532,"Une":2533,"AprÃ¨s":2534,"bes":2535,"rand":2536,"Ġmatchs":2537,"ĠÃ©lÃ©ments":2538,"aj":2539,"Ã©rer":2540,"ect":2541,"Ġci":2542,"roph":2543,"ides":2544,"Ġjoue":2545,"Ġ26":2546,"Ġentrepr":2547,"ditionn":2548,"13":2549,"Ġ500":2550,"Ġsept":2551,"Or":2552,"rÃ¨s":2553,"enf":2554,"ĠcinÃ©m":2555,"Ã©tu":2556,"Ġaband":2557,"Ġsignif":2558,"ham":2559,"aval":2560,"Ġchanson":2561,"sych":2562,"ae":2563,"rive":2564,"ĠÃ©m":2565,"Ġtotal":2566,"rages":2567,"Ġcolle":2568,"ysi":2569,"Ġ100":2570,"Ġprincipal":2571,"ada":2572,"ĠÃ©vo":2573,"arn":2574,"Ġpont":2575,"}}":2576,"ĠVal":2577,"Ġremar":2578,"ĠrÃ©un":2579,"Ġ184":2580,"aie":2581,"ĠdÃ©g":2582,"yd":2583,"Ġis":2584,"ĠPl":2585,"Ġ2005":2586,"Ġbl":2587,"dess":2588,"Ã©ros":2589,"Ġarch":2590,"Ġnouveaux":2591,"Ġvoir":2592,"organis":2593,"ĠÃ©d":2594,"Ġsim":2595,"Ġfille":2596,"Ġretrouve":2597,"ĠkilomÃ¨tres":2598,"Ġfourn":2599,"Ġroyaume":2600,"Ġmontre":2601,"atta":2602,"Ġcritique":2603,"ĠRen":2604,"Ġrue":2605,"urÃ©":2606,"Ġvilles":2607,"Ġgrec":2608,"tern":2609,".,":2610,"Ġcontinu":2611,"ĠDu":2612,"Ġclass":2613,"Ġnum":2614,"Ġaucun":2615,"ĠdÃ©partement":2616,"ublique":2617,"Ġvain":2618,"ĠDavid":2619,"Ġ2014":2620,"vre":2621,"ĠnommÃ©":2622,"illiam":2623,"ĠEd":2624,"Ġconsac":2625,"ultÃ©":2626,"Ġhomme":2627,"Ġdemi":2628,"ormais":2629,"ĠdÃ©cla":2630,"ĠOr":2631,"Ġaccep":2632,"quis":2633,"Ġsouh":2634,"sse":2635,"Ġproche":2636,"ĠJapon":2637,"con":2638,"Ġsuff":2639,"lande":2640,"Ġtaille":2641,"ĠRich":2642,"roche":2643,"dy":2644,"nements":2645,"ĠNo":2646,"rige":2647,"Ġ27":2648,"Ġroute":2649,"Ġlangue":2650,"vid":2651,"ĠcontrÃ´le":2652,"ana":2653,"Ġfilms":2654,"less":2655,"ĠsituÃ©":2656,"Ġsuper":2657,"erts":2658,"Ġvend":2659,"Ġsurf":2660,"ĠTour":2661,"Ġaccord":2662,"Ġveu":2663,"old":2664,"Ġprovin":2665,"allÃ©e":2666,"Ġmulti":2667,"Ġalbum":2668,"Ġclassi":2669,"pt":2670,"rite":2671,"abilitÃ©":2672,"ĠdÃ©crit":2673,"ĠCom":2674,"aci":2675,"Ġ1990":2676,"retagne":2677,"Pour":2678,"environ":2679,"Ġheures":2680,"Ġaugment":2681,"ario":2682,"ash":2683,"Ġcadre":2684,"ressi":2685,"Ġaujourd":2686,"Ġ2004":2687,"Ġmettre":2688,"Ġcomporte":2689,"...":2690,"Ġformation":2691,"ĠamÃ©ricain":2692,"Ġtermine":2693,"Ġend":2694,"ĠutilisÃ©":2695,"ouverture":2696,"ber":2697,"Ġconv":2698,"Ġhuit":2699,"ibli":2700,"Ġoccup":2701,"Ġlanc":2702,"objet":2703,"Ġavaient":2704,"mment":2705,"ĠDi":2706,"esti":2707,"ĠRo":2708,"Ġderniers":2709,"Ġrecherche":2710,"Ġsomm":2711,"Ġenc":2712,"ĠTra":2713,"ed":2714,"aissent":2715,"rir":2716,"lexand":2717,"Ġsac":2718,"iller":2719,"Ġprofessionn":2720,"ĠscÃ©n":2721,"Ġchac":2722,"Ġaucune":2723,"ĠdÃ©fense":2724,"ĠpiÃ¨ces":2725,"leu":2726,"ĠÃ©qu":2727,"ĠdÃ©ta":2728,"ices":2729,"Ġpat":2730,"199":2731,"dats":2732,"intÃ©":2733,"tt":2734,"atif":2735,"Ã¼":2736,"ani":2737,"rom":2738,"ĠvidÃ©":2739,"Ġloin":2740,"ks":2741,"ĠrÃ©par":2742,"ertes":2743,"cription":2744,"Ġ2013":2745,"Ġtrib":2746,"Ġclassement":2747,"ĠdÃ©clar":2748,"ĠpÃ©n":2749,"Ġadap":2750,"Ġ29":2751,"atives":2752,"Ġpsych":2753,"Ġ50":2754,"Ġjournal":2755,"acitÃ©":2756,"ĠâĢĵ":2757,"otes":2758,"Ġvolont":2759,"ĠÃ©tudi":2760,"aisse":2761,"Ġserv":2762,"anger":2763,",,.":2764,"ĠrÃ©seau":2765,"Ġpolitiques":2766,"Ġartis":2767,"Ġarm":2768,"sur":2769,"Ġcritiques":2770,"ĠcitÃ©":2771,"Ġcommenc":2772,"ĠapparaÃ®t":2773,"Ġ185":2774,"inte":2775,"ĠBro":2776,"Ġscientif":2777,"Ġpassage":2778,"Ġtoutefois":2779,"ĠFin":2780,"Ġfaisant":2781,"ĠWilliam":2782,"ĠdÃ©clare":2783,"Ġciv":2784,"ĠWal":2785,"Ġlorsqu":2786,"Ġdirige":2787,"Ġital":2788,"ĠÅĵuvre":2789,"Ġconcern":2790,"ĠConst":2791,"Ġmodi":2792,"aye":2793,"tisme":2794,"Angleterre":2795,"Ġdesc":2796,"Ġarriv":2797,"ĠÅĵuvres":2798,"Ġproduit":2799,"Ġsais":2800,"ĠMus":2801,"Ġquant":2802,"ĠÃ©trang":2803,"Ġlog":2804,"anne":2805,"Ġvic":2806,"rat":2807,"avoir":2808,"album":2809,"Ġmot":2810,"Ġcampagne":2811,"tivitÃ©s":2812,"orme":2813,"Ġdomaine":2814,"red":2815,"ĠRÃ©p":2816,"ĠdÃ©sormais":2817,"Ġ179":2818,"Ġto":2819,"alise":2820,"Ġprote":2821,"duis":2822,"Ġpresque":2823,"ger":2824,"tiÃ©":2825,"ip":2826,"til":2827,"Ġress":2828,"ĠÃ©l":2829,"sitions":2830,"Ġforces":2831,"ĠvÃ©rit":2832,"ologiques":2833,"Ġmunicip":2834,"Ġpropose":2835,"oux":2836,"cessi":2837,"Ġvillage":2838,"Ġlut":2839,"aix":2840,"Ġtri":2841,"val":2842,"lÃ©ment":2843,"ocra":2844,"Ġrespec":2845,"ara":2846,"Par":2847,"Ġdoivent":2848,"Ġprovo":2849,"Ġemb":2850,"Ġven":2851,"Ġprobablement":2852,"ott":2853,"Ġposte":2854,"tivement":2855,"Ou":2856,"Ġ{":2857,"Ġconcl":2858,"oser":2859,"Ġappr":2860,"Ġatteint":2861,"eter":2862,"Ġcommunes":2863,"ĠÃ©quipes":2864,"uifs":2865,"Ġexiste":2866,"Ġ2003":2867,"rice":2868,"ĠGeorge":2869,"Ġtels":2870,"Ġpersonne":2871,"Ġzones":2872,"Ġdol":2873,"text":2874,"Ġus":2875,"ates":2876,"Ġpratique":2877,"Ġfigure":2878,"Mar":2879,"rest":2880,"Ã´ne":2881,"ige":2882,"ĠsituÃ©e":2883,"import":2884,"âĢ¦]":2885,"Ġorient":2886,"ules":2887,"ĠauprÃ¨s":2888,"ĠfrÃ¨re":2889,"Ġ2002":2890,"ociation":2891,"ĠÃ©conomique":2892,"atur":2893,"Ġessenti":2894,"Ġcouv":2895,"cles":2896,"ustri":2897,"itation":2898,"Ġquartier":2899,"erb":2900,"termin":2901,"Ġlesqu":2902,"ĠGre":2903,"ĠXXe":2904,"Ġvoix":2905,"Ġchoix":2906,"roduction":2907,"quÃªte":2908,"ĠPrem":2909,"dire":2910,"ĠmoitiÃ©":2911,"ovi":2912,"outefois":2913,"Ġdra":2914,"Ġphil":2915,"yl":2916,"'Â«":2917,"Ġobjet":2918,"Ġvisite":2919,"arrivÃ©e":2920,"Ġfou":2921,"Ġfaut":2922,"tiers":2923,"ĠmÃ©c":2924,"Ġgagn":2925,"entif":2926,"Ġ[âĢ¦]":2927,"Ġrang":2928,"Ġ2015":2929,"ĠSec":2930,"cal":2931,"ult":2932,"Ġdyn":2933,"ĠAd":2934,"ĠlÃł":2935,"tÃ©es":2936,"Ġanimaux":2937,"ĠGal":2938,"Ġrefus":2939,"Ġ1980":2940,"Ã©glise":2941,"tistes":2942,"Article":2943,"ĠGrande":2944,"Ġforce":2945,"resse":2946,"Ġsenti":2947,"Ġpourrait":2948,"Ġphysi":2949,"Ġ?":2950,"Ġstudi":2951,"bres":2952,"gement":2953,"ĠPhili":2954,"Ġlance":2955,"homme":2956,"Ġstation":2957,"Ã©volution":2958,"Ġprogramme":2959,"vention":2960,"Ã§ant":2961,"rog":2962,"Ġministre":2963,"ĠÃ®":2964,"Ġnavire":2965,"Ġremport":2966,"Ġpatri":2967,"tives":2968,"Ġinv":2969,"nent":2970,"Ġgauche":2971,"orde":2972,"Ġsurface":2973,"af":2974,"ĠBer":2975,"abb":2976,"Ġtraditionn":2977,"ĠRome":2978,"ftext":2979,"|>\"":2980,"endoftext":2981,"ina":2982,"Ġbuts":2983,"Ġpresse":2984,"ĠKe":2985,"\"<|":2986,"ĠcompÃ©tition":2987,"Ã¢ge":2988,"Ġconfir":2989,"Ġcompar":2990,"Ġgenre":2991,"Ġ40":2992,"ĠMad":2993,"ĠrÃ©sid":2994,"ĠAb":2995,"Ġincl":2996,"Ġ1970":2997,"Ġru":2998,"oe":2999,"ĠfÃ©min":3000,"ĠmodÃ¨le":3001,"ulaire":3002,"ym":3003,"Ġvit":3004,"Ġuti":3005,"hum":3006,"Ġcinqu":3007,"Ġvoie":3008,"ĠEurope":3009,"ĠÂ»)":3010,"ographique":3011,"Ġvites":3012,"Ġjapon":3013,"Ġ187":3014,"aide":3015,"ĠrÃ©uss":3016,"Ġdoute":3017,"Ġnuit":3018,"Ġquestion":3019,"Ġcompagnie":3020,"Ġobserv":3021,"cience":3022,"Ġpermettant":3023,"Ġir":3024,"ĠGrÃ¨ce":3025,"Ãªmes":3026,"Ã¨tre":3027,"alog":3028,"aug":3029,"Ġmanif":3030,"Ġfaible":3031,"olique":3032,"lam":3033,"Ġadminist":3034,"Ġcapitale":3035,"Ġdifficile":3036,"tice":3037,"Ġdirig":3038,"aute":3039,"ĠcommunautÃ©":3040,"Ġmi":3041,"ĠqualitÃ©":3042,"ĠIV":3043,"Ġ1999":3044,"Ġpopulaire":3045,"Ġcaract":3046,"Ġmilitaires":3047,"Ġgal":3048,"Ġbless":3049,"Ġpetits":3050,"ĠmusÃ©e":3051,"ruction":3052,"occasion":3053,"ĠRuss":3054,"ĠSal":3055,"Ġenreg":3056,"Ġobtient":3057,"Ġalli":3058,"60":3059,"ĠAnd":3060,"Ġrelations":3061,"ĠDick":3062,"Ãªtes":3063,"uments":3064,"Ġquatri":3065,"ĠrÃ¨gne":3066,"Ġretra":3067,"Ġforte":3068,"Ġexist":3069,"ha":3070,"can":3071,"ĠWe":3072,"ativement":3073,"Ġnour":3074,"Ġrien":3075,"ini":3076,"Ġfranch":3077,"Ġprincipaux":3078,"este":3079,"Ã¶":3080,"Ġprise":3081,"ĠXII":3082,"ĠMarie":3083,"Ġoutre":3084,"tine":3085,"titul":3086,"tention":3087,"ĠcÃ©lÃ¨":3088,"ĠdÃ©sign":3089,"ĠconnaÃ®t":3090,"ĠvidÃ©o":3091,"Ġenfin":3092,"Ġ2001":3093,"Ġchemin":3094,"Ġinspi":3095,"rs":3096,"cteurs":3097,"frique":3098,"ky":3099,"ieuse":3100,"Ġurb":3101,"Ġfinanci":3102,"ĠquatriÃ¨me":3103,"ĠreprÃ©sente":3104,"argent":3105,"Ġsouver":3106,"Ġlac":3107,"rad":3108,"Ġenvoy":3109,"ĠdonnÃ©":3110,"ĠderriÃ¨re":3111,"ost":3112,"ĠfÃ©d":3113,"Ġmanque":3114,"ĠPrix":3115,"Ġali":3116,"ĠprotÃ©g":3117,"oll":3118,"Ġmission":3119,"ĠsiÃ¨ge":3120,"ĠRÃ©publique":3121,"40":3122,"Ġcontraire":3123,"idÃ©e":3124,"chant":3125,"Ġconditions":3126,"ĠHenri":3127,"ung":3128,"bilitÃ©":3129,"ka":3130,"ĠcomplÃ¨":3131,"ĠsÃ©par":3132,"Ġbonne":3133,"alisation":3134,"Ġparticipe":3135,"oseph":3136,"Ġsalle":3137,"Ġdeme":3138,"ĠEnfin":3139,"key":3140,"Ġ!":3141,"Ġetc":3142,"Ġterrain":3143,"dique":3144,"ĠChamp":3145,"empereur":3146,"Ġsembl":3147,"Ġpermettent":3148,"Ġmieux":3149,"Ġtechnique":3150,"ĠmÃ©th":3151,"tenant":3152,"yz":3153,"Ġdivision":3154,"ĠexpÃ©ri":3155,"ael":3156,"Ġgroupes":3157,"Ġfootball":3158,"cte":3159,"Ġhistoire":3160,"Ġdroits":3161,"oug":3162,"mat":3163,"vage":3164,"Ġprince":3165,"roit":3166,"Ġall":3167,"atis":3168,"Ġdouble":3169,"Ġquelque":3170,"ĠmajoritÃ©":3171,"gue":3172,"ĠNouv":3173,"ĠÃ©li":3174,"Ġprol":3175,"Ġrouge":3176,"Ġrecord":3177,"len":3178,"ĠnÃ©cessaire":3179,"Ġdollar":3180,"ĠBen":3181,"ĠNic":3182,"universitÃ©":3183,"ardin":3184,"11":3185,"ĠTur":3186,"sc":3187,"ld":3188,"ĠcrÃ©Ã©":3189,"Ġtransform":3190,"Ġdroite":3191,"ĠSam":3192,"Ġait":3193,"Ġcomplex":3194,"Ġannonce":3195,"Ġ2016":3196,"etÃ©":3197,"Ġvoul":3198,"Ġach":3199,"ĠcÃ©rÃ©":3200,"ĠMi":3201,"Ġvaleur":3202,"anche":3203,"aces":3204,"urer":3205,"ĠMac":3206,"Ġhistorique":3207,"Ġnavires":3208,"orÃ©":3209,"Ġintitul":3210,"Ġsoldats":3211,"Ġsources":3212,"ĠFranÃ§ois":3213,"oile":3214,"Ġreprend":3215,"Ġcomment":3216,"Ġjouer":3217,"Ġdonner":3218,"ĠBien":3219,"Ġstade":3220,"ĠrÃ©gions":3221,"veur":3222,"Aut":3223,"mont":3224,"Ġoccident":3225,"alyse":3226,"Est":3227,"berg":3228,"atoire":3229,"prit":3230,"exist":3231,"Ã«l":3232,"Ġrendre":3233,"Ġvient":3234,"tienne":3235,"Ġcomprend":3236,"Je":3237,"Ġliste":3238,"Ġmarch":3239,"omas":3240,"ĠproblÃ¨mes":3241,"ires":3242,"ĠDeux":3243,"Ġmusic":3244,"oz":3245,"ĠÃ©vÃ©":3246,"ĠÃ©n":3247,"25":3248,"Ġcit":3249,"Ġval":3250,"Ġtyp":3251,"Ãªche":3252,"main":3253,"Ġcommande":3254,"ĠimpÃ©ri":3255,"agnes":3256,"osse":3257,"ainte":3258,"bourg":3259,"Ġbes":3260,"ĠChe":3261,"Ġcer":3262,"ĠToutefois":3263,"ĠCanada":3264,"ĠSm":3265,"ĠcinÃ©ma":3266,"Ã³":3267,"istance":3268,"onomie":3269,"tiÃ¨me":3270,"Fran":3271,"lÃ©g":3272,"Ġblanc":3273,"Ġterres":3274,"Ġ183":3275,"Ġlignes":3276,"uri":3277,"lanc":3278,"Ġensemble":3279,"Ġphot":3280,"Ġtransport":3281,"dit":3282,"Ġautant":3283,"Ġadop":3284,"ĠrÃ©alisÃ©":3285,"aude":3286,"Ġsout":3287,"ft":3288,"agin":3289,"riture":3290,"isation":3291,"Ġsouff":3292,"iteur":3293,"Ġlivres":3294,"texte":3295,"ancien":3296,"Ġvu":3297,"iff":3298,"ĠPer":3299,"Ġsoutien":3300,"ett":3301,"yon":3302,"Ġtexte":3303,"Ġplate":3304,"ĠMor":3305,"Ġmauv":3306,"ĠindÃ©p":3307,"issement":3308,"Ġchasse":3309,"Ġamb":3310,"Ġcharge":3311,"Ġmode":3312,"Ġparvient":3313,"ses":3314,"Ġ1960":3315,"Ġcontemp":3316,"ambre":3317,"landais":3318,"Ġcertain":3319,"Ġautor":3320,"onneur":3321,"Ġmoyen":3322,"isc":3323,"Ġaccompagn":3324,"agÃ©":3325,"Ġphilos":3326,"indre":3327,"Ġreprises":3328,"Ġconstitue":3329,"Ġproxim":3330,"agement":3331,"ĠrÃ©pond":3332,"Ġillus":3333,"Ġperform":3334,"ĠRoyaume":3335,"Ã©ral":3336,"spagne":3337,"apol":3338,"Ġpasser":3339,"Ġparties":3340,"Ã¨les":3341,"Ġfron":3342,"ĠrÃ©ser":3343,"Ġ2017":3344,"ĠFranÃ§ais":3345,"Ġconstruit":3346,"80":3347,"quÃ©s":3348,"Ġvois":3349,"ĠamÃ©ricaine":3350,"ĠconsidÃ¨re":3351,"run":3352,"ruit":3353,"Ġduc":3354,"Ġmeurt":3355,"_{":3356,"Ġvitesse":3357,"utÃ©":3358,"ulture":3359,"ĠproximitÃ©":3360,"oli":3361,"chev":3362,"Ġconflit":3363,"gg":3364,"Ġris":3365,"ĠCert":3366,"Ġanti":3367,"dessus":3368,"Ġvicti":3369,"Ġlibre":3370,"Allemagne":3371,"entrÃ©e":3372,"Ġindustri":3373,"Ġsource":3374,"Ġpalais":3375,"Ġban":3376,"tenu":3377,"Ġemploy":3378,"Ġinform":3379,"ĠpubliÃ©":3380,"ĠchrÃ©":3381,"oure":3382,"ĠMichel":3383,"cad":3384,"Ġtrouver":3385,"ĠtraitÃ©":3386,"lir":3387,"Ġdocument":3388,"Ġrenfor":3389,"ĠTe":3390,"ĠConstantin":3391,"Ġnaissance":3392,"ĠEl":3393,"Ã©rations":3394,"oyen":3395,"fait":3396,"dec":3397,"ĠFer":3398,"Ã¨ve":3399,"Ġmur":3400,"Ġvous":3401,"ĠRichard":3402,"Ġdollars":3403,"ublic":3404,"ook":3405,"ĠTerre":3406,"arra":3407,"Ġbande":3408,"Ġchampion":3409,"Is":3410,"ĠComm":3411,"ĠÃ©tudes":3412,"ester":3413,"vie":3414,"ford":3415,"Ġcaval":3416,"ĠRom":3417,"Ġlongtemps":3418,"ĠPal":3419,"Ġ180":3420,"Ġmariage":3421,"erman":3422,"Ġmultip":3423,"ĠprÃ©par":3424,"dien":3425,"Ġferm":3426,"Ġcommerce":3427,"ĠXVIIIe":3428,"ĠFor":3429,"Ġmontagne":3430,"itre":3431,"aste":3432,"Ġ1998":3433,"lacement":3434,"Ġi":3435,"Ġrais":3436,"cons":3437,"antÃ©":3438,"Ġauteurs":3439,"ugus":3440,"Ġcherche":3441,"Ã¨que":3442,"Ġnav":3443,"Ġinscrit":3444,"ĠRou":3445,"ĠMarc":3446,"Ġsimple":3447,"ting":3448,"Ġpuissance":3449,"Ġabandonn":3450,"Des":3451,"Ġfab":3452,"Ġgl":3453,"Ãªque":3454,"Ġstra":3455,"ĠvallÃ©e":3456,"Ġreb":3457,"Ġattribu":3458,"Ġreti":3459,"ĠComme":3460,"Ġinflu":3461,"Ġpuisque":3462,"Ġpublique":3463,"ĠpassÃ©":3464,"ĠchaÃ®":3465,"Ġstructure":3466,"rement":3467,"Ġbomb":3468,"Ġgros":3469,"Ġcentrale":3470,"Ġlargement":3471,"Ġly":3472,"Ã©rant":3473,"ĠÂ»),":3474,"ension":3475,"Ġconseil":3476,"Ġdirectement":3477,"del":3478,"cession":3479,"Ġsemaines":3480,"Ã©cole":3481,"gel":3482,"ĠderniÃ¨res":3483,"tiste":3484,"nex":3485,"ĠDel":3486,"Ġmassi":3487,"Ġtel":3488,"aritÃ©":3489,"ĠSoci":3490,"ĠrÃ©fÃ©rence":3491,"Ġsimil":3492,"ĠcÅĵur":3493,"Ġretrouv":3494,"Ġinstall":3495,"Ġinternational":3496,"Ġcouleur":3497,"Ġarrive":3498,"Ġfix":3499,"Ġstatut":3500,"ĠJacques":3501,"Ġestime":3502,"ĠsÃ©cur":3503,"ĠinterprÃ©":3504,"Ġtextes":3505,"ĠLu":3506,"ĠNation":3507,"Ġpot":3508,"ardi":3509,"ĠcaractÃ¨re":3510,"itant":3511,"ĠWh":3512,"tival":3513,"Ġtelle":3514,"Ce":3515,"Ġara":3516,"Ġcontinue":3517,"unis":3518,"Ġpeuple":3519,"ĠBra":3520,"Italie":3521,"Lors":3522,"ĠtÃ©moign":3523,"Ġenti":3524,"ĠmÃ©m":3525,"Ġproduits":3526,"Ġmob":3527,"ĠDickens":3528,",,.\"":3529,"ĠrÃ©sultats":3530,"ĠconsÃ©qu":3531,"endu":3532,"ĠappelÃ©":3533,"ombre":3534,"Ġant":3535,"ĠdÃ©termin":3536,"ĠAvec":3537,"22":3538,"ĠÃ©pouse":3539,"vidu":3540,"Ġcertaine":3541,"outes":3542,"oue":3543,"ĠChrist":3544,"yr":3545,"Ġprogressi":3546,"Ġimpos":3547,"Ġanciens":3548,"Ġautom":3549,"ĠtempÃ©ra":3550,"Ġsommet":3551,"alistes":3552,"ĠprÃ©cis":3553,"Ġregr":3554,"ĠgÃ©nÃ©rale":3555,"ĠvÃ©ritable":3556,"Ġdiffus":3557,"ĠDieu":3558,"Ġexc":3559,"Ġsauv":3560,"ĠÃ©cl":3561,"auteur":3562,"ĠvÃ©":3563,"Ġmas":3564,"olf":3565,"phÃ¨re":3566,"ings":3567,"Ġradi":3568,"ĠMer":3569,"Ġextra":3570,"estival":3571,"Ġlieux":3572,"Ġsoient":3573,"ĠMalgrÃ©":3574,"lissement":3575,"Ġdevenir":3576,"ĠJuifs":3577,"appar":3578,"entraÃ®":3579,"Ġconcep":3580,"ĠrÃ©alise":3581,"ĠBal":3582,"oud":3583,"ĠbÃ¢timent":3584,"Ġparce":3585,"ĠpiÃ¨ce":3586,"ĠBern":3587,"organisation":3588,"Ã´tel":3589,"Ġexplique":3590,"ury":3591,"ĠarrÃª":3592,"Ġnote":3593,"ano":3594,"ĠinfÃ©ri":3595,"rire":3596,"Ġsavoir":3597,"Ġprincipale":3598,"Ġlettre":3599,"Ġred":3600,"Ġfront":3601,"ĠmÃ©dec":3602,"ĠmÃ¢":3603,"Ġolympiques":3604,"ĠStar":3605,"Ġmeilleure":3606,"Ġcontempor":3607,"Ġ&":3608,"ĠactivitÃ©s":3609,"ĠpropriÃ©t":3610,"ĠNouvelle":3611,"198":3612,"sui":3613,"prise":3614,"ĠÃ©lev":3615,"ĠÃ©limin":3616,"quet":3617,"lÃ¨ve":3618,"anisme":3619,"ĠPress":3620,"ĠSes":3621,"ĠThomas":3622,"Ã©quip":3623,"Ġlo":3624,"Ã©tab":3625,"itement":3626,"Ġpied":3627,"Ġocc":3628,"duction":3629,"avantage":3630,"ĠsiÃ¨cles":3631,"Ouest":3632,"ĠTr":3633,"uy":3634,"ĠCap":3635,"Ġdivis":3636,"Ġ31":3637,"Ġliber":3638,"ĠBl":3639,"risti":3640,"stitu":3641,"Ġdispose":3642,"ĠthÃ©Ã¢tre":3643,"ĠhÃ©ros":3644,"fication":3645,"Ġprotection":3646,"Ġfavor":3647,"Ġnos":3648,"intÃ©rieur":3649,"fice":3650,"occup":3651,"cis":3652,"ĠMichael":3653,"ypoth":3654,"Ġcontribu":3655,"ibles":3656,"jou":3657,"Ġlum":3658,"ĠbÃ¢timents":3659,"Ġsing":3660,"ducation":3661,"sh":3662,"ĠElles":3663,"Ġtrouvent":3664,"ĠproblÃ¨me":3665,"ĠdÃ©cision":3666,"Ġpermis":3667,"ga":3668,"azine":3669,"ĠCour":3670,"Ġlaisse":3671,"ĠrÃ©alitÃ©":3672,"fique":3673,"ection":3674,"rale":3675,"Ġpoursui":3676,"ĠCro":3677,"Ġdirecteur":3678,"Ã¨ge":3679,"glise":3680,"Ġpaix":3681,"ling":3682,"Ã©tat":3683,"ĠCet":3684,"Ġhaute":3685,"ary":3686,"Ġrestaur":3687,"ĠprocÃ©d":3688,"Ġveut":3689,"jectif":3690,"Ġobjets":3691,"Ã¤":3692,"met":3693,"duite":3694,"ĠJack":3695,"ĠÃ©tat":3696,"ĠsÃ©ries":3697,"Ġbal":3698,"ave":3699,"ueil":3700,"oti":3701,"ĠdÃ©faite":3702,"ĠUnivers":3703,"olk":3704,"ĠVII":3705,"influence":3706,"ĠpropriÃ©tÃ©":3707,"Ġmoderne":3708,"Ġenne":3709,"ĠreprÃ©sentant":3710,"Ġnorm":3711,"Ġtechniques":3712,"ignement":3713,"emb":3714,"Ġ1996":3715,"iÃ©e":3716,"Uni":3717,"Ġcircul":3718,"chÃ©e":3719,"Ġ1997":3720,"Ġsorte":3721,"Ġvictoires":3722,"ĠSer":3723,"Ġpartis":3724,"Ġconduit":3725,"rot":3726,"Ġneuf":3727,"gan":3728,"ĠClub":3729,"Ġmeilleurs":3730,"Ġfortement":3731,"Ġconnue":3732,"alisme":3733,"rup":3734,"Ġlois":3735,"Ġscul":3736,"iennes":3737,"illon":3738,"ĠcomposÃ©":3739,"ĠcrÃ©er":3740,"ĠJames":3741,"Ġtradition":3742,"Jean":3743,"ĠdÃ©cor":3744,"Ġmembre":3745,"Ġpopulations":3746,"Ġsex":3747,"ĠrÃ©gime":3748,"ĠAlexand":3749,"chent":3750,"Ã´me":3751,"Ġsaint":3752,"don":3753,"Ġvoire":3754,"Ġ/":3755,"ĠMartin":3756,"ministration":3757,"Ġdipl":3758,"archite":3759,"omin":3760,"ctures":3761,"Ġinstitu":3762,"ĠmaÃ®tre":3763,"Ġ60":3764,"ĠMil":3765,"Ġchansons":3766,"Ġsang":3767,"rac":3768,"ĠPhilippe":3769,"ĠcapacitÃ©":3770,"indi":3771,"Ġ1995":3772,"oncÃ©":3773,"Ġtransf":3774,"ĠcatÃ©g":3775,"ĠmarchÃ©":3776,"uisse":3777,"Ġcontrat":3778,"reuves":3779,"Ã©tude":3780,"Ġinternationale":3781,"ĠÃ®les":3782,"ĠimmÃ©di":3783,"rim":3784,"ands":3785,"Ġconsomm":3786,"matique":3787,"Ġsigne":3788,"Ġcondam":3789,"ĠDon":3790,"Ġscore":3791,"Ġrejoint":3792,"Ġtient":3793,"Ġtableau":3794,"Ġchacun":3795,"ĠBourg":3796,"raient":3797,"verse":3798,"Ġcroiss":3799,"ĠamÃ©li":3800,"Ġmoteur":3801,"ĠBon":3802,"olas":3803,"ica":3804,"ics":3805,"anmoins":3806,"Ġgard":3807,"Ġoise":3808,"tor":3809,"ĠnÃ©anmoins":3810,"Ġadministra":3811,"ications":3812,"arition":3813,"ĠJoseph":3814,"ĠLo":3815,"Ġtaux":3816,"Ġtitres":3817,"ive":3818,"cÃ©e":3819,"Ġâ":3820,"ĠMag":3821,"Ġroyale":3822,"Ġinstru":3823,"hiver":3824,"dent":3825,"ĠFre":3826,"Ġprofonde":3827,"Ġdiverses":3828,"inÃ©":3829,"car":3830,"ola":3831,"estre":3832,"ĠGen":3833,"ultÃ©s":3834,"tiennent":3835,"Ġproven":3836,"ĠLib":3837,"Ġmy":3838,"ington":3839,"pin":3840,"Ġcourant":3841,"itÃ©e":3842,"ctes":3843,"Ġrevanche":3844,"osent":3845,"Ġriches":3846,"ĠdÃ©cid":3847,"Ġreli":3848,"und":3849,"Ġdistribu":3850,"Ġ1950":3851,"Ġtre":3852,"hou":3853,"Ġpub":3854,"gÃ©e":3855,"Ġnob":3856,"aves":3857,"Ġcam":3858,"Ġjuste":3859,"espace":3860,"Ġmati":3861,"Ġhors":3862,"24":3863,"ĠphÃ©n":3864,"andes":3865,"Ġessentiellement":3866,"Ġtente":3867,"ĠarchÃ©":3868,"ergie":3869,"ĠsÃ©curitÃ©":3870,"gique":3871,"ĠRh":3872,"Ġtest":3873,"mblÃ©e":3874,"uf":3875,"Ġsoi":3876,"Ġjuge":3877,"Ġchapelle":3878,"ĠintÃ©g":3879,"Ġ1994":3880,"ĠrÃ©cit":3881,"ĠLuc":3882,"AS":3883,"install":3884,"rÃ©sil":3885,"27":3886,"Ġhar":3887,"Ãīglise":3888,"ĠconÃ§":3889,"lication":3890,"Ġsurn":3891,"endemain":3892,"wn":3893,"ĠKh":3894,"Ġcourt":3895,"Ġfant":3896,"Ġoffre":3897,"ĠrÃ©guliÃ¨rement":3898,"cÃ©":3899,"gent":3900,"arer":3901,"ctu":3902,"intendo":3903,"ĠVict":3904,"Ġ35":3905,"uelle":3906,"Ġcapitaine":3907,"riers":3908,"Ġreligieux":3909,"Ġutilise":3910,"ĠMin":3911,"ĠLigue":3912,"Ġquitte":3913,"Ġsuivi":3914,"ĠarmÃ©e":3915,"Ġcandi":3916,"Ġpierre":3917,"Ġphase":3918,"ĠprÃ©d":3919,"Ġguer":3920,"bor":3921,"ĠJus":3922,"Ġpor":3923,"apolÃ©on":3924,"ĠGeorges":3925,"ĠComp":3926,"Ġlendemain":3927,"Ġstudio":3928,"histor":3929,"Ġ1992":3930,"roid":3931,"Ġdevait":3932,"Ġservices":3933,"monie":3934,"own":3935,"orer":3936,"cier":3937,"Ġquin":3938,"Ġami":3939,"ĠvolontÃ©":3940,"quÃ©es":3941,"utilisation":3942,"ĠthÃ©or":3943,"onie":3944,"moine":3945,"Ġrevient":3946,"ĠNintendo":3947,"Ġancienne":3948,"29":3949,"raine":3950,"ĠAlors":3951,"ipp":3952,"ize":3953,"Ġbout":3954,"Ġconstr":3955,"ĠcÃ´tÃ©s":3956,"chÃ©s":3957,"Histoire":3958,"Ġyeux":3959,"ĠAt":3960,"oub":3961,"avait":3962,"Ġidentif":3963,"Ġdynas":3964,"tÃ©e":3965,"Ġvoi":3966,"Ġgraph":3967,"ĠthÃ©orie":3968,"75":3969,"entiel":3970,"Ġallemande":3971,"23":3972,"igh":3973,"Ġcollec":3974,"ustrie":3975,"ward":3976,"Ġsites":3977,"Ġcollab":3978,"ĠMet":3979,"Ã©rences":3980,"Ġunique":3981,"Ġexcl":3982,"Ã©levage":3983,"Ġsouverain":3984,"ĠconsidÃ©ra":3985,"ĠParmi":3986,"ustralie":3987,"Ġphilosoph":3988,"Ġsecteur":3989,"}\"":3990,"auc":3991,"Ã©nie":3992,"28":3993,"ĠCo":3994,"existence":3995,"Ġdest":3996,"Ġtemple":3997,"ĠthÃ¨me":3998,"lent":3999,"Ġap":4000,"ĠÃ©criv":4001,"Ġaspect":4002,"ĠstratÃ©g":4003,"Ġconcur":4004,"lÃł":4005,"ĠEx":4006,"image":4007,"Ġvainque":4008,"exploit":4009,"Ġgarde":4010,"Ġmaxim":4011,"Ġprofond":4012,"Ġespagn":4013,"bel":4014,"atre":4015,"accord":4016,"Ġtrente":4017,"ĠÃ©di":4018,"ĠCela":4019,"Ġfus":4020,"Ġparents":4021,"Ġcm":4022,"riques":4023,"Ġgare":4024,"ĠSim":4025,"trÃ©":4026,"onique":4027,"ĠDÃ¨s":4028,"Ġprincipales":4029,"ĠdÃ©finiti":4030,"ĠGi":4031,"Ġexploit":4032,"arque":4033,"ĠcÃ©lÃ¨bre":4034,"ĠBos":4035,"Ġrasse":4036,"ĠGl":4037,"26":4038,"chement":4039,"Ġsemaine":4040,"oirs":4041,"ĠÃ©volu":4042,"ĠStra":4043,"roy":4044,"Ġpourtant":4045,"Ġchute":4046,"ĠTom":4047,"Ġdimin":4048,"ĠKar":4049,"Ġhauteur":4050,"fr":4051,"Ġindividu":4052,"onge":4053,"Ġfaci":4054,"Ġcre":4055,"ĠChine":4056,"ker":4057,"oses":4058,"oÃ¯":4059,"ĠforÃªt":4060,"tÃ©rieure":4061,"Ġlettres":4062,"Ġmoin":4063,"Ã©rÃ©s":4064,"ĠSta":4065,"ight":4066,"her":4067,"Ġpap":4068,"ttom":4069,"oleil":4070,"Ġdispon":4071,"Ġaliment":4072,"Ġpiste":4073,"Ġbyz":4074,"ray":4075,"ĠdÃ©couverte":4076,"ulg":4077,"my":4078,"ĠWil":4079,"Ġprofit":4080,"Ġrelativement":4081,"ousse":4082,"Ġcrise":4083,"Ġseigne":4084,"Ġmanifest":4085,"Cette":4086,"Ġcop":4087,"Ġculte":4088,"ĠForm":4089,"ĠnÃ©goci":4090,"ĠÃ©tape":4091,"loi":4092,"gyp":4093,"telle":4094,"Ġchron":4095,"Ġremont":4096,"Ġconvain":4097,"âĢİ":4098,"hÃ©m":4099,"ficie":4100,"hic":4101,"Ġcouleurs":4102,"Ġchant":4103,"ĠapprÃ©":4104,"ĠPays":4105,"enses":4106,"Ġmorts":4107,"Ġjaponais":4108,"Ġ2018":4109,"Ġolympique":4110,"Ġsouhait":4111,"Ã©tiques":4112,"ĠÃ©vÃ©nements":4113,"ĠÃ©dition":4114,"absence":4115,"ĠGame":4116,"ĠRussie":4117,"Ġsit":4118,"Union":4119,"Ġfrag":4120,"ources":4121,"chi":4122,"uer":4123,"iÃ©s":4124,"21":4125,"Ġphysique":4126,"airement":4127,"Ġlongueur":4128,"ĠHol":4129,"ĠscÃ¨nes":4130,"va":4131,"orter":4132,"rons":4133,"Ġconcernant":4134,"Ġlaiss":4135,"ĠBretagne":4136,"Ġpublie":4137,"Ġcomte":4138,"ĠjournÃ©e":4139,"Ġproches":4140,"Ġclassique":4141,"ĠCent":4142,"ĠrÃ©serv":4143,"Ã©tend":4144,"uff":4145,"Ġeaux":4146,"ĠSeconde":4147,"âĢĵ":4148,"Ġnu":4149,"ĠdonnÃ©es":4150,"Ġdevenu":4151,"At":4152,"we":4153,"ĠSav":4154,"Ġhabitu":4155,"Ġmagn":4156,"abeth":4157,"Ġ1930":4158,"leur":4159,"Ġminist":4160,"Ġsuffis":4161,"ĠNational":4162,"Ġsert":4163,"ague":4164,"Ġpetites":4165,"ĠcomposÃ©e":4166,"Ġspor":4167,"oÃ®":4168,"usement":4169,"Ġpolice":4170,"ĠtournÃ©e":4171,"Ã©der":4172,"tiens":4173,"administration":4174,"ĠscÃ©nario":4175,"Ġpermettre":4176,"ĠCons":4177,"ormes":4178,"ĠrÃ©cup":4179,"ĠcÃ´te":4180,"ura":4181,"Ã©sie":4182,"ĠMoyen":4183,"trÃªme":4184,"ĠMaur":4185,"Ġrefuse":4186,"lire":4187,"Ãªtres":4188,"ĠNor":4189,"pital":4190,"ata":4191,"Ġatti":4192,"ĠespÃ¨ce":4193,"ament":4194,"ĠBeau":4195,"Ã©rÃ©e":4196,"Ġlocaux":4197,"Ġchante":4198,"Ġpron":4199,"Ġhistoriques":4200,"ĠfrÃ©qu":4201,"Ġ300":4202,"ticles":4203,"ark":4204,"Ġpuisqu":4205,"ĠutilisÃ©e":4206,"ĠnumÃ©ro":4207,"ĠlibertÃ©":4208,",âĢİ":4209,"Ġtend":4210,"enu":4211,"Ġpense":4212,"Ġrelation":4213,"ĠlittÃ©rature":4214,"mÃ©di":4215,"ogne":4216,"ault":4217,"Ġaffirme":4218,"ives":4219,"Ġ1993":4220,"Ġlocale":4221,"na":4222,"Ġfid":4223,"Ġdouze":4224,"ĠFC":4225,"uter":4226,"Ġtombe":4227,"Ã¨tes":4228,"ĠsantÃ©":4229,"Ġquas":4230,"Ġdiscours":4231,"ĠCas":4232,"cupe":4233,"ĠdÃ©veloppe":4234,"Ġvoiture":4235,"ĠPat":4236,"ĠDurant":4237,"ĠcontrÃ´":4238,"tures":4239,"ĠSan":4240,"Ġprovince":4241,"ĠcinquiÃ¨me":4242,"Ġdimen":4243,"Ġ1991":4244,"Ġposi":4245,"rÃ©t":4246,"Ġcanadi":4247,"rou":4248,"ĠSuper":4249,"Espagne":4250,"Ġperdu":4251,"ĠPol":4252,"Ġindique":4253,"Ġlutte":4254,"Ġplaces":4255,"tig":4256,"Ġrestent":4257,"espÃ¨ce":4258,"ĠDan":4259,"ĠdÃ»":4260,"illaume":4261,"Ġsecondes":4262,"Ġsugg":4263,"oids":4264,"lerie":4265,"ĠÃ©tude":4266,"Ġprennent":4267,"ĠdÃ©roule":4268,"Ġcontinent":4269,"Ġsh":4270,"Ġoblig":4271,"Ġenvers":4272,"dou":4273,"Ġenvis":4274,"ĠCal":4275,"Ġmonument":4276,"Ġcra":4277,"ĠRos":4278,"Ġarmes":4279,"Ġflotte":4280,"onyme":4281,"rise":4282,"ĠdurÃ©e":4283,"Ġcollection":4284,"ĠDepuis":4285,"Ġsociale":4286,"Ġprati":4287,"ĠrÃ©sultat":4288,"ĠXVIIe":4289,"chec":4290,"Ã©bec":4291,"ĠrÃª":4292,"Ġnoms":4293,"ĠchaÃ®ne":4294,"Ã©die":4295,"Ġnouvel":4296,"65":4297,"US":4298,"ĠrÃ©t":4299,"ommage":4300,"intÃ©rÃªt":4301,"Pierre":4302,"Ġcompris":4303,"honneur":4304,"ĠtÃ´t":4305,"ĠBri":4306,"ty":4307,"Ġparall":4308,"ĠsupplÃ©ment":4309,"Ġ80":4310,"Ġ45":4311,"Ġsport":4312,"Ġtermes":4313,"Ã©rie":4314,"ĠprÃ©sents":4315,"Ġfinit":4316,"ĠÃ©pisode":4317,"sements":4318,"seil":4319,"35":4320,"paravant":4321,"ĠphÃ©nom":4322,"wood":4323,"Ġspectac":4324,"Cl":4325,"Ã©ritÃ©":4326,"iblioth":4327,"90":4328,"Ġlour":4329,"atifs":4330,"Ġuniquement":4331,"Ãīc":4332,"Ġnotre":4333,"rient":4334,"Ġorgan":4335,"ĠfaÃ§":4336,"Ġdos":4337,"ĠÃĤ":4338,"way":4339,"Ġconver":4340,"no":4341,"ĠcollÃ¨":4342,"nov":4343,"ĠrÃ©aliser":4344,"ĠCelui":4345,"bon":4346,"pol":4347,"ĠTrois":4348,"45":4349,"iciens":4350,"Ġmentionn":4351,"quin":4352,"Ġmaisons":4353,"ĠriviÃ¨re":4354,"delÃł":4355,"Ġtelles":4356,"ĠentiÃ¨rement":4357,"Ġgla":4358,"mann":4359,"isser":4360,"Ġbron":4361,"aune":4362,"Ġgens":4363,"Ġarticle":4364,"Ġdiscip":4365,"Ã©mie":4366,"mond":4367,"Ġtours":4368,"Ġimportants":4369,"Afrique":4370,"Ġsuit":4371,"ĠPrin":4372,"ĠsupÃ©rieur":4373,"Ġarchite":4374,"cessus":4375,"ĠvÃ©hic":4376,"ĠcÃ©lÃ©":4377,"Ġpilote":4378,"ycl":4379,"venir":4380,"ĠFl":4381,"onte":4382,"illÃ©":4383,"aris":4384,"ĠcaractÃ©ristiques":4385,"ĠrÃ©serve":4386,"Ġfu":4387,"activitÃ©":4388,"ieuses":4389,"asser":4390,"ayer":4391,"ĠdÃ©cis":4392,"ĠdifficultÃ©s":4393,"otion":4394,"Ġlatin":4395,"osant":4396,"rick":4397,"Ġmoyens":4398,"On":4399,"Ã©ran":4400,"Ġrencontres":4401,"Ġnaturelle":4402,"Ġexplo":4403,"Ġseuls":4404,"line":4405,"Ġjui":4406,"sie":4407,"itan":4408,"ĠimmÃ©diate":4409,"Ġquoti":4410,"ĠdÃ©li":4411,"ĠSuisse":4412,"ival":4413,"Ã¨dent":4414,"Ġexpli":4415,"ĠeuropÃ©enne":4416,"Ġpois":4417,"Ġpauv":4418,"oyer":4419,"Ġmesures":4420,"ĠfrÃ¨res":4421,"Ġath":4422,"Ġtransp":4423,"tim":4424,"erson":4425,"ople":4426,"Qu":4427,"Ġprocessus":4428,"ĠcrÃ©Ã©e":4429,"Ġsovi":4430,"Ġmyth":4431,"Ġvon":4432,"Ġsensi":4433,"umes":4434,"Ġlesquels":4435,"ĠBas":4436,"Ġtrain":4437,"orld":4438,"Ġsaisons":4439,"Ġappro":4440,"cer":4441,"Ġimportantes":4442,"ral":4443,"attaque":4444,"âĢĶ":4445,"Ãªts":4446,"ols":4447,"Ġpropres":4448,"Ġinfluence":4449,"Ġfamilles":4450,"Ġmagazine":4451,"ulation":4452,"Ġfutur":4453,"Ġmauvais":4454,"ora":4455,"tein":4456,"ĠintitulÃ©":4457,"mos":4458,"ĠConseil":4459,"the":4460,"actu":4461,"Ġformes":4462,"Ġdemeure":4463,"avec":4464,"nÃ©e":4465,"cule":4466,"Ġpression":4467,"gin":4468,"ister":4469,"ĠrÃ©parti":4470,"Ġlire":4471,"ĠGar":4472,"Ġparois":4473,"ĠPendant":4474,"onse":4475,"Ġaccueilli":4476,"Ġcentral":4477,"ory":4478,"emple":4479,"ĠAngl":4480,"ĠÃ©tablis":4481,"Ġcomplexe":4482,"Ġchose":4483,"ĠfranÃ§aises":4484,"Ġcouple":4485,"Ġregard":4486,"Ġmots":4487,"ĠMary":4488,"ĠrÃ©public":4489,"ĠplanÃ¨te":4490,"Ġavanc":4491,"Ġdistance":4492,"Ġreine":4493,"tionnaire":4494,"Ġpoids":4495,"ĠBou":4496,"Ġterritoires":4497,"ek":4498,"Ġrecherches":4499,"Ġenregist":4500,"ĠReich":4501,"Ġgaz":4502,"ĠutilisÃ©s":4503,"ĠPlusieurs":4504,"archie":4505,"opÃ©ration":4506,"ĠWar":4507,"irent":4508,"hors":4509,"ilisation":4510,"Ġfit":4511,"Ġbe":4512,"ĠCertains":4513,"ĠmÃªmes":4514,"Ġgrav":4515,"ologue":4516,"dia":4517,"Ġbre":4518,"Ġscientifique":4519,"Ġreconst":4520,"Ġpersonnel":4521,"Ġspati":4522,"Ġofficiellement":4523,"Ã©pendance":4524,"ĠVen":4525,"Ġpeintre":4526,"ren":4527,"Ġpape":4528,"Ġheure":4529,"Ġrares":4530,"udg":4531,"Ġmention":4532,"Ġaccus":4533,"ĠBay":4534,"Ġbloc":4535,"ĠBritann":4536,"ĠreÃ§u":4537,"tur":4538,"Ġfour":4539,"ĠCamb":4540,"Ġ178":4541,"ĠbÃ©nÃ©f":4542,"Ġamp":4543,"ĠtÃ©lÃ©vision":4544,"oÃ¹":4545,"Ġfaveur":4546,"Ã©anmoins":4547,"Ġcontexte":4548,"Ġadvers":4549,"Ġartistes":4550,"ĠamÃ©ricains":4551,"Ġpouvant":4552,"Ġbate":4553,"ĠactivitÃ©":4554,"Ġautoris":4555,"Ġ1989":4556,"Ġcab":4557,"ĠÃ©lections":4558,"importance":4559,"Ġdrape":4560,"Ġprivil":4561,"Ġprogressivement":4562,"Ġresse":4563,"67":4564,"Ġ1988":4565,"orb":4566,"ĠBill":4567,"ĠrÃ©comp":4568,"Ġrejoindre":4569,"Ġvoies":4570,"Ġvont":4571,"Ġcommandant":4572,"Ġ1920":4573,"Ġpoursu":4574,"ĠHer":4575,"Ġcant":4576,"iant":4577,"ancienne":4578,"Ġclubs":4579,"isode":4580,"Ġrat":4581,"ores":4582,"Ġnul":4583,"ceau":4584,"aure":4585,"Ġ1940":4586,"ĠÃ©levÃ©":4587,"Ġdoub":4588,"Ġraisons":4589,"Ġspectateurs":4590,"ĠVer":4591,"ĠPremiÃ¨re":4592,"ĠRed":4593,"Ġryth":4594,"ĠexÃ©cu":4595,"ĠVictor":4596,"ĠÃĤge":4597,"ĠsÅĵur":4598,"ĠspÃ©cialis":4599,"Ġoiseaux":4600,"esprit":4601,"positions":4602,"Ġmach":4603,"ĠdÃ©ch":4604,"ĠBru":4605,"laires":4606,"Ġglace":4607,"ĠAss":4608,"Ġlimite":4609,"ĠBat":4610,"Ġsitue":4611,"Ġexcep":4612,"ĠPhil":4613,"iance":4614,"Ġ400":4615,"Ġpouvait":4616,"ĠmatiÃ¨re":4617,"liers":4618,"forme":4619,"Ġeffets":4620,"onnÃ©":4621,"ĠreprÃ©sentation":4622,"Ġgestion":4623,"Ġrespectivement":4624,"ĠmÃ©tro":4625,"Ġmm":4626,"van":4627,"Ġquanti":4628,"Ġouvert":4629,"ĠSainte":4630,"Ġamis":4631,"ĠThÃ©":4632,"Ġbour":4633,"Ġprincipe":4634,"lymp":4635,"ritÃ©":4636,"ĠMario":4637,"Ġcourses":4638,"Ġoriginale":4639,"Ġconception":4640,"Ġprisonn":4641,"Ġchangement":4642,"ĠMa":4643,"ĠrÃ©d":4644,"ĠsupÃ©rieure":4645,"Ex":4646,"Ġpeine":4647,"Ġreligion":4648,"animation":4649,"Ġmasse":4650,"Ġbesoin":4651,"Ġrusse":4652,"ĠtrÃ´ne":4653,"Ġinaug":4654,"pole":4655,"ĠBelgique":4656,"ĠautoritÃ©s":4657,"Ġsouv":4658,"Ġcombats":4659,"Ġconstruire":4660,"riche":4661,"Ġha":4662,"lige":4663,"Ġadul":4664,"ĠEm":4665,"ords":4666,"ĠHenry":4667,"ĠrÃ©di":4668,"ĠBlac":4669,"Ġatteindre":4670,"ĠAngel":4671,"da":4672,"Ġtal":4673,"Ġ2019":4674,"Ġmine":4675,"ommÃ©":4676,"Ġmajor":4677,"pire":4678,"ĠarmÃ©es":4679,"Ġmass":4680,"ĠcrÃ©e":4681,"Ġfranc":4682,"Ġpatrimoine":4683,"Ġdynastie":4684,"Ġparle":4685,"Ġouvrage":4686,"Ġscol":4687,"Ġacqu":4688,"Ġdivin":4689,"exploitation":4690,"Ġfun":4691,"ĠJane":4692,"Ġportant":4693,"Ġrelie":4694,"ĠGuillaume":4695,"Ã©preuve":4696,"Ġpublication":4697,"ĠdÃ©v":4698,"ĠKing":4699,"Ġconcours":4700,"ĠremplacÃ©":4701,"47":4702,"ĠAugus":4703,"Ġresponsable":4704,"Ġreprise":4705,"astique":4706,"ino":4707,"Â°":4708,"Ġbel":4709,"ĠTim":4710,"Ġhistoriens":4711,"Ġmains":4712,"itz":4713,"ilm":4714,"field":4715,"ĠfrontiÃ¨re":4716,"ĠQuel":4717,"Ġve":4718,"Ġchin":4719,"Ġcos":4720,"ĠQuÃ©bec":4721,"Con":4722,"Ġfleu":4723,"Ġabs":4724,"ather":4725,"ĠUniversity":4726,"rÃ©g":4727,"olie":4728,"amour":4729,"Ġmatin":4730,"Ġaccueille":4731,"ĠHam":4732,"Ġattaque":4733,"Ġsouhaite":4734,"Ġdur":4735,"altitude":4736,"Ġvent":4737,"itent":4738,"Ġbassin":4739,"ĠmarquÃ©":4740,"Ġromaine":4741,"tell":4742,"indÃ©pendance":4743,"\"âĢĶ":4744,"arre":4745,"ĠNorm":4746,"Ġdiss":4747,"Ã©dÃ©ration":4748,"Ġprojets":4749,"atrice":4750,"Ġsection":4751,"195":4752,"arie":4753,"ĠentraÃ®ne":4754,"cevoir":4755,"Ġgagne":4756,"Ġobtenir":4757,"industrie":4758,"ernes":4759,"ĠRog":4760,"Ġsculp":4761,"pes":4762,"Ġtop":4763,"Ġbasse":4764,"Ġprincesse":4765,"48":4766,"ĠBob":4767,"Ġhom":4768,"tements":4769,"Ġvolcan":4770,"uscrit":4771,"43":4772,"ĠÃ©voque":4773,"ĠNapolÃ©on":4774,"Ġ70":4775,"ĠchargÃ©":4776,"agÃ©e":4777,"Ġcircu":4778,"Ġcru":4779,"ĠMat":4780,"gÃ©n":4781,"ĠjouÃ©":4782,"gypte":4783,"ĠRÃ©volution":4784,"llemand":4785,"Åĵurs":4786,"tionnelle":4787,"Ġauparavant":4788,"ish":4789,"Ġbronze":4790,"ĠLÃ©on":4791,"Ġdiver":4792,"Ġchau":4793,"ĠLille":4794,"ĠEt":4795,"Ġprofesse":4796,"uration":4797,"isl":4798,"Ġbudg":4799,"68":4800,"ĠDou":4801,"ĠVi":4802,"Ġfaits":4803,"63":4804,"Ġtrou":4805,"ĠFrank":4806,"ayant":4807,"Ġsocial":4808,"Ġsusp":4809,"Ġgui":4810,"autom":4811,"abbaye":4812,"Ġavi":4813,"ĠLiv":4814,"ĠBrÃ©sil":4815,"ĠaÃ©ri":4816,"Ġsporti":4817,"ĠdÃ©roul":4818,"ĠÃ©pisodes":4819,"Ġvainqueur":4820,"Ġmouvements":4821,"ĠÎ":4822,"ama":4823,"Ġconcent":4824,"ĠappelÃ©e":4825,"anique":4826,"ĠmatÃ©riel":4827,"Ġvoc":4828,"Ġassi":4829,"ĠpossibilitÃ©":4830,"Ã©conomie":4831,"ribue":4832,"ĠconsidÃ©rÃ©e":4833,"Ġajoute":4834,"Ph":4835,"Ġcroise":4836,"ĠPortail":4837,"Ġfavoris":4838,"Ġglob":4839,"auss":4840,"ĠAg":4841,"ĠAth":4842,"Ġdomes":4843,"Ġnobles":4844,"Ġcoupe":4845,"Ġvision":4846,"ĠrÃ©vol":4847,"heure":4848,"Ġmenace":4849,"ago":4850,"ĠdÃ©mocra":4851,"Ġniveaux":4852,"rÃ©d":4853,"ĠMax":4854,"Ġdiv":4855,"Depuis":4856,"ustrali":4857,"arts":4858,"ĠCont":4859,"ĠBan":4860,"ĠdÃ©mont":4861,"Ġvesti":4862,"agent":4863,"Ã©pisode":4864,"Ġtotale":4865,"Ġmalad":4866,"Ġintrodu":4867,"Bretagne":4868,"eries":4869,"imm":4870,"tionnel":4871,"ypothÃ¨se":4872,"ĠrÃ©alisation":4873,"ĠlumiÃ¨re":4874,"Ġchiff":4875,"guer":4876,"Ġchambre":4877,"fred":4878,"kh":4879,"Ġpi":4880,"ĠAngleterre":4881,"obile":4882,"Ġpassant":4883,"Ġcaus":4884,"ĠfrÃ©quent":4885,"nÃ©es":4886,"ĠidÃ©":4887,"Ġbure":4888,"ĠdÃ©cenn":4889,"aliforn":4890,"uz":4891,"ĠcoÃ»":4892,"Ġnaturel":4893,"Ġprotest":4894,"je":4895,"Ġhos":4896,"ĠXVIe":4897,"Ġfonctionn":4898,"Ġpoursuit":4899,"ider":4900,"sons":4901,"Ġpeint":4902,"ĠLor":4903,"ĠdiffÃ©rence":4904,"Ġanciennes":4905,"titution":4906,"ĠdÃ©clin":4907,"Ġdehors":4908,"Ġcomposition":4909,"ĠbÃ©nÃ©fici":4910,"Ġvite":4911,"kin":4912,"ĠEr":4913,"Ġbritanniques":4914,"Ġfrancs":4915,"197":4916,"Ġfrapp":4917,"intÃ©g":4918,"Ġofficiel":4919,"fort":4920,"ĠidÃ©es":4921,"mission":4922,"tiÃ¨res":4923,"ĠTou":4924,"ĠAllemagne":4925,"Ġentreprises":4926,"Ġenfant":4927,"ĠÃ©tabli":4928,"Ġ1986":4929,"oiles":4930,"ĠSy":4931,"ĠprocÃ¨s":4932,"Ġcivi":4933,"Th":4934,"Ġrele":4935,"Ġportes":4936,"Selon":4937,"Ã©nergie":4938,"Ġconnaissance":4939,"Ġparticipation":4940,"ockey":4941,"Ġhumaine":4942,"gÃ©s":4943,"Ġscientifiques":4944,"Ġtypes":4945,"Plus":4946,"rence":4947,"ĠGra":4948,"37":4949,"Ġvivant":4950,"Ġmanuscrit":4951,"Ad":4952,"ĠrÃ©vÃ¨le":4953,"ĠbÃ©nÃ©":4954,"ski":4955,"Ġottom":4956,"Ġquart":4957,"Ġ1945":4958,"cre":4959,"lantique":4960,"Ġfi":4961,"olue":4962,"ĠCong":4963,"Ġpleine":4964,"ĠÃ©preuves":4965,"tellig":4966,"fier":4967,"ĠNÃ©anmoins":4968,"ĠWorld":4969,"usage":4970,"64":4971,"annÃ©es":4972,"Ġvia":4973,"ĠÃ©lÃ¨":4974,"tait":4975,"vidus":4976,"Ġdavantage":4977,"Ã©lection":4978,"nÃ©s":4979,"Ã©gÃ©t":4980,"Ġplein":4981,"85":4982,"utÃ©s":4983,"39":4984,"ĠÂ°":4985,"ĠScott":4986,"range":4987,"ĠXX":4988,"ĠXIV":4989,"{\\":4990,"inq":4991,"ĠprÃ©cise":4992,"FA":4993,"Ġprintemps":4994,"riculture":4995,"Ġriche":4996,"ĠmÃ©daille":4997,"Ġcommandement":4998,"cesseur":4999,"atures":5000,"Ġvir":5001,"ĠrÃ©giment":5002,"ĠrÃ©alisÃ©e":5003,"Ġ150":5004,"ĠRac":5005,"ĠParti":5006,"Ġrejet":5007,"Ġloge":5008,"itt":5009,"ophe":5010,"Ġquoi":5011,"Ġcontient":5012,"utation":5013,"Ġjustice":5014,"ĠNav":5015,"ĠAlbert":5016,"Ġ1944":5017,"Ġplateau":5018,"Ġfamili":5019,"inn":5020,"atoires":5021,"Ġ1968":5022,"ibliothÃ¨que":5023,"ĠMark":5024,"Ġremet":5025,"Ã©lect":5026,"unn":5027,"Ġvaste":5028,"ĠPeter":5029,"dium":5030,"Ġboule":5031,"enseignement":5032,"And":5033,"Ġconstruite":5034,"Ġmaire":5035,"AmÃ©rique":5036,"Ġdieu":5037,"anges":5038,"Ġlangues":5039,"Ġpouss":5040,"Ġbras":5041,"itude":5042,"Ġouvrages":5043,"ĠFrancis":5044,"Ġ1987":5045,"ĠvÃ©gÃ©t":5046,"Ġtravailler":5047,"ĠtÃ©lÃ©vis":5048,"Ġvente":5049,"abri":5050,"lÃ©e":5051,"Ġpilotes":5052,"ĠRay":5053,"Ġdiplom":5054,"mant":5055,"ĠamÃ©n":5056,"ji":5057,"clam":5058,"Ġtotalement":5059,"ĠBur":5060,"Ġfilles":5061,"Ġtournoi":5062,"yg":5063,"ĠPeu":5064,"ĠÃ©lÃ©ment":5065,"agers":5066,"Ġperman":5067,"Ġmenac":5068,"ĠAnt":5069,"Ġaffaires":5070,"ĠItalie":5071,"Ġblanche":5072,"ĠMo":5073,"Ġmassif":5074,"Ġfleuve":5075,"ĠdÃ©di":5076,"liz":5077,"Ġ90":5078,"mitÃ©":5079,"Ġprim":5080,"duisent":5081,"autant":5082,"Ġparcours":5083,"ĠLyon":5084,"Ġlic":5085,"ĠsÃ©j":5086,"Ġprises":5087,"Ġfonctions":5088,"Ã©si":5089,"anth":5090,"ĠunitÃ©s":5091,"Ġrappel":5092,"habit":5093,"ĠSmith":5094,"ĠcÃ©lÃ©b":5095,"Ġsuccessi":5096,"Ass":5097,"Ĥ¬":5098,"Ġparler":5099,"ĠdÃ©buts":5100,"Ġmonuments":5101,"ĠÃ©coles":5102,"Ġlocales":5103,"uels":5104,"Ġsait":5105,"],":5106,"Ã©arn":5107,"ĠAut":5108,"Ġseront":5109,"Ġpeinture":5110,"Ġsimplement":5111,"ĠÃ©crits":5112,"com":5113,"acte":5114,"Ġradio":5115,"ĠdÃ©pend":5116,"ligne":5117,"Ġcomportement":5118,"Ġmonop":5119,"issue":5120,"Ġ1984":5121,"Ġ\\":5122,"Ġbran":5123,"38":5124,"Ã©criture":5125,"Ġsomme":5126,"Ġtravaille":5127,"ĠFormule":5128,"Ġdiz":5129,"Ġcandid":5130,"rime":5131,"ĠInter":5132,"ĠcÃ©rÃ©monie":5133,"Ã©tant":5134,"Ġregroup":5135,"ĠBi":5136,"igu":5137,"association":5138,"Ġinconn":5139,"ĠConstantinople":5140,"Ġvert":5141,"onnement":5142,"Ġminim":5143,"Ġroyal":5144,"ĠÃ©lÃ¨ves":5145,"geois":5146,"Ġsatis":5147,"Ã©drale":5148,"Ġvictimes":5149,"ĠtempÃ©rature":5150,"arriÃ¨re":5151,"ater":5152,"Ġromans":5153,"Ġromain":5154,"36":5155,"inform":5156,"ĠmÃ©thode":5157,"ĠClaude":5158,"ĠpÃªche":5159,"ĠMic":5160,"ĠdÃ©plac":5161,"burg":5162,"ink":5163,"ĠrÃ©volution":5164,"Ġgrecque":5165,"Ġici":5166,"ena":5167,"Ã´te":5168,"Ġparticiper":5169,"Ġplans":5170,"Ġstations":5171,"ugby":5172,"nexes":5173,"env":5174,"rey":5175,"ourt":5176,"ommÃ©e":5177,"tue":5178,"Ġmusul":5179,"Ġofficiers":5180,"osc":5181,"ĠBrown":5182,"ries":5183,"Ġvin":5184,"ĠmathÃ©m":5185,"ĠmÃ©moire":5186,"ĠÃ©ditions":5187,"outh":5188,"Ġpuits":5189,"Sur":5190,"Ġdon":5191,"Ġtax":5192,"ĠMarse":5193,"ĠrÃ©ussit":5194,"ĠVan":5195,"ĠconstituÃ©":5196,"44":5197,"Ġpou":5198,"ĠopÃ©rations":5199,"Ġclimat":5200,"ĠinspirÃ©":5201,"tir":5202,"Ġvieux":5203,"Hen":5204,"ination":5205,"osÃ©s":5206,"Ġaccomp":5207,"ĠSeu":5208,"Ġdisque":5209,"Ġentou":5210,"Ġordre":5211,"rimer":5212,"olis":5213,"oto":5214,"ĠEntre":5215,"Ġdirect":5216,"ĠimmÃ©diatement":5217,"agon":5218,"Ġ1985":5219,"ĠOu":5220,"Ġ1914":5221,"ĠSociÃ©tÃ©":5222,"sier":5223,"veill":5224,"Ġcatholique":5225,"fric":5226,"ĠPet":5227,"Ġtiers":5228,"Ġstatue":5229,"Ġmontagnes":5230,"Ġtran":5231,"veurs":5232,"Ã§a":5233,"Ġmondial":5234,"Ġparlement":5235,"Ġvoient":5236,"ĠAmer":5237,"Ġeffic":5238,"Ġconcept":5239,"Ġfestival":5240,"Ġsuis":5241,"Ġemprun":5242,"Ġdrapeau":5243,"thur":5244,"oni":5245,"stron":5246,"Ġcontact":5247,"Ġconcerne":5248,"expÃ©ri":5249,"ĠAmÃ©rique":5250,"ĠRoyal":5251,"Ġchapitre":5252,"Ġactions":5253,"expÃ©dition":5254,"Ġ[...":5255,"ĠMur":5256,"ĠLeur":5257,"ĠVers":5258,"Ġpartage":5259,"arm":5260,"ĠTout":5261,"Ã©ducation":5262,"ĠVe":5263,"Ġbiens":5264,"ĠlÃ©gisl":5265,"oigne":5266,"orph":5267,"ĠprÃ©t":5268,"ĠPr":5269,"illot":5270,"ĠpubliÃ©e":5271,"ĠÃ©viter":5272,"Ġmajeure":5273,"ĠrÃ©sistance":5274,"ĠdÃ©veloppÃ©":5275,"ube":5276,"Ġlaisser":5277,"Ġremarqu":5278,"reurs":5279,"Ġdeviennent":5280,"Ġbap":5281,"ĠPi":5282,"Ġ1982":5283,"adap":5284,"incl":5285,"onner":5286,"Ġanglaise":5287,"Ġprolong":5288,"ĠimpÃ©riale":5289,"Ġsil":5290,"Ġfouilles":5291,"Ġhect":5292,"ĠAll":5293,"Ġlocal":5294,"Ġexter":5295,"Ġscience":5296,"ĠsecrÃ©t":5297,"ical":5298,"blement":5299,"bb":5300,"Ġmurs":5301,"omÃ©t":5302,"Ġquitter":5303,"Ġbleu":5304,"ĠAli":5305,"ĠJu":5306,"Ġofficielle":5307,"Ġrois":5308,"Ġchoses":5309,"ĠWi":5310,"itime":5311,"Ġgouverneur":5312,"33":5313,"Louis":5314,"tain":5315,"Ġfaibles":5316,"Ġlesquelles":5317,"Ġdo":5318,"Ġauteur":5319,"Ġrecouv":5320,"ĠAnne":5321,"ĠdÃ©finitivement":5322,"alli":5323,"ergÃ©":5324,"irs":5325,"ĠQuelques":5326,"ĠCra":5327,"ĠprÃ©p":5328,"aph":5329,"ilier":5330,"ĠJo":5331,"ĠarriÃ¨re":5332,"Ġanimal":5333,"effec":5334,"ĠNicolas":5335,"Ġinves":5336,"ĠHug":5337,"heim":5338,"Ġmontrent":5339,"ĠlittÃ©raire":5340,"Ġ1983":5341,"ĠreprÃ©sentent":5342,"BC":5343,"Ġtort":5344,"Ġconcert":5345,"Ġsupport":5346,"Ġmarche":5347,"Ġretraite":5348,"Ġaller":5349,"arte":5350,"Ġartistique":5351,"douard":5352,"Ġpreuve":5353,"analyse":5354,"ĠremportÃ©":5355,"Ġtentative":5356,"Ġaccepte":5357,"Ġmonn":5358,"ĠmÃ¨ne":5359,"ĠdÃ©l":5360,"illage":5361,"ĠmÃ©diÃ©v":5362,"ĠAus":5363,"Ġaffec":5364,"Ġlie":5365,"Ã©ron":5366,"ĠdÃ©velopper":5367,"ĠMaurice":5368,"Ġaction":5369,"Ġguit":5370,"66":5371,"bo":5372,"entrer":5373,"Ã´pital":5374,"Ġsymp":5375,"Ġvivre":5376,"ya":5377,"Ġtab":5378,"osÃ©e":5379,"ĠTer":5380,"Ġspir":5381,"Ġminute":5382,"Ġlien":5383,"ĠBerlin":5384,"Ġparten":5385,"ĠSimp":5386,"lore":5387,"uÃ©":5388,"ross":5389,"exception":5390,"affaire":5391,"ĠÃ©conomiques":5392,"ĠdÃ©bute":5393,"Ġferme":5394,"Ġpieds":5395,"Ġsujets":5396,"reux":5397,"Ġnoire":5398,"deux":5399,"Ġventes":5400,"Ġperte":5401,"Ġrisque":5402,"ensive":5403,"Ġmess":5404,"Ġinfluenc":5405,"Ġhommage":5406,"ĠWalt":5407,"acteur":5408,"St":5409,"rien":5410,"inv":5411,"ĠfÃªte":5412,"accÃ¨s":5413,"side":5414,"Ġrester":5415,"uk":5416,"rict":5417,"anes":5418,"Ġtonnes":5419,"raire":5420,"ĠÃ©vid":5421,"Ã©criv":5422,"The":5423,"Ġacteurs":5424,"Ġauraient":5425,"Ġposses":5426,"Ġconserve":5427,"ĠÂ»).":5428,"Ġreligieuse":5429,"Ġpa":5430,"ĠMr":5431,"Ġ600":5432,"Ġcui":5433,"ĠindÃ©pend":5434,"Ġ[...]":5435,"Mal":5436,"Re":5437,"Ġsch":5438,"Ġdure":5439,"actions":5440,"Ġpropor":5441,"Ġretourn":5442,"ĠcathÃ©drale":5443,"Ġsentiment":5444,"Ġmaintenant":5445,"Ġcoul":5446,"endue":5447,"Ġ1967":5448,"Ġsuivantes":5449,"za":5450,"Ġvenir":5451,"ĠHall":5452,"Ġrap":5453,"ader":5454,"ashington":5455,"ĠNous":5456,"itch":5457,"urie":5458,"Ġfinal":5459,"Si":5460,"Ġenvi":5461,"ĠMy":5462,"Ġsemblent":5463,"ĠFi":5464,"ĠsÃ©qu":5465,"ĠCaliforn":5466,"aillon":5467,"Orient":5468,"ĠPrÃ©":5469,"ĠprÃ©sentent":5470,"ĠportÃ©":5471,"Ġtrait":5472,"Ġantique":5473,"ĠNantes":5474,"ĠprÃ©cÃ©dente":5475,"Ġcommercial":5476,"49":5477,"Ġpuisse":5478,"Ġattest":5479,"Ġcroissance":5480,"ĠBo":5481,"ultan":5482,"ĠLoire":5483,"Ġmini":5484,"Ġessais":5485,"Ã©tro":5486,"appel":5487,"Ġoccupe":5488,"ĠLi":5489,"Ġterrest":5490,"glom":5491,"ĠÃ©lu":5492,"ĠcomitÃ©":5493,"uil":5494,"ĠdÃ©riv":5495,"ĠNorth":5496,"Ġcourte":5497,"uler":5498,"Ġdiffusion":5499,"sbourg":5500,"Ġissus":5501,"Ġmascul":5502,"Ġrh":5503,"tins":5504,"rÃ¨te":5505,"Ġsusc":5506,"Ġkg":5507,"Ġdomicile":5508,"ĠrÃ©ussi":5509,"Ġabou":5510,"55":5511,"mation":5512,"ĠHor":5513,"Ir":5514,"Ġorb":5515,"Ġcapable":5516,"alys":5517,"ĠAndrÃ©":5518,"ortÃ©s":5519,"Ġ1969":5520,"criptions":5521,"Ġdirigeants":5522,"opin":5523,"Ġcommencent":5524,"ĠcatÃ©gorie":5525,"ĠPremier":5526,"ruits":5527,"ĠpropriÃ©taire":5528,"eb":5529,"ĠAndre":5530,"arr":5531,"ĠCam":5532,"ĠPuis":5533,"Ġforment":5534,"Ġatteign":5535,"rob":5536,"Ġray":5537,"ĠWest":5538,"alisÃ©":5539,"Ġvice":5540,"illa":5541,"ĠforÃªts":5542,"ĠlibÃ©ra":5543,"ĠconsÃ©quence":5544,"Ġfaite":5545,"unal":5546,"ĠPan":5547,"Ġmettent":5548,"Ġquinze":5549,"Ġimpli":5550,"ita":5551,"iction":5552,"Ġtendance":5553,"rass":5554,"ĠMas":5555,"ĠPark":5556,"ridge":5557,"extÃ©rieur":5558,"entitÃ©":5559,"Ġfonds":5560,"ĠprÃ©vu":5561,"99":5562,"Ġlun":5563,"Ġrappelle":5564,"Ġraces":5565,"Ġbyzantin":5566,"Ġvo":5567,"Ġrej":5568,"tissement":5569,"ĠBernard":5570,"Ġdite":5571,"fiÃ©":5572,"Ġexclus":5573,"ĠJÃ©r":5574,"adiens":5575,"Ġmaladie":5576,"ĠIr":5577,"Ġsouvenir":5578,"Ġrare":5579,"ĠfondÃ©e":5580,"ĠAlexandre":5581,"Ġrecomm":5582,"Ġsuivre":5583,"enture":5584,"ĠmenÃ©e":5585,"Ġagric":5586,"Ġjeunesse":5587,"ĠWashington":5588,"Ġquartiers":5589,"Ġennemis":5590,"ca":5591,"Ġ1972":5592,"ĠdifficultÃ©":5593,"occupation":5594,"Ġguerres":5595,"ĠGau":5596,".),":5597,"Ġpla":5598,"consultÃ©":5599,"comm":5600,"wards":5601,"erse":5602,"win":5603,"rains":5604,"ello":5605,"ourir":5606,"Ġproduire":5607,"ĠMÃ©d":5608,"ĠprotÃ©ger":5609,"din":5610,"Ġparfait":5611,"atte":5612,"Ġdescend":5613,"atherine":5614,"Ġbudget":5615,"phe":5616,"ĠlÃ©gende":5617,"ĠBre":5618,"Ġsciences":5619,"Ġmos":5620,"amÃ©li":5621,"Ġconnus":5622,"rigue":5623,"cent":5624,"Ġajou":5625,"iographie":5626,"Ġnaz":5627,"aÃ®tres":5628,"Ġjournaliste":5629,"ĠTunis":5630,"Ġconstituent":5631,"ĠLos":5632,"Ġdatant":5633,"itations":5634,"server":5635,"Ġ1978":5636,"Ġqualifie":5637,"fices":5638,"aga":5639,"ĠEur":5640,"tension":5641,"Ġ1966":5642,"Ġenvoie":5643,"icien":5644,"Ġimagin":5645,"ases":5646,"ĠDen":5647,"Ġrecru":5648,"ĠdÃ©fait":5649,"ĠRacing":5650,"cient":5651,"Ġsuivent":5652,"erait":5653,"Ġissu":5654,"Ġcavalerie":5655,"ĠpoÃ¨me":5656,"Ġ32":5657,"ĠempÃª":5658,"ĠdÃ©couvre":5659,"iterran":5660,"ogue":5661,"Ġ1975":5662,"Ġindividus":5663,"ĠrÃ©volu":5664,"historien":5665,"34":5666,"69":5667,"Ġerre":5668,"entreprise":5669,"Ġsimilaire":5670,"dis":5671,"Ġchefs":5672,"Ġretrouver":5673,"ĠNotre":5674,"Ġhui":5675,"Ġdocuments":5676,"Ġprofondeur":5677,"ĠministÃ¨re":5678,"Ġvote":5679,"ĠHong":5680,"Ġfonde":5681,"Ġhumains":5682,"ĠprÃ©cÃ©dent":5683,"ĠSavoie":5684,"Ġ75":5685,"Ġsignifie":5686,"Ġinten":5687,"Ġsubs":5688,"Ġsoir":5689,"autÃ©s":5690,"stru":5691,"Ġordres":5692,"endi":5693,"ĠBes":5694,"Ġrendu":5695,"unitÃ©":5696,"Ġcommission":5697,"ĠpoÃ¨te":5698,"ali":5699,"ĠPaci":5700,"Ġmodernes":5701,"ĠMarseille":5702,"Ġconsul":5703,"ĠLorsque":5704,"Ġarabe":5705,"ãĥ":5706,"Ġcens":5707,"Ġjaune":5708,"Ġdestruction":5709,"Ed":5710,"ziÃ¨me":5711,"ĠsoviÃ©tique":5712,"Ġcivile":5713,"Ġaide":5714,"ographiques":5715,"ĠDiv":5716,"ĠGui":5717,"ĠconnaÃ®tre":5718,"ĠsixiÃ¨me":5719,"auf":5720,"lÃ©ans":5721,"Ġjustif":5722,"ES":5723,"enue":5724,"Ġversions":5725,"ĠphÃ©nomÃ¨ne":5726,"Ġtur":5727,"Ã§ons":5728,"ĠintÃ©ress":5729,"Ag":5730,"Ġhockey":5731,"iteurs":5732,"iche":5733,"Ġ38":5734,"ĠvariÃ©tÃ©":5735,"32":5736,"fer":5737,"allÃ©":5738,"Ġ1979":5739,"Ġgagner":5740,"ĠRec":5741,"die":5742,"Ġpanne":5743,"Ġimages":5744,"view":5745,"Ġsurvi":5746,"Ġcanal":5747,"Ġmajeur":5748,"Ġfranchise":5749,"istique":5750,"Ġrespect":5751,"62":5752,"oo":5753,"Ġbelle":5754,"istant":5755,"ĠrÃ©fug":5756,"ceaux":5757,"Ġaltern":5758,"ĠStan":5759,"Ã¦":5760,"ĠBir":5761,"Ġvillages":5762,"Ġapparaissent":5763,"ĠcomplÃ¨tement":5764,"ĠsituÃ©s":5765,"Ġallemands":5766,"Ġnarra":5767,"Ã©sar":5768,"Ġallant":5769,"ĠStade":5770,"thel":5771,"Ġconnaiss":5772,"Ġreconnaissance":5773,"Ġanc":5774,"Ġ1977":5775,"ulsion":5776,"Ġsav":5777,"ĠÃ©chapp":5778,"olume":5779,"Ġ1974":5780,"ĠGuy":5781,"dom":5782,"Ġmig":5783,"anterie":5784,"architecture":5785,"ĠcoÃ»t":5786,"ĠPen":5787,"rÃ©sor":5788,"Ġinitialement":5789,"Ġconfront":5790,"onnÃ©e":5791,"Ġressources":5792,"42":5793,"Ġparis":5794,"ouvrage":5795,"Ġconsiste":5796,"ĠrÃ©alisateur":5797,"Ġsymbole":5798,"Ġbil":5799,"Ġprofessionnel":5800,"ĠdÃ©clen":5801,"Ġmillion":5802,"Ġenvironnement":5803,"Ġspiritu":5804,"ĠrÃ©pand":5805,"ĠparallÃ¨le":5806,"Ġporter":5807,"Ġhectares":5808,"iale":5809,"Ġdel":5810,"ĠToul":5811,"angÃ©":5812,"Ã©ricains":5813,"ĠJuli":5814,"Ġcalcul":5815,"ĠsecrÃ©taire":5816,"Ġmand":5817,"Saint":5818,"ĠJim":5819,"Ġreprendre":5820,"ĠSar":5821,"ologne":5822,"95":5823,"anie":5824,"agÃ©s":5825,"iano":5826,"rophÃ©e":5827,"rÃ©al":5828,"ĠextrÃªme":5829,"conte":5830,"hÃ´tel":5831,"zi":5832,"Ġpel":5833,"ĠlÃ©gÃ¨rement":5834,"Ġservir":5835,"Ġenregistre":5836,"ĠBoston":5837,"ĠtÃ¢":5838,"Ġplais":5839,"Ġouest":5840,"ĠVille":5841,"Ġchoisi":5842,"Ġinformations":5843,"NH":5844,"ĠAllemand":5845,"ife":5846,"Ġprovoque":5847,"ilÃ©":5848,"Ġmarine":5849,"Ġ%,":5850,"Ġcroy":5851,"Ġoccidentale":5852,"tiqu":5853,"ĠmarquÃ©e":5854,"Ġcarte":5855,"Ġutilisant":5856,"amm":5857,"ĠconsÃ©cu":5858,"ĠreprÃ©sentants":5859,"Ġrestauration":5860,"Ġratta":5861,"arb":5862,"Australie":5863,"han":5864,"Ġchangements":5865,"ĠdÃ©tr":5866,"Ġcomport":5867,"Ġorganise":5868,"ĠprÃ©cip":5869,"ouveau":5870,"piration":5871,"Ġ800":5872,"ĠPont":5873,"Ġapprend":5874,"sible":5875,"ĠSk":5876,"avis":5877,"ĠCelle":5878,"Ġprison":5879,"empire":5880,"Ġobjectif":5881,"ĠconfÃ©rence":5882,"Ġportent":5883,"rome":5884,"iennent":5885,"Ġpose":5886,"Ġdomaines":5887,"tellectu":5888,"ĠHill":5889,"Ġpost":5890,"tillerie":5891,"istoires":5892,"Ġretard":5893,"Ġ1976":5894,"Ġ1964":5895,"ĠÂ»,.":5896,"Ġdomination":5897,"Ġcondition":5898,"Ġfabric":5899,"ĠsÃ©p":5900,"Ġauquel":5901,"Ġjardin":5902,"ĠVir":5903,"aniel":5904,"ĠMiss":5905,"Ġ1973":5906,"Ġsignal":5907,"Ġajout":5908,"Ġques":5909,"ĠBlan":5910,"Ġrecense":5911,"Ġrevenir":5912,"Ġraconte":5913,"Ġsociales":5914,"ĠpossÃ©d":5915,"Ġcitoy":5916,"onds":5917,"ĠnommÃ©e":5918,"ĠpensÃ©e":5919,"Ġquasi":5920,"pent":5921,"ĠTor":5922,"Man":5923,"Ġpublics":5924,"Ġ1941":5925,"Ġprisonniers":5926,"Bas":5927,"isembl":5928,"mÃªmes":5929,"ĠGro":5930,"Ã´ts":5931,"ĠmodÃ¨les":5932,"Ġdonnent":5933,"Ġchacune":5934,"ĠÃ©trangers":5935,"Ġglaci":5936,"Ġauxqu":5937,"Ġrenv":5938,"Ġsalles":5939,"Ġrevenus":5940,"ĠMel":5941,"ĠMerc":5942,"Ġdisparition":5943,"ographe":5944,"Autriche":5945,"ution":5946,"Ġdisparu":5947,"ĠcomplÃ¨te":5948,"Ġprofesseur":5949,"uant":5950,"Ã©o":5951,"ĠJules":5952,"Ġtournage":5953,"Ġnourriture":5954,"lizabeth":5955,"ĠFlor":5956,"ĠVol":5957,"Ġfondation":5958,"^{":5959,"Comme":5960,"ĠÅĵ":5961,"ĠÃĹ":5962,"ensitÃ©":5963,"Ġrythme":5964,"61":5965,"Ġintellectu":5966,"diction":5967,"Ġfaisait":5968,"Ġperformance":5969,"Ġ37":5970,"Ġdonnant":5971,"Ġnor":5972,"Ġrive":5973,"Ġisol":5974,"Ġrur":5975,"Ġcime":5976,"ĠdÃ©bat":5977,"ĠcitÃ©s":5978,"ican":5979,"agriculture":5980,"Ġtraitement":5981,"Ġ1965":5982,"ĠHaute":5983,"Ġcesse":5984,"xford":5985,"ĠfunÃ©ra":5986,"ĠparaÃ®t":5987,"Ġchoisit":5988,"Ġcombin":5989,"ocÃ©an":5990,"Ġconsommation":5991,"ĠHistor":5992,"Ġmassac":5993,"Ġrappro":5994,"Ġang":5995,"ĠmontÃ©e":5996,"Ġski":5997,"Ġnations":5998,"Ġeffectue":5999,"ibliographie":6000,"ĠWhite":6001,"yo":6002,"ĠSil":6003,"ĠrÃ©guliÃ¨re":6004,"ĠTw":6005,"ĠÃ©gyp":6006,"to":6007,"Ġconduite":6008,"Alexand":6009,"Ġassure":6010,"ĠidÃ©e":6011,"Ġlaissant":6012,"Ġnationaux":6013,"Ġnavig":6014,"ĠÃ©cole":6015,"ĠrÃ©duit":6016,"Ġobtenu":6017,"Ġimage":6018,"Ġrock":6019,"Ġonze":6020,"Ġ1943":6021,"Ġmettant":6022,"Ġvaleurs":6023,"mÃ©s":6024,"Ġchan":6025,"Ġ1942":6026,"Ġvictime":6027,"Ġax":6028,"ĠrÃ¨gles":6029,"ĠdestinÃ©":6030,"ĠmaÃ®tres":6031,"amÃ©n":6032,"Ġrav":6033,"Ġrecue":6034,"Ġconstitution":6035,"Ġvisiteurs":6036,"ĠsÃ©jour":6037,"ĠsÃ»":6038,"ĠHel":6039,"Ġquarante":6040,"ĠLim":6041,"ĠrÃ©partition":6042,"alogue":6043,"ĠAngeles":6044,"Ġton":6045,"aises":6046,"Ã©quipage":6047,"opposition":6048,"Ġ1939":6049,"58":6050,"lem":6051,"Ġcommunication":6052,"ĠorganisÃ©":6053,"mosphÃ¨re":6054,"romp":6055,"Ã©roÃ¯":6056,"ĠQue":6057,"Ġviolence":6058,"ĠBlack":6059,"ĠGÃ©":6060,"Ġnomme":6061,"Ġrepris":6062,"Ġrac":6063,"Ġitalien":6064,"France":6065,"ĠrÃ©ponse":6066,"Ġtraces":6067,"assÃ©":6068,"Ġouvre":6069,"entin":6070,"Ġjuri":6071,"ĠmÃ©dias":6072,"ĠWall":6073,"31":6074,"iser":6075,"Ġvraiment":6076,"ja":6077,"Ġpages":6078,"Ġtardi":6079,"Ġ1981":6080,"Ã¡n":6081,"andie":6082,"autoritÃ©":6083,"ombe":6084,"ba":6085,"Ġsor":6086,"Ġhyd":6087,"Ã´les":6088,"ologues":6089,"ĠrÃ©tab":6090,"olkien":6091,"riÃ¨res":6092,"Ġgri":6093,"dir":6094,"ĠGer":6095,"ĠHal":6096,"Ġrapporte":6097,"Ġ1948":6098,"gra":6099,"Ġdevenue":6100,"Ã©curie":6101,"ĠexpÃ©riment":6102,"ccident":6103,"isp":6104,"ĠCat":6105,"Ġconscience":6106,"apparition":6107,"Ġmilliers":6108,"Ġpati":6109,"Ġsaut":6110,"quoi":6111,"Ġformer":6112,"chÃ©es":6113,"ĠRam":6114,"Ġrugby":6115,"ancer":6116,"ĠapprÃ©ci":6117,"Ġradic":6118,"Ġfortif":6119,"Ġappelle":6120,"Ãīcole":6121,"Ġchim":6122,"Ġrepro":6123,"Ġtrafic":6124,"Ġstand":6125,"Ġmonast":6126,"Ġcouronne":6127,"Ġ1962":6128,"ado":6129,"ĠportÃ©e":6130,"erci":6131,"ĠCentre":6132,"ĠdÃ©te":6133,"Ġlu":6134,"ĠthÃ¨mes":6135,"Ġpointe":6136,"ĠCongrÃ¨s":6137,"tiles":6138,"enfant":6139,"ĠquantitÃ©":6140,"mine":6141,"52":6142,"ĠChaque":6143,"DÃ¨s":6144,"Ġball":6145,"Ġdiam":6146,"ĠBour":6147,"Ġtraduit":6148,"ĠCarl":6149,"ĠBeat":6150,"Ġfacilement":6151,"Henri":6152,"Ġsoup":6153,"Ġjusque":6154,"ĠXVe":6155,"ĠFinalement":6156,"Mich":6157,"ressionn":6158,"ĠcompÃ©t":6159,"ĠprÃ©sentÃ©":6160,"SS":6161,"do":6162,"appr":6163,"ĠfaÃ§ade":6164,"enz":6165,"ĠmaÃ®t":6166,"ota":6167,"ĠMontrÃ©al":6168,"orge":6169,"ĠLNH":6170,"ĠtrouvÃ©":6171,"Ġoccasion":6172,"Ġmoindre":6173,"ĠprivilÃ©g":6174,"Ġ+":6175,"any":6176,"ĠPers":6177,"aband":6178,"ĠSimon":6179,"ĠAllemands":6180,"Jac":6181,"Ġmille":6182,"Ġpun":6183,"Paul":6184,"ste":6185,"ĠMay":6186,"ĠAc":6187,"Ġcarb":6188,"Ġmaintenir":6189,"mÃ©diaire":6190,"Ĩthel":6191,"ilitÃ©s":6192,"erger":6193,"ĠNorv":6194,"oliques":6195,"agu":6196,"Ġ1971":6197,"Ġsortir":6198,"intes":6199,"Ġperformances":6200,"quie":6201,"46":6202,"ĠSol":6203,"Ġsatell":6204,"ĠÃ©tal":6205,"Ġpav":6206,"article":6207,"orne":6208,"oncer":6209,"expression":6210,"ories":6211,"dici":6212,"ket":6213,"ierres":6214,"Ġ1946":6215,"Ġfigures":6216,"ĠFÃ©dÃ©ration":6217,"Ġcanons":6218,"Ġdistribution":6219,"41":6220,"ĠLac":6221,"ĠAnton":6222,"Ġportrait":6223,"Ġreligieuses":6224,"registre":6225,"Ãīcosse":6226,"Ġate":6227,"omer":6228,"animal":6229,"ĠÃ©tudiants":6230,"Ġpure":6231,"ierge":6232,"Ġutiliser":6233,"ĠliÃ©es":6234,"ĠSimpson":6235,"Ġtroupe":6236,"Ġ1947":6237,"ruption":6238,"Ġdessins":6239,"ctur":6240,"Ġfaute":6241,"Ġbillet":6242,"ĠRoger":6243,"Ġcircuit":6244,"Dame":6245,"ume":6246,"Ãīgypte":6247,"Ġvisage":6248,"Ġappli":6249,"Ġmaillot":6250,"Ġgris":6251,"bi":6252,"bas":6253,"Ġul":6254,"ĠAnn":6255,"Ã©tablissement":6256,"Ġ=":6257,"ĠCer":6258,"Ġrues":6259,"Ġseraient":6260,"Ġlongues":6261,"ĠÃ©change":6262,"Ġcontro":6263,"Univers":6264,"well":6265,"Ġrobe":6266,"Marie":6267,"Ġmu":6268,"ĠChamb":6269,"Ġrenouv":6270,"ĠathlÃ¨":6271,"ĠBart":6272,"ĠNeu":6273,"190":6274,"Å¡":6275,"Ġcuis":6276,"rÃ©f":6277,"obtenir":6278,"Ġtir":6279,"har":6280,"ĠliÃ©s":6281,"ĠcomtÃ©":6282,"aliser":6283,"Ġeut":6284,"Ġpan":6285,"ĠGrecs":6286,"ĠGil":6287,"Ã©taient":6288,"Ġviennent":6289,"ĠdÃ©mar":6290,"Ġvraisembl":6291,"Ġvais":6292,"osh":6293,"77":6294,"ico":6295,"ĠformÃ©":6296,"duisant":6297,"Ã³n":6298,"rection":6299,"diens":6300,"ĠLivre":6301,"Ã©op":6302,"tile":6303,"amin":6304,"ĠPetit":6305,"Ġment":6306,"ĠBert":6307,"ĠRÃ©":6308,"Ġarts":6309,"Ġattaques":6310,"Ã¨lement":6311,"Ġinvent":6312,"ification":6313,"gar":6314,"Ġmix":6315,"champ":6316,"ĠsÃ©v":6317,"dienne":6318,"avance":6319,"Ġitalienne":6320,"ake":6321,"ĠÃ©tro":6322,"ellent":6323,"Ġaccident":6324,"Ġconclut":6325,"Ã©crivain":6326,"BA":6327,"anÃ§on":6328,"ĠTitan":6329,"ĠTolkien":6330,"tenue":6331,"Ġpopulaires":6332,"istocra":6333,"Ġmoul":6334,"ĠTous":6335,"ĠutilisÃ©es":6336,"pollo":6337,"Ces":6338,"osa":6339,"euros":6340,"Ġlancer":6341,"Ġcollaboration":6342,"Ġphilosophie":6343,"urance":6344,"ĠLis":6345,"Ġvan":6346,"ĠAfrique":6347,"Ġaccessi":6348,"Ġactuel":6349,"ĠantÃ©ri":6350,"ĠâĤ¬":6351,"Ġqueue":6352,"Ġral":6353,"trice":6354,"angle":6355,"inet":6356,"Ġ250":6357,"ĠHistoire":6358,"ĠchÃ¢":6359,"Ġroutes":6360,"of":6361,"ĠconquÃªte":6362,"ami":6363,"uclÃ©":6364,"lish":6365,"Ġesc":6366,"Ġtit":6367,"ĠliÃ©e":6368,"Ġquestions":6369,"Ã±":6370,"Ġsolution":6371,"Ġnette":6372,"Ġ39":6373,"Ġreproduction":6374,"Ġpouvoirs":6375,"Ġvoitures":6376,"ĠlycÃ©e":6377,"Ab":6378,"ĠPlan":6379,"Ġpolici":6380,"rari":6381,"Ġouverte":6382,"entielle":6383,"rets":6384,"Ġprovis":6385,"utÃ©e":6386,"ĠChristi":6387,"Ġsouligne":6388,"Ġpromotion":6389,"ĠexpÃ©rience":6390,"ĠpropriÃ©taires":6391,"cel":6392,"Ã©ry":6393,"Ġsignific":6394,"ĠCamp":6395,"ĠClar":6396,"Ġtherm":6397,"Ġquator":6398,"ĠNi":6399,"ĠQuand":6400,"resser":6401,"Ġ48":6402,"ough":6403,"entraÃ®neur":6404,"Acad":6405,"Ġpous":6406,"Ġfen":6407,"ĠAra":6408,"Ġprovenant":6409,"cop":6410,"tations":6411,"Ġsuivants":6412,"Ġconservation":6413,"ĠTourn":6414,"ĠEst":6415,"Ġmonarchie":6416,"opot":6417,"ĠreprÃ©sentations":6418,"Ġmic":6419,"ĠeuropÃ©en":6420,"Ġdistingue":6421,"Ġgre":6422,"ĠPin":6423,"ĠpÃ©riodes":6424,"ĠentraÃ®neur":6425,"ju":6426,"oint":6427,"ĠMars":6428,"Ġculturel":6429,"Ġdifficiles":6430,"ĠBritanniques":6431,"Ġ$":6432,"ĠdÃ©couvert":6433,"Ġterritori":6434,"vard":6435,"ĠMrs":6436,"Ġproposition":6437,"ĠliÃ©":6438,"bus":6439,"oriz":6440,"ĠMcC":6441,"ĠConc":6442,"ĠgÃ©nÃ©raux":6443,"ĠnÃ©cessaires":6444,"Ġordin":6445,"ĠTrans":6446,".)":6447,"Ġbrig":6448,"Ġdispute":6449,"Ġattendre":6450,"Ġcontrairement":6451,"Ġlogements":6452,"Ġsin":6453,"ĠBow":6454,"ĠqualitÃ©s":6455,"omie":6456,"aret":6457,"Ġ120":6458,"ĠCÃ©sar":6459,"Ġmultiples":6460,"ĠstÃ©":6461,"lign":6462,"Ġritu":6463,"Ant":6464,"Ġmener":6465,"expÃ©rience":6466,"ĠpÃ¢":6467,"Ġsoix":6468,"Ġvolume":6469,"Ġbass":6470,"ĠVI":6471,"ĠdÃ©cÃ¨s":6472,"Ġremporter":6473,"RÃ©":6474,"Ġdram":6475,"Ġappare":6476,"Ġmises":6477,"glomÃ©ration":6478,"leurs":6479,"ĠBoy":6480,"ache":6481,"Ġastron":6482,"apes":6483,"Ġcomprenant":6484,"ĠJohnson":6485,"Ġtraduction":6486,"Ġdisposition":6487,"ĠseptiÃ¨me":6488,"Ġsportif":6489,"Ġ2020":6490,"aliment":6491,"istan":6492,"Ġclair":6493,"assade":6494,"ancel":6495,"Durant":6496,"Ã©z":6497,"Ġconven":6498,"ĠÃīditions":6499,"Ġciel":6500,"yclop":6501,"ER":6502,"ĠSÃ©n":6503,"ĠpersonnalitÃ©":6504,"Ġpratiques":6505,"Ġoriginal":6506,"ound":6507,"Ġdanger":6508,"Ġ1958":6509,"ĠRenÃ©":6510,"Ġmys":6511,"Ġlecture":6512,"augment":6513,"Ġmodern":6514,"Ġtenue":6515,"ĠcompÃ©titions":6516,"Ġsuperficie":6517,"rus":6518,"ĠHit":6519,"Ġcriti":6520,"initi":6521,"Ã§onn":6522,"ignon":6523,"ouche":6524,"Ġparoles":6525,"ĠCatherine":6526,"Ġtenu":6527,"ius":6528,"ĠnÃ©gociations":6529,"ĠlaissÃ©":6530,"log":6531,"Ġvoyageurs":6532,"Avec":6533,"mique":6534,"elli":6535,"ĠSant":6536,"ĠKn":6537,"Char":6538,"ĠarrÃªtÃ©":6539,"cy":6540,"Ġ,":6541,"ĠRÃ©f":6542,"uma":6543,"Jacques":6544,"ene":6545,"ricole":6546,"Ġrendent":6547,"dont":6548,"istent":6549,"ĠfondÃ©":6550,"Ġencou":6551,"ismes":6552,"Ġbus":6553,"Ġplantes":6554,"ĠsÃ©ance":6555,"ĠXIIIe":6556,"Ġurbaine":6557,"automne":6558,"ula":6559,"ĠcoÃ©quip":6560,"ĠorganisÃ©e":6561,"ĠAnglais":6562,"rans":6563,"Ġpierres":6564,"artillerie":6565,"ĠSatur":6566,"ĠÃ©lectrique":6567,"Olymp":6568,"mie":6569,"Ġconqu":6570,"Ġpassagers":6571,"ster":6572,"Ġparviennent":6573,"ansion":6574,"Ġespace":6575,"Ġexemplaires":6576,"Ġcoups":6577,"ĠAusten":6578,"jan":6579,"ĠarrivÃ©e":6580,"Ġ1963":6581,"Ġdieux":6582,"ĠApp":6583,"infanterie":6584,"ĠXIIe":6585,"ĠrÃ©daction":6586,"Ġpy":6587,"Ġhumain":6588,"Ġretourne":6589,"ĠconsÃ©quences":6590,"orique":6591,"unt":6592,"ĠLong":6593,"ĠEmpire":6594,"ĠChic":6595,"Ġ1938":6596,"Ġdynam":6597,"Bibliographie":6598,"Ġsubit":6599,"incent":6600,"ĠrÃ©sidence":6601,"orÃ©e":6602,"itÃ©es":6603,"Ġtiss":6604,"Ġmarchand":6605,"Ġpartisans":6606,"Ġbourg":6607,"ĠrÃ©el":6608,"ulle":6609,"Ġreconnu":6610,"Ġchinois":6611,"ĠsÃ©n":6612,"Ġfoss":6613,"Ġhon":6614,"ĠCalifornie":6615,"Ġpertes":6616,"alu":6617,"aisons":6618,"ĠTours":6619,"ĠGir":6620,"loie":6621,"rÃ©dÃ©ric":6622,"stÃ©":6623,"ĠPau":6624,"ĠrÃ©duire":6625,"emploi":6626,"Ġviande":6627,"Ġimportance":6628,"ĠConf":6629,"Ġem":6630,"Ġcampagnes":6631,"Ġdescription":6632,"Ġcompl":6633,"ĠgÃ©nÃ©ration":6634,"ragon":6635,"Ġmajoritaire":6636,"ordin":6637,"ĠprÃ©cÃ©dents":6638,"ĠrÃ©forme":6639,"enregistre":6640,"ĠrelÃ¨ve":6641,"impose":6642,"lage":6643,"raÃ«l":6644,"atie":6645,"Ġvisant":6646,"Ġresponsables":6647,"Pro":6648,"ĠRÃ©g":6649,"ĠChris":6650,"Indre":6651,"Ġorigines":6652,"Ġconfirme":6653,"Ġexternes":6654,"ĠaccompagnÃ©":6655,"aies":6656,"tÃ©rieures":6657,"Ġdesser":6658,"Ġgerman":6659,"ĠRod":6660,"ouvre":6661,"ĠprÃ©senter":6662,"Ne":6663,"Ġconfiance":6664,"ĠopÃ©ra":6665,"Ġpeuples":6666,"Ġfournit":6667,"ĠCity":6668,"ĠOli":6669,"finale":6670,"ĠreprÃ©sentÃ©":6671,"Ġtableaux":6672,"Asie":6673,"ala":6674,"ĠintÃ©rÃªt":6675,"Ġ1934":6676,"Ġcirculation":6677,"ĠmÃª":6678,"ĠJourn":6679,"trait":6680,"ĠplacÃ©":6681,"Ġtoit":6682,"ĠChap":6683,"Ã©difice":6684,"ĠDivision":6685,"ĠMex":6686,"ĠaccÃ¨s":6687,"Ġcycle":6688,"Ġsingle":6689,"Ġ1912":6690,"Ġaspects":6691,"avage":6692,"Ġsombre":6693,"Ġcous":6694,"ĠTri":6695,"ĠRon":6696,"AC":6697,"ject":6698,"ĠMÃªme":6699,"Ġ1961":6700,"ĠAdam":6701,"ĠpersonnalitÃ©s":6702,"Ġvisible":6703,"ĠColomb":6704,"Ġprovinces":6705,"ĠPacifique":6706,"itaine":6707,"ĠMaison":6708,"ĠdÃ©fendre":6709,"ĠcollÃ¨ge":6710,"Ġpauvre":6711,"Ġpne":6712,"ĠAwards":6713,"ĠlÃ©gend":6714,"Ġmythe":6715,"Ġvall":6716,"lÃ©gu":6717,"ĠcommunautÃ©s":6718,"Ġretrouvent":6719,"Ġremplacer":6720,"ĠdÃ©cidÃ©":6721,"79":6722,"hn":6723,"Ġlign":6724,"ouille":6725,"ĠÃ©chec":6726,"Ġneige":6727,"ĠsituÃ©es":6728,"ĠLand":6729,"illy":6730,"Ã©trang":6731,"relle":6732,"neaux":6733,"Ġble":6734,"ĠTar":6735,"ĠrÃ©alisÃ©s":6736,"ĠspÃ©cif":6737,"Ġsatisf":6738,"Ġ1956":6739,"ĠÃ¢ge":6740,"Ġsacri":6741,"col":6742,"den":6743,"Ġapport":6744,"mile":6745,"Ġlangage":6746,"Ġalbums":6747,"ull":6748,"Ġconsole":6749,"ĠÃītat":6750,"Ġpartiellement":6751,"Ġartif":6752,"ĠÃ©trangÃ¨res":6753,"nant":6754,"ĠÃ©vent":6755,"ĠFe":6756,"Ġapparition":6757,"ĠperÃ§":6758,"Ġinterdit":6759,"ĠdÃ©pit":6760,"ĠdÃ©place":6761,"Ġrapproche":6762,"azz":6763,"ĠrÃ©vÃ©l":6764,"Ġcinquante":6765,"Ġvestiges":6766,"76":6767,"ety":6768,"ĠSous":6769,"onna":6770,"Ġsports":6771,"Ġ1954":6772,"Ġfonctionnement":6773,"Ġmaximum":6774,"Ġagricoles":6775,"vue":6776,"artiste":6777,"Ġstructures":6778,"Ġorth":6779,"Ġbaie":6780,"ĠprÃ©paration":6781,"rovi":6782,"acts":6783,"Ġaccueill":6784,"ariste":6785,"ĠmÃ©n":6786,"Ġchale":6787,"ulaires":6788,"utenant":6789,"ĠsupplÃ©mentaires":6790,"ĠrÃ©action":6791,"Ġtram":6792,"contre":6793,"Ġclasses":6794,"74":6795,"ium":6796,"Ġcomics":6797,"ĠDub":6798,"Ġstock":6799,"Ġbandes":6800,"sias":6801,"ĠrÃ¨gle":6802,"ĠalliÃ©s":6803,"Ġarc":6804,"ronique":6805,"ĠdÃ©fend":6806,"ĠÃ©toiles":6807,"Ġefforts":6808,"Ġmissions":6809,"Bien":6810,"rations":6811,"cemment":6812,"ĠDar":6813,"Ġcomprendre":6814,"Ġrevue":6815,"aÃ©ro":6816,"umb":6817,"Ġagricole":6818,"Ġmorte":6819,"ĠMen":6820,"osÃ©es":6821,"national":6822,"uck":6823,"ĠvÃ©n":6824,"Ġabrite":6825,"jon":6826,"las":6827,"quemment":6828,"ĠtuÃ©":6829,"ĠÃ©loign":6830,"ĠrÃ©volte":6831,"tics":6832,"ĠPÃ©":6833,"Ġchat":6834,"Ġcentaines":6835,"ĠvÃ©hicules":6836,"ĠGas":6837,"ĠJosÃ©":6838,"Ġfavorable":6839,"71":6840,"Ġremonte":6841,"ĠcommencÃ©":6842,"Ġvendre":6843,"ĠprÃ©sentes":6844,"Anne":6845,"Ġconserver":6846,"huit":6847,"Ġcomplet":6848,"Ġsyndic":6849,"Ġregroupe":6850,"iditÃ©":6851,"appro":6852,"rase":6853,"Ã©rir":6854,"Ġ160":6855,"ĠcaractÃ©ristique":6856,"Ġign":6857,"urt":6858,"ĠrÃ©col":6859,"ĠconservÃ©":6860,"ĠbÃ©t":6861,"ĠMass":6862,"Ġvivent":6863,"Ġsoleil":6864,"Ġ33":6865,"Ġsolaire":6866,"Ġbesoins":6867,"Ġcoh":6868,"Ã©th":6869,"Ġsoulign":6870,"Ã¨gre":6871,"Ġpatron":6872,"matiques":6873,"Ġliens":6874,"ĠDaniel":6875,"Ġassurer":6876,"ĠrÃ©cits":6877,"Ġarbres":6878,"ĠrÃ©putation":6879,"Ġsuffisamment":6880,"Ġcompose":6881,"ĠdestinÃ©e":6882,"ĠAir":6883,"Ġrach":6884,"rieurs":6885,"Ġjaponaise":6886,"Ġnoirs":6887,"ssemblÃ©e":6888,"mil":6889,"Ġling":6890,"Ġpassent":6891,"Ġtempor":6892,",\"":6893,"veux":6894,"ĠnÃ©cessitÃ©":6895,"Ġenvah":6896,"ĠStrasbourg":6897,"Ġcouverture":6898,"ĠPic":6899,"itiÃ©":6900,"Ġsynth":6901,"Ġactuelle":6902,"ĠÃ©levÃ©e":6903,"Ġentier":6904,"Ġ1949":6905,"environnement":6906,"Plusieurs":6907,"ban":6908,"lov":6909,"Ġ1959":6910,"antine":6911,"Ġtenir":6912,"Ġlecteur":6913,"ĠnuclÃ©":6914,"Ġsty":6915,"ko":6916,"mans":6917,"ĠBut":6918,"Ġtrains":6919,"sident":6920,"orch":6921,"acitÃ©s":6922,"ĠGo":6923,"Ġimplant":6924,"ĠconstituÃ©e":6925,"ĠsignÃ©":6926,"FranÃ§ois":6927,"ĠrÃªve":6928,"isÃ©":6929,"autes":6930,"ĠCompagn":6931,"Ġcompter":6932,"Ġtourne":6933,"ĠsociÃ©tÃ©s":6934,"Ġpuissances":6935,"ĠNormandie":6936,"Fin":6937,"uns":6938,"Ġbu":6939,"alem":6940,"Ġcentres":6941,"endra":6942,"Ã©vÃªque":6943,"Ġmontrer":6944,"ĠbrÃ»":6945,"fie":6946,"ĠprivÃ©e":6947,"Ġbret":6948,"aller":6949,"Ġamen":6950,"ĠpossÃ¨dent":6951,"ĠclassÃ©":6952,"Ġhistoires":6953,"Ã¨ses":6954,"terie":6955,"Ġtourisme":6956,"ĠdÃ©truit":6957,"ĠLang":6958,"ĠPlay":6959,"Ġsuccession":6960,"Ġterrains":6961,"ĠRÃ©fÃ©rence":6962,"endie":6963,"ĠÃ©crite":6964,"Ġpoly":6965,"Ġ1910":6966,"Ġpenser":6967,"ĠAux":6968,"Ġcolonnes":6969,"orp":6970,"ĠboÃ®":6971,"ciens":6972,"fiÃ©e":6973,"Ġfoi":6974,"ĠbibliothÃ¨que":6975,"rison":6976,"ĠeuropÃ©ens":6977,"Ġactuellement":6978,"observ":6979,"zer":6980,"armes":6981,"ĠenvoyÃ©":6982,"cie":6983,"ĠQuant":6984,"ĠSuÃ¨de":6985,"ĠconsacrÃ©":6986,"hor":6987,"ĠnaÃ®t":6988,"dion":6989,"Ġacquis":6990,"tenus":6991,"ĠinstallÃ©":6992,"ĠfrÃ©quemment":6993,"cht":6994,"Ġfrom":6995,"ĠdÃ©faites":6996,"Ġcord":6997,"ĠemployÃ©s":6998,"Ġsportive":6999,"go":7000,"iro":7001,"Ġsecret":7002,"ĠsystÃ¨mes":7003,"Ġstu":7004,"Ġ55":7005,"ĠdÃ©putÃ©s":7006,"ĠArt":7007,"Ġadultes":7008,"Ġfinance":7009,"Ġassassin":7010,"ĠLee":7011,"ĠHan":7012,"ĠmÃ©lan":7013,"ĠresponsabilitÃ©":7014,"ĠPas":7015,"ĠChicago":7016,"Ġaustrali":7017,"Ġmeilleures":7018,"ĠstratÃ©gie":7019,"Pendant":7020,"ĠTex":7021,"Ġprenant":7022,"Ġabb":7023,"Ġ700":7024,"Ã©chapp":7025,"istÃ©":7026,"rastru":7027,"ited":7028,"Ġappartient":7029,"Ġassociations":7030,"ÃŃa":7031,"onais":7032,"Ġsanc":7033,"Ġjudici":7034,"Ġfondament":7035,"ĠrÃ©gional":7036,"ĠdÃ©mons":7037,"Ġx":7038,"Ġchanger":7039,"Ġtraite":7040,"ĠArm":7041,"Ġsauf":7042,"ĠFerrari":7043,"Ġabond":7044,"Ġflam":7045,"Ã©ritage":7046,"uelles":7047,"inage":7048,"Ġinstruments":7049,"ĠSw":7050,"Ġrecevoir":7051,"issait":7052,"ĠcapacitÃ©s":7053,"Ġproducteur":7054,"usses":7055,"Ġgall":7056,"Ġgardien":7057,"Ġbrill":7058,"ĠtÃ©moigne":7059,"Ġstudios":7060,"mins":7061,"Ġbaisse":7062,"demment":7063,"Ġpourquoi":7064,"lises":7065,"Ġtraverse":7066,"Ġpubliques":7067,"ĠparticuliÃ¨re":7068,"ilibre":7069,"Ġimpossible":7070,"Deux":7071,"ĠrÃ©cemment":7072,"Ġlongs":7073,"rai":7074,"aspect":7075,"Ġ1936":7076,"orisation":7077,"jectifs":7078,"Ġrarement":7079,"Ã©mique":7080,"Ġ1937":7081,"Ġsymbolique":7082,"Ġdisponibles":7083,"rairement":7084,"ĠcimetiÃ¨re":7085,"ĠDal":7086,"Ġouvriers":7087,"ĠdÃ©signe":7088,"Ġdot":7089,"Ġcong":7090,"Ġ1918":7091,"ĠWars":7092,"ĠaÃ®":7093,"Ġrames":7094,"affir":7095,"Ġchoc":7096,"Ġprofite":7097,"axe":7098,"Ġcroix":7099,"ouÃ©":7100,"Ind":7101,"onnais":7102,"Ġmarins":7103,"Ġrapports":7104,"ĠBeatles":7105,"ĠDr":7106,"ĠFont":7107,"Ġgren":7108,"Ġconcurrent":7109,"Ã¨che":7110,"Ġnage":7111,"stac":7112,"ĠOxford":7113,"ĠPortug":7114,"Ġfacil":7115,"ĠÃ©tage":7116,"Ġconstruits":7117,"Ã©but":7118,"ĠsystÃ©":7119,"ĠmÃ©dailles":7120,"ĠWalter":7121,"ĠdessinÃ©e":7122,"gi":7123,"aro":7124,"Ġfusion":7125,"ĠÃ©mis":7126,"ĠRi":7127,"akh":7128,"Ġinstitutions":7129,"Ġdimensions":7130,"vÃ©e":7131,"oxe":7132,"Ġefficace":7133,"omn":7134,"Ġarticles":7135,"Ġconnues":7136,"Prem":7137,"Ġunif":7138,"ĠLenn":7139,"ĠFab":7140,"Ġinterne":7141,"architecte":7142,"ĠCa":7143,"ĠdÃ©cident":7144,"ĠdonnÃ©e":7145,"Ġartifici":7146,"ondes":7147,"Ġcontenu":7148,"Ġnoblesse":7149,"Ġforter":7150,"Ġmunicipal":7151,"88":7152,"Ġparticipent":7153,"Ġremportent":7154,"Ġgaranti":7155,"Ġvaisseau":7156,"Ġoub":7157,"Ġclairement":7158,"utiliser":7159,"Ġusage":7160,"Ġorientale":7161,"Ġdue":7162,"Ġdevint":7163,"ĠbÃ©nÃ©ficie":7164,"opÃ©ra":7165,"ĠVienne":7166,"lisme":7167,"Ġpositions":7168,"offre":7169,"Ġjouent":7170,"ĠdÃ©passe":7171,"Ġprofessionnels":7172,"Ġpourraient":7173,"Ġsouter":7174,"Ġaccueillir":7175,"ĠÃ©tablissements":7176,"roÃ®":7177,"Ġrepose":7178,"Ġnotes":7179,"Ġ1952":7180,"Ġcivilisation":7181,"ĠmÃ©thodes":7182,"Ġpay":7183,"eron":7184,"Ġaim":7185,"ĠLy":7186,"ĠStre":7187,"Ġ1933":7188,"opotam":7189,"abe":7190,"venu":7191,"odi":7192,"ĠLord":7193,"assurer":7194,"ĠAlfred":7195,"Ġbonnes":7196,"Ġaient":7197,"Ġtribunal":7198,"Ġcreus":7199,"Ġdimension":7200,"Ġspectacle":7201,"ĠLou":7202,"hÃ´pital":7203,"alisÃ©e":7204,"ĠJoe":7205,"Ġart":7206,"worth":7207,"Ġjournaux":7208,"ĠdÃ©fini":7209,"ĠrÃ©nov":7210,"Ġhi":7211,"ĠmontrÃ©":7212,"ĠdÃ©tails":7213,"lits":7214,"ye":7215,"Ġ36":7216,"ĠÃ©glise":7217,"ĠmunicipalitÃ©":7218,"ĠEs":7219,"fications":7220,"interprÃ©":7221,"yer":7222,"ĠArthur":7223,"Ġvrai":7224,"Î±":7225,"ĠCarth":7226,"Ġprobable":7227,"ĠNoÃ«l":7228,"Ġdisponible":7229,"53":7230,"manie":7231,"ientÃ´t":7232,"Ġ1917":7233,"Ġpiano":7234,"Ġcenti":7235,"ĠFI":7236,"ĠForce":7237,"Ġtransports":7238,"VD":7239,"Ġfondateur":7240,"Michel":7241,"ĠPC":7242,"entine":7243,"Ġpasses":7244,"Ġ1955":7245,"Ġpic":7246,"Ġmilliards":7247,"ĠparticipÃ©":7248,"Ġpone":7249,"Ġreprodu":7250,"Ġappartenant":7251,"Ġtreize":7252,"ĠChristian":7253,"ufs":7254,"illÃ©n":7255,"ĠÂ»,.\"":7256,"Ġaffron":7257,"Ġdevrait":7258,"Ġorganisation":7259,"Entre":7260,"Ġjuive":7261,"Ġbateau":7262,"ĠBesanÃ§on":7263,"AN":7264,"ĠSoleil":7265,"identif":7266,"Ã©dÃ©":7267,"Ã©rÃ©es":7268,"Ġpen":7269,"Ġmac":7270,"ato":7271,"Ġcartes":7272,"Ġdange":7273,"ĠFootball":7274,"ĠHouse":7275,"appu":7276,"ĠEv":7277,"Ġanalyse":7278,"Ġcompositeur":7279,"Ġbureau":7280,"Ġench":7281,"ĠLet":7282,"prÃ¨te":7283,"ĠdÃ©couvertes":7284,"OrlÃ©ans":7285,"telligence":7286,"ctor":7287,"Ġapporte":7288,"Ġscand":7289,"effet":7290,"Ġsuccesseur":7291,"Ġmauvaise":7292,"Ġtraits":7293,"Ġnationales":7294,"Ġbrut":7295,"ĠÃīc":7296,"iversaire":7297,"ĠcÃ´tes":7298,"Ġ{\\":7299,"Ġmaritime":7300,"Ġperp":7301,"Ġmonnaie":7302,"Ġpeau":7303,"Ġchampionnats":7304,"iral":7305,"72":7306,"Ġbombarde":7307,"Ġpes":7308,"Ġtac":7309,"ĠLab":7310,"Ġcanton":7311,"Ġsanctu":7312,"anitÃ©":7313,"alors":7314,"Ġautistes":7315,"Ġchristi":7316,"ĠamÃ©ricaines":7317,"rophe":7318,"Ġligue":7319,"ouch":7320,"Ã©sopotam":7321,"Ġutilisent":7322,"ĠCarol":7323,"ĠmÃ©tal":7324,"ĠdirigÃ©e":7325,"Augus":7326,"AssemblÃ©e":7327,"Ġ1957":7328,"ĠprivÃ©":7329,"ĠprÃ©dÃ©":7330,"hib":7331,"ruite":7332,"ĠmatÃ©riaux":7333,"stitut":7334,"ĠNations":7335,"tration":7336,"Ġblancs":7337,"Ġtraditionnelle":7338,"ĠvÃªte":7339,"Ġhor":7340,"Ġaffront":7341,"Ġ1929":7342,"Ġdemander":7343,"ĠfrontiÃ¨res":7344,"Ġsurpr":7345,"Ġ1953":7346,"Ġdirecte":7347,"lÃ©gation":7348,"ĠinfÃ©rieure":7349,"ulÃ©":7350,"Ġpaysans":7351,"Ġasc":7352,"oureux":7353,"tiquitÃ©":7354,"orient":7355,"Ġsent":7356,"Ã©ritier":7357,"aparte":7358,"Ġsociaux":7359,"ĠÃ©leveurs":7360,"ĠsuggÃ¨re":7361,"ĠStanley":7362,"jug":7363,"Ġpur":7364,"ouc":7365,"ĠCre":7366,"ĠYou":7367,"gr":7368,"lois":7369,"objectif":7370,"ariat":7371,"Ġversant":7372,"ĠmÃ©decin":7373,"sÃ©":7374,"ĠWood":7375,"ĠmÃ©tÃ©":7376,"oct":7377,"Ġexplor":7378,"73":7379,"Ġvaut":7380,"Ġanglo":7381,"Ġtroubles":7382,"Ġmorale":7383,"ĠintitulÃ©e":7384,"otter":7385,"ĠcomplÃ©":7386,"ĠmÃ¢les":7387,"roits":7388,"ĠEng":7389,"Ġ49":7390,"low":7391,"aÃ¯que":7392,"mise":7393,"arme":7394,"Ġnat":7395,"roi":7396,"Ġargu":7397,"Ġproductions":7398,"ĠassociÃ©":7399,"Ġabandonne":7400,"ĠRenaissance":7401,"ĠMacÃ©d":7402,"Ã©nieur":7403,"mÃ©t":7404,"ĠJÃ©s":7405,"Ġ1870":7406,"ĠÃ©volue":7407,"Ġpuissant":7408,"Ġchercheurs":7409,"Ġoccas":7410,"ĠFrÃ©dÃ©ric":7411,"ĠJones":7412,"Ġmotifs":7413,"Ġvenant":7414,"Ġrent":7415,"Ġallemandes":7416,"Ġvendu":7417,"Ġlancement":7418,"ĠblessÃ©s":7419,"ouill":7420,"Ġfroid":7421,"Ġseules":7422,"ĠToulouse":7423,"ĠÅ":7424,"Ġmit":7425,"urch":7426,"ĠChambre":7427,"Ġ34":7428,"eck":7429,"Ġassociation":7430,"erlandais":7431,"Ġrup":7432,"Ġcart":7433,"rÃªts":7434,"ĠconsidÃ©rÃ©s":7435,"pective":7436,"ĠchrÃ©tiens":7437,"ĠBourgogne":7438,"ĠRock":7439,"ĠHaw":7440,"Ġautomobile":7441,"CL":7442,"lais":7443,"ĠAvant":7444,"Ġ64":7445,"liste":7446,"Ġconflits":7447,"antill":7448,"Ãº":7449,"Ġactes":7450,"right":7451,"Ġdiscipline":7452,"Ġintroduit":7453,"lÃ©s":7454,"ush":7455,"Ġdistrict":7456,"Ġparent":7457,"Ġfortes":7458,"Ġmusicale":7459,"89":7460,"Car":7461,"ĠStudi":7462,"ĠprÃª":7463,"ĠexpÃ©dition":7464,"Ġpouvaient":7465,"Ġlimites":7466,"Ġaugmente":7467,"ĠWilliams":7468,"Ã©ph":7469,"Ã©lande":7470,"Ġfleurs":7471,"omes":7472,"Ġexplic":7473,"ĠreprÃ©senter":7474,"ĠQui":7475,"bot":7476,"ĠTemple":7477,"ĠrÃ©union":7478,"ĠAntoine":7479,"Ãīv":7480,"Ġcalc":7481,"Elle":7482,"cus":7483,"Ġproch":7484,"Ġclassiques":7485,"Ġseigneur":7486,"ĠBab":7487,"Ġ1900":7488,"play":7489,"Ã©chal":7490,"ĠconÃ§u":7491,"trÃ©mitÃ©":7492,"Ġfisc":7493,"tÃ©ritÃ©":7494,"Ġrelais":7495,"lav":7496,"ĠTre":7497,"Ġ1913":7498,"Ge":7499,"Liens":7500,"iÃ©es":7501,"stÃ¨me":7502,"avel":7503,"ĠnÃ©o":7504,"ĠmÃ©lange":7505,"entique":7506,"Ġsonde":7507,"Ã©cl":7508,"ographies":7509,"ĠdÃ©terminer":7510,"Ġlieutenant":7511,"MalgrÃ©":7512,"ĠdiamÃ¨tre":7513,"ĠDun":7514,"Ġveille":7515,"Ġpistes":7516,"Ã©ma":7517,"Ġarabes":7518,"Ġpousse":7519,"ĠentiÃ¨re":7520,"ĠMons":7521,"Ġorigine":7522,"Ġculturelle":7523,"Ġarrivent":7524,"Ġfabrication":7525,"ĠtrophÃ©e":7526,"seud":7527,"Ġrende":7528,"Ġinsc":7529,"Ġadversaires":7530,"yb":7531,"ĠÃ©volution":7532,"ĠHitler":7533,"ĠtotalitÃ©":7534,"Ã©lÃ¨ve":7535,"Ġcomparaison":7536,"uch":7537,"İle":7538,"ĠLune":7539,"Ġcommen":7540,"ZÃ©lande":7541,"aumes":7542,"ĠPo":7543,"ĠRose":7544,"Ġ1932":7545,"Ġremarque":7546,"Ġpoursuivre":7547,"Ġlourde":7548,"yrÃ©":7549,"ĠpÃ´le":7550,"ĠPologne":7551,"ĠGold":7552,"Ġrelative":7553,"ĠPrince":7554,"aus":7555,"Å«":7556,"tite":7557,"Ã¨nement":7558,"ĠchrÃ©tien":7559,"ĠCambridge":7560,"vitÃ©":7561,"ĠEug":7562,"ĠprÃªt":7563,"ĠrÃ©flex":7564,"ĠfÃ©minin":7565,"ĠathlÃ¨tes":7566,"litÃ©":7567,"rÃ©h":7568,"ĠLar":7569,"Ġracont":7570,"ĠarchÃ©ologiques":7571,"ĠErn":7572,"Ã©tranger":7573,"usalem":7574,"venue":7575,"Ġcapture":7576,"ĠHarry":7577,"dÃ©":7578,"auts":7579,"ĠMol":7580,"ulf":7581,"icon":7582,"Ġavance":7583,"ĠÃ©crire":7584,"Ġincap":7585,"ĠhuitiÃ¨me":7586,"Ġenvirons":7587,"ĠGÃ©org":7588,"ĠGarde":7589,"ĠArn":7590,"Ġcolonie":7591,"Ġpeintures":7592,"ĠShe":7593,"ĠMans":7594,"ĠJung":7595,"ĠcommÃ©m":7596,"oig":7597,"ĠRol":7598,"Ġcontest":7599,"ĠeuropÃ©ennes":7600,"ĠmÃ¢le":7601,"Ġmandat":7602,"SA":7603,"Ġsan":7604,"Ġnoy":7605,"eum":7606,"Ġentreprise":7607,"ĠÃ©lab":7608,"ism":7609,"ĠmillÃ©n":7610,"ositÃ©":7611,"Ġrose":7612,"claves":7613,"Son":7614,"rm":7615,"iert":7616,"ĠCompagnie":7617,"Ġbons":7618,"ĠFestival":7619,"lisation":7620,"ĠsiÃ¨ges":7621,"Ġrecon":7622,"uge":7623,"erce":7624,"ĠAmÃ©ricains":7625,"ount":7626,"Ġcercle":7627,"ĠdÃ©cennies":7628,"Ġcode":7629,"Ġaltitude":7630,"ĠSteph":7631,"ĠirrÃ©":7632,"Ġpoissons":7633,"Ġsoixante":7634,"Ġcontemporains":7635,"Ġmanifestations":7636,"Ġbaptis":7637,"ĠmonastÃ¨re":7638,"ĠRes":7639,"inson":7640,"Ġtouche":7641,"uellement":7642,"ĠÃ©tapes":7643,"ĠdÃ©clarÃ©":7644,"ĠabandonnÃ©":7645,"Ġstatis":7646,"traction":7647,"Ġpossession":7648,"ĠpopularitÃ©":7649,"Ġbataillon":7650,"Ġremise":7651,"Ġtentatives":7652,"frac":7653,"ĠpÃ©r":7654,"agglomÃ©ration":7655,"Ġsoumis":7656,"seur":7657,"ĠdÃ©cret":7658,"anna":7659,"Ġperdre":7660,"Ġsuivie":7661,"ĠpropriÃ©tÃ©s":7662,"Ġarchitectur":7663,"cinq":7664,"Ġrequ":7665,"Ġmusiciens":7666,"Ġ1860":7667,"Ġsauvage":7668,"Ġparticul":7669,"odie":7670,"ĠSteve":7671,"Ġvendus":7672,"amÃ©ric":7673,"Enfin":7674,"ĠÃīdouard":7675,"ĠgÃ©ographique":7676,"Ġtension":7677,"Ġbourgeois":7678,"54":7679,"Ġconfond":7680,"ĠÃ©preuve":7681,"Ġcolonies":7682,"ĠprÃ©cisÃ©ment":7683,"Ġconcurrence":7684,"ĠJournal":7685,"Ġsurmont":7686,"Ġexig":7687,"Ġarb":7688,"Ġsoutient":7689,"ennis":7690,"ĠBonaparte":7691,"attention":7692,"Ġavons":7693,"AntiquitÃ©":7694,"Ġsecondaires":7695,"chevÃªque":7696,"ĠprofondÃ©ment":7697,"ĠNorvÃ¨ge":7698,"Ġlux":7699,"ongement":7700,"ĠmÃ©l":7701,"Ġfoule":7702,"ĠAustralie":7703,"existe":7704,"ĠreconnaÃ®t":7705,"Ġsoutenir":7706,"Tra":7707,"astre":7708,"tone":7709,"ĠCanadiens":7710,"ĠLennon":7711,"iner":7712,"ĠÃ§":7713,"agÃ©es":7714,"aib":7715,"ĠPap":7716,"ĠtracÃ©":7717,"sept":7718,"Ġ1931":7719,"Ġparoisse":7720,"ĠXXIe":7721,"Com":7722,"ild":7723,"orial":7724,"ĠprocÃ©dÃ©":7725,"Ġdevi":7726,"oudre":7727,"essentiel":7728,"Ġterrestre":7729,"ĠextrÃªmement":7730,"Ġaudi":7731,"aign":7732,"Ġfemelle":7733,"ĠspÃ©cifique":7734,"math":7735,"wick":7736,"ĠgoÃ»t":7737,"Ġgarn":7738,"Ġafric":7739,"Ġ42":7740,"Ġespaces":7741,"ĠprÃ©sidence":7742,"ĠlimitÃ©e":7743,"Ġrichesse":7744,"time":7745,"Ġjamb":7746,"espÃ¨ces":7747,"Ġtrouvait":7748,"ĠfÃ©minine":7749,"Gu":7750,"gÃ©es":7751,"Ġ1919":7752,"Ġnotion":7753,"ĠComitÃ©":7754,"Ġremplace":7755,"Ġ1928":7756,"ĠdÃ©sir":7757,"Ġressembl":7758,"entures":7759,"ĠdestinÃ©s":7760,"ĠÃ¢gÃ©":7761,"ella":7762,"ĠElizabeth":7763,"ĠVierge":7764,"Ġfournir":7765,"Ġcostu":7766,"ĠSpe":7767,"Ġalg":7768,"oble":7769,"ĠReg":7770,"ĠSociety":7771,"Ġexerc":7772,"Ġcirc":7773,"amÃ©nagement":7774,"ool":7775,"itres":7776,"Ġplaine":7777,"Ġeau":7778,"ĠrÃ©alisÃ©es":7779,"ricitÃ©":7780,"Ã©tudes":7781,"84":7782,"Se":7783,"Ġsecondaire":7784,"ossais":7785,"Ġcompagnies":7786,"Irlande":7787,"mÃ¨tres":7788,"vres":7789,"Ġfro":7790,"rion":7791,"ĠSix":7792,"Ġgame":7793,"Ġprosp":7794,"ĠJan":7795,"ĠdiffÃ©rente":7796,"ameau":7797,"ĠSeine":7798,"ĠÃ©changes":7799,"ĠTch":7800,"exposition":7801,"Ġenseign":7802,"ĠCertaines":7803,"ela":7804,"Ġfrais":7805,"ĠEdward":7806,"arrÃª":7807,"ĠrÃ©duite":7808,"ArmÃ©e":7809,"59":7810,"Î¿":7811,"Ġmorceaux":7812,"ĠinfÃ©rieur":7813,"hypothÃ¨se":7814,"ĠAlli":7815,"mettre":7816,"Ġprincipes":7817,"Ġdistingu":7818,"ĠcÃ©lÃ¨bres":7819,"Ġquatorze":7820,"sang":7821,"ardins":7822,"introduction":7823,"Ġsignes":7824,"ĠSand":7825,"ĠâĢĶ,":7826,"Ur":7827,"ez":7828,"ĠBorde":7829,"ĠVie":7830,"ermain":7831,"Ġimpressionn":7832,"ĠtraversÃ©e":7833,"Ġchronique":7834,"Ġalent":7835,"Ġpodium":7836,"ĠAlpes":7837,"Ġ1924":7838,"Ġcontinuent":7839,"Ġbilan":7840,"imagin":7841,"Ġeffectifs":7842,"Ġlou":7843,"rices":7844,"ĠSong":7845,"Ġsubst":7846,"Ġopposition":7847,"Ġfabri":7848,"mentation":7849,"astes":7850,"Ġannonc":7851,"Arm":7852,"lim":7853,"Ġpartout":7854,"ymn":7855,"Sa":7856,"ĠRennes":7857,"exc":7858,"Ã©cart":7859,"Ġfemelles":7860,"Ġdescente":7861,"ĠindÃ©pendant":7862,"accep":7863,"aventure":7864,"Ġapproche":7865,"tish":7866,"Ġ1935":7867,"Ġfeuilles":7868,"ĠretrouvÃ©":7869,"SC":7870,"ĠÃ©rig":7871,"sim":7872,"Ġpassages":7873,"Ġessai":7874,"Ġfigur":7875,"ĠdÃ©grad":7876,"ĠXIVe":7877,"ĠLeg":7878,"ĠentrÃ©e":7879,"installe":7880,"ĠJacob":7881,"Cependant":7882,"Ġnettement":7883,"sant":7884,"Ã¨nent":7885,"Ġfur":7886,"siris":7887,"olle":7888,"Ġacte":7889,"Ġentrer":7890,"pour":7891,"ĠLife":7892,"mbler":7893,"ardo":7894,"ĠAthÃ¨nes":7895,"Ġguitare":7896,"Ġtemples":7897,"explor":7898,"ĠBrun":7899,"Ġtriom":7900,"Ġmachine":7901,"92":7902,"El":7903,"Ġseize":7904,"Ġcompli":7905,"Ġservent":7906,"ĠpoÃ¨mes":7907,"aki":7908,"Ġuniversitaire":7909,"ĠlancÃ©":7910,"Loire":7911,"ĠBag":7912,"Ã©lite":7913,"ĠMusic":7914,"Ġrume":7915,"ĠfinanciÃ¨re":7916,"ĠmÃ©ri":7917,"ĠprÃ©sentation":7918,"avier":7919,"Ġfortune":7920,"ĠdÃ©couvrir":7921,"ĠtuÃ©s":7922,"ĠAlex":7923,"Ġhyp":7924,"Ġcolonne":7925,"ĠBarb":7926,"Ġmorceau":7927,"Autres":7928,"Ġmarchands":7929,"ĠfÃ©es":7930,"Ġnar":7931,"vice":7932,"Ġaura":7933,"Ġretrait":7934,"ĠFant":7935,"Ġrecons":7936,"ĠUr":7937,"Ġrouges":7938,"Ġrenforcer":7939,"erv":7940,"tible":7941,"Ġclo":7942,"Ġchamps":7943,"Ġenvisage":7944,"Ġdouce":7945,"ĠmÃ©dic":7946,"cia":7947,"ciation":7948,"Ġtirs":7949,"ried":7950,"Ġcultures":7951,"ophone":7952,"Ġpluie":7953,"Ġcatast":7954,"ĠField":7955,"ressions":7956,"cuper":7957,"Ã©mission":7958,"Ġtirer":7959,"lame":7960,"ĠfÃ©dÃ©ra":7961,"sen":7962,"Ġvague":7963,"ĠDom":7964,"uxelles":7965,"Ġsuisse":7966,"ĠguÃ¨re":7967,"Ġcaf":7968,"Ġpossibles":7969,"ĠJÃ©rusalem":7970,"Ġlinguis":7971,"ĠCeux":7972,"ĠRoi":7973,"ĠRoss":7974,"Ġargent":7975,"Ġroch":7976,"Ġferrovi":7977,"ĠIVe":7978,"pÃ¨re":7979,"ws":7980,"Äĩ":7981,"Ġlente":7982,"Ġdanse":7983,"Ġarr":7984,"ĠproposÃ©":7985,"ĠIIIe":7986,"ource":7987,"Ġliaison":7988,"ĠgÃ©omÃ©t":7989,"Ġmul":7990,"union":7991,"Ġtrip":7992,"ĠbientÃ´t":7993,"ĠVend":7994,"ĠconsÃ©":7995,"Ġoblige":7996,"Ġordonne":7997,"ĠmÃ©decine":7998,"Ġvac":7999,"uir":8000,"ĠdirigÃ©":8001,"Ġvraisemblablement":8002,"ivement":8003,"Ġrig":8004,"Ġdig":8005,"ĠdiffÃ©rences":8006,"Ġprovisoire":8007,"Ath":8008,"ial":8009,"not":8010,"arrÃªt":8011,"char":8012,"ston":8013,"ĠWat":8014,"ĠpoÃ©sie":8015,"Ġaffich":8016,"Ġrevenu":8017,"Ġcommerciale":8018,"ĠRaymond":8019,"Ġrejoign":8020,"inÃ©e":8021,"ĠconsidÃ¨rent":8022,"Ġ1951":8023,"ĠHongrie":8024,"Ġcorrespondant":8025,"Ġsauve":8026,"Ġadaptation":8027,"Ġbanc":8028,"Ġexige":8029,"Ġtire":8030,"Ġlibres":8031,"Ġdevaient":8032,"instar":8033,"ĠprÃ©voit":8034,"Ġgolf":8035,"ĠMod":8036,"Ġcontenant":8037,"Ġmagas":8038,"lon":8039,"sme":8040,"ĠMah":8041,"ĠJon":8042,"aissant":8043,"Ġattend":8044,"ĠÃ©tablit":8045,"ilton":8046,"Ġduquel":8047,"Ġ%.":8048,"Ġpaysage":8049,"ĠRoche":8050,"Ġmentionne":8051,"Ġorbite":8052,"ĠMexique":8053,"uent":8054,"Ã©chelle":8055,"Ġcolonel":8056,"Ġchiffre":8057,"fus":8058,"exÃ©cu":8059,"ancÃ©e":8060,"ophones":8061,"information":8062,"gre":8063,"ĠBelle":8064,"ĠWill":8065,"Ġbiais":8066,"entraÃ®nement":8067,"enregistrement":8068,"ĠconsÃ©quent":8069,"ĠdÃ©cors":8070,"Ġpropag":8071,"Ġcoureurs":8072,"joint":8073,"hip":8074,"AcadÃ©mie":8075,"Ġpeur":8076,"Ġnid":8077,"Ã´mes":8078,"rasse":8079,"Ġrelief":8080,"94":8081,"itions":8082,"net":8083,"Ġproclam":8084,"Ġponts":8085,"Mus":8086,"ĠintÃ©rieure":8087,"ĠFord":8088,"Ġram":8089,"Ġcourts":8090,"Ġconstructions":8091,"Ġtenter":8092,"86":8093,"Ġfau":8094,"Ġchampions":8095,"Ġsimilaires":8096,"Ġavions":8097,"vey":8098,"dule":8099,"Ġesprit":8100,"Ġbases":8101,"ĠdÃ©mission":8102,"ĠQuatre":8103,"ĠappelÃ©s":8104,"cesseurs":8105,"ĠrÃ©pondre":8106,"Ġespagnol":8107,"51":8108,"97":8109,"Du":8110,"orce":8111,"estes":8112,"arctique":8113,"Ġhauts":8114,"Ġoriginaire":8115,"awa":8116,"Ġfre":8117,"Ġplant":8118,"ĠrÃ©ellement":8119,"ĠLady":8120,"enceinte":8121,"appui":8122,"Ġcontinuer":8123,"Ġaugmentation":8124,"ĠfÃ©dÃ©ral":8125,"wis":8126,"ĠKir":8127,"Ġgam":8128,"Ġprovient":8129,"Ġmoteurs":8130,"Ġinstallations":8131,"ĠBordeaux":8132,"Sp":8133,"Ġ1911":8134,"aco":8135,"ĠlibÃ©ration":8136,"ĠeffectuÃ©":8137,"Ġcorrespondance":8138,"Ġscolaire":8139,"ĠDVD":8140,"ĠbasÃ©":8141,"Ġconseils":8142,"engage":8143,"Ġcouvert":8144,"ĠMarcel":8145,"Ġinstrument":8146,"ĠDÃ©":8147,"Ġchercher":8148,"ajout":8149,"Ã©rindi":8150,"heur":8151,"Ġmilieux":8152,"Inde":8153,"Ġcouche":8154,"Ġbarre":8155,"Ġquotidien":8156,"Ġmusulman":8157,"ĠsystÃ©matique":8158,"Ġbris":8159,"ĠOff":8160,"tionnaires":8161,"Ġremarquable":8162,"rine":8163,"Ġrisques":8164,"gen":8165,"ĠBig":8166,"ĠOs":8167,"olesc":8168,"ĠimpÃ©rial":8169,"Ġcitoyens":8170,"ao":8171,"oulement":8172,"ĠrenommÃ©e":8173,"Ã©chec":8174,"Ġache":8175,"Ġtap":8176,"amen":8177,"ĠNÃ©":8178,"Ġconcerts":8179,"Ġtraditions":8180,"ĠGren":8181,"ĠSpir":8182,"ĠdÃ©signÃ©":8183,"Ġdestination":8184,"Parmi":8185,"ĠmathÃ©matiques":8186,"ĠnÃ©e":8187,"ĠhÃ´tel":8188,"ĠbeautÃ©":8189,"Ġopus":8190,"Alors":8191,"Ġcrimin":8192,"Ġeuros":8193,"Ġsimples":8194,"Ġurbain":8195,"uffis":8196,"actuelle":8197,"Ġchaleur":8198,"Ġciter":8199,"ĠMath":8200,"ĠBulg":8201,"insule":8202,"ĠrÃ©ussite":8203,"Ġbelge":8204,"sa":8205,"Ã¨vement":8206,"ĠenquÃªte":8207,"ĠPÃ©ri":8208,"Articles":8209,"Ġcontraint":8210,"ova":8211,"Ġ1916":8212,"Ġlabor":8213,"ĠdÃ©esse":8214,"ĠStu":8215,"ĠMaria":8216,"ĠrÃ©formes":8217,"Ġnaturelles":8218,"Ġ1922":8219,"Ġprofessionnelle":8220,"ĠPatrick":8221,"ĠpÃ©tro":8222,"aptiste":8223,"ĠAng":8224,"yrÃ©nÃ©es":8225,"Ġfaux":8226,"ĠSS":8227,"Ġofficier":8228,"ĠJackson":8229,"Ġcite":8230,"ĠVit":8231,"Ġissue":8232,"isÃ©e":8233,"inture":8234,"Ġsemi":8235,"ĠChurch":8236,"Ġmonte":8237,"ommages":8238,"dessous":8239,"ÏĤ":8240,"iÃ¨te":8241,"ĠEsp":8242,"Ġautrich":8243,"ĠCharl":8244,"ĠÃ©quival":8245,"ĠJustin":8246,"ĠÃ§a":8247,"Ġsab":8248,"Ġvape":8249,"Ġber":8250,"ĠKi":8251,"Ġvolumes":8252,"Ġgalerie":8253,"hommes":8254,"Ġcrit":8255,"ĠunitÃ©":8256,"inspire":8257,"Ġ1926":8258,"ĠcamÃ©ra":8259,"Ġharas":8260,"ĠvÃ©ritÃ©":8261,"Ġjet":8262,"Ġcontribue":8263,"ologies":8264,"Ġfigurent":8265,"ĠDonald":8266,"yde":8267,"Ġfaites":8268,"ĠoccupÃ©":8269,"oges":8270,"adis":8271,"ĠPourtant":8272,"Ġdevenant":8273,"Ġqualification":8274,"Ġcandidat":8275,"opinion":8276,"96":8277,"ĠdÃ©signer":8278,"ĠarchÃ©ologique":8279,"ĠAssociation":8280,"Ġrecommand":8281,"inal":8282,"inspiration":8283,"Ġobjectifs":8284,"Ġphases":8285,"ĠprogrÃ¨s":8286,"veille":8287,"87":8288,"Ġtue":8289,"roc":8290,"lisabeth":8291,"Ġ1905":8292,"Ġindustrielle":8293,"ĠchrÃ©tienne":8294,"ĠpÃ©d":8295,"Ġmons":8296,"ĠMos":8297,"Ġrecours":8298,"ĠprÃ©sentant":8299,"cidents":8300,"ĠfÃ©dÃ©ration":8301,"Ġpauvres":8302,"GÃ©":8303,"ĠrÃ©pert":8304,"ynx":8305,"Ġtuer":8306,"Atlantique":8307,"Mais":8308,"oises":8309,"Ġbattu":8310,"Ġprogression":8311,"Ġcalend":8312,"Ġexclusivement":8313,"osaur":8314,"ĠEspagne":8315,"Ġanalys":8316,"Ġottoman":8317,"56":8318,"hel":8319,"ĠFal":8320,"emplacement":8321,"Ãīt":8322,"Ġmol":8323,"ĠJeanne":8324,"ĠBol":8325,"Ã©riques":8326,"Ġcompil":8327,"adel":8328,"ĠÃ©pous":8329,"ĠagrÃ©":8330,"Ġlabel":8331,"ĠVill":8332,"Ġconstat":8333,"Ġrencontrer":8334,"Ġmoines":8335,"dans":8336,"ĠaÃ©ro":8337,"otype":8338,"Ġconseiller":8339,"book":8340,"Ġcents":8341,"Ġvarie":8342,"titudes":8343,"Ġformat":8344,"esses":8345,"ĠprÃ©cÃ©dentes":8346,"ĠÃ©lector":8347,"ĠinÃ©d":8348,"ĠNBA":8349,"ellation":8350,"ĠBruxelles":8351,"ĠLucas":8352,"ĠvallÃ©es":8353,"ĠmÃ©tÃ©or":8354,"riss":8355,"Ã¨ler":8356,"Ġmatern":8357,"accomp":8358,"ĠGrÃ¢ce":8359,"Ġparfaitement":8360,"Av":8361,"inves":8362,"Ġchamb":8363,"ĠHans":8364,"Ġexac":8365,"Ġcompt":8366,"ramme":8367,"Ġconsacre":8368,"comme":8369,"tige":8370,"ĠfÃªtes":8371,"ĠCÃ´te":8372,"ĠtraÃ®":8373,"Ġanniversaire":8374,"Ġmines":8375,"Ġengage":8376,"Ġmessage":8377,"Ġchantier":8378,"ĠvÃªtements":8379,"jor":8380,"ĪĴ":8381,"Ġpayer":8382,"archÃ©":8383,"Ġconte":8384,"Ġpersonnelle":8385,"Ġcycl":8386,"ĠadaptÃ©":8387,"AndrÃ©":8388,"ãĤ":8389,"Ġcardin":8390,"rez":8391,"ĠMonde":8392,"ĠrÃ©elle":8393,"ĠBÃ©arn":8394,"Ġfuite":8395,"rastructures":8396,"quette":8397,"ĠIIe":8398,"impact":8399,"exemple":8400,"Ġabrit":8401,"ĠArch":8402,"Ġprogrammes":8403,"Ġgarder":8404,"Emp":8405,"hl":8406,"alon":8407,"Ġhipp":8408,"Ġfranco":8409,"ĠpubliÃ©s":8410,"ĠpÃ©riph":8411,"espoir":8412,"ĠprÃ©fÃ¨re":8413,"Ġjournalistes":8414,"Ġgrot":8415,"Ġentend":8416,"ĠapparaÃ®tre":8417,"Ġlarges":8418,"Ġchanteur":8419,"qua":8420,"ĠHow":8421,"ĠLaurent":8422,"ĠVincent":8423,"Ã©vÃ©":8424,"Inter":8425,"ĠsÃ©paration":8426,"ĠTimes":8427,"98":8428,"Ġblo":8429,"ussions":8430,"Ġcultiv":8431,"ĠspÃ©cialistes":8432,"ĠintÃ¨gre":8433,"Ġ44":8434,"ĠrÃ©form":8435,"Ġlunaire":8436,"ĠVÃ©n":8437,"Ġcompens":8438,"ĠgÃ©nÃ©tique":8439,"Ġinterview":8440,"ipel":8441,"ĠChampionn":8442,"rimÃ©":8443,"rance":8444,"Ġcomptait":8445,"ĠrÃ©pÃ©ti":8446,"Ġnaturels":8447,"Ġgratu":8448,"ĠSouth":8449,"anny":8450,"elson":8451,"Ġvieille":8452,"Ġ1915":8453,"veillance":8454,"umul":8455,"posi":8456,"Ġregret":8457,"Ġ1925":8458,"gues":8459,"pit":8460,"Ġmang":8461,"Ġjuifs":8462,"ĠKent":8463,"Ġailes":8464,"Ġdiman":8465,"Ġbateaux":8466,"Sc":8467,"ĠRC":8468,"Ã¢me":8469,"ĠclergÃ©":8470,"Ġconfie":8471,"Ancien":8472,"ortÃ©es":8473,"UR":8474,"ho":8475,"vous":8476,"duits":8477,"Ġdomine":8478,"Ġexpliquer":8479,"ĠMacÃ©doine":8480,"enquÃªte":8481,"atti":8482,"ĠBau":8483,"ĠFort":8484,"angers":8485,"ĠdiffÃ©rent":8486,"Ġstatues":8487,"ĠÃ©vÃ©nement":8488,"91":8489,"App":8490,"RÃ©f":8491,"ĠApollo":8492,"lÃ¨vement":8493,"Ã©rance":8494,"Ġflor":8495,"ĠprÃ©vue":8496,"Ġsoutenu":8497,"ĠTro":8498,"ĠexpÃ©di":8499,"Ġfacteurs":8500,"Ġmeurtre":8501,"ĠMilan":8502,"nie":8503,"ensis":8504,"ĠarrÃªt":8505,"tesse":8506,"calier":8507,"Ġdizaine":8508,"ĠPur":8509,"ĠFland":8510,"Ġpassion":8511,"parti":8512,"Ġbattre":8513,"Ġreprennent":8514,"Ġhautes":8515,"ĠreconnaÃ®tre":8516,"Ġmusical":8517,"ĠcÃ©ra":8518,"auph":8519,"seaux":8520,"Ġmajoritairement":8521,"Ġ%)":8522,"Ġvide":8523,"ohn":8524,"Ġrestes":8525,"Ġcolline":8526,"abbÃ©":8527,"Ġrenforce":8528,"Ġrupture":8529,"ĠGÃ©orgie":8530,"raft":8531,"Ġmonter":8532,"ropri":8533,"Ġcatholiques":8534,"installation":8535,"ĠCompany":8536,"elÃ©":8537,"atmosphÃ¨re":8538,"Ġtournant":8539,"Ġspatiale":8540,"ĠPengu":8541,"ason":8542,"ĠItal":8543,"Ã©rite":8544,"assassin":8545,"ĠAuc":8546,"Ġ1921":8547,"IC":8548,"Ġspr":8549,"ieur":8550,"Ġroches":8551,"ĠthÃ¨se":8552,"Ġtalent":8553,"ĠprÃ©parer":8554,"UniversitÃ©":8555,"ĠBoul":8556,"Ġamateur":8557,"dd":8558,"raits":8559,"Ġservant":8560,"Ġmaintien":8561,"Ġ1909":8562,"Ġparcs":8563,"Ġsignature":8564,"leton":8565,"ĠtÃ©moignages":8566,"93":8567,"Ġsommes":8568,"Ã¨ques":8569,"ĠdÃ©barque":8570,"Ġcirconst":8571,"áĥ":8572,"liquer":8573,"Ġchance":8574,"exemp":8575,"anisation":8576,"ĠsoirÃ©e":8577,"Charles":8578,"Ġnauf":8579,"Ã©viter":8580,"Ġremis":8581,"ĠlÃ©gÃ¨re":8582,"Ġtensions":8583,"Ġvents":8584,"ador":8585,"Ġsecours":8586,"Ġcentaine":8587,"ĠintÃ©rÃªts":8588,"Ġgameplay":8589,"ĠBor":8590,"ĠtraitÃ©s":8591,"Ġcommiss":8592,"lÃ¨che":8593,"ĠbasÃ©e":8594,"accueil":8595,"Ġwe":8596,"ĠpÃ©ninsule":8597,"iterranÃ©e":8598,"ĠPortugal":8599,"ĠStreet":8600,"Ã©taire":8601,"Ġcourants":8602,"Ġgrecs":8603,"Ġfans":8604,"ĠtÃ©lÃ©ph":8605,"ĠJÃ©sus":8606,"usine":8607,"pool":8608,"ĠPok":8609,"amer":8610,"ĠVin":8611,"ĠMarine":8612,"Ġinterd":8613,"ancÃ©":8614,"Ġcamps":8615,"Ġconseill":8616,"ĠMickey":8617,"Ġparf":8618,"Ã¢ts":8619,"Ġadmi":8620,"approche":8621,"Ġconnaissent":8622,"ĠdÃ©veloppÃ©e":8623,"ribution":8624,"ĠlimitÃ©":8625,"Ġmonoplace":8626,"ĠmillÃ©naire":8627,"ĠLÃ©g":8628,"cha":8629,"ĠÃ©nerg":8630,"Ġchristianisme":8631,"jus":8632,"Ġ1927":8633,"Ġinternationales":8634,"uite":8635,"urrection":8636,"Ġfall":8637,"Ġbec":8638,"ĠSit":8639,"ĠGh":8640,"Ġmerc":8641,"ĠdÃ©claration":8642,"ĠmÃ©canique":8643,"invasion":8644,"Ġnatur":8645,"Ġinond":8646,"Ġcyc":8647,"Ġconvaincre":8648,"Ġcrain":8649,"ĠBook":8650,"acu":8651,"ifÃ¨res":8652,"Ġcolons":8653,"Ġenter":8654,"ĠreÃ§oivent":8655,"ĠopÃ©ration":8656,"Ġtentent":8657,"ĠSamuel":8658,"Ġfasc":8659,"ĠMaj":8660,"Ġhan":8661,"ouvoir":8662,"ĠdÃ©finition":8663,"Ġendroit":8664,"Ġgraphismes":8665,"ĠFar":8666,"lave":8667,"ĠmenÃ©es":8668,"ower":8669,"Ġdocteur":8670,"ĠCroix":8671,"Ġauxquels":8672,"oque":8673,"Ġparu":8674,"ĠSir":8675,"seurs":8676,"Ã©cran":8677,"ĠsÃ©le":8678,"astron":8679,"Ġ1906":8680,"ĠfidÃ¨les":8681,"quait":8682,"Ġmeu":8683,"riment":8684,"ĠvoÃ»":8685,"Ġfacile":8686,"Alexandre":8687,"ilien":8688,"remment":8689,"Ġsynag":8690,"ĠGreen":8691,"Ġreconstruction":8692,"Ġcrat":8693,"Ġchemins":8694,"Ġvertic":8695,"Ġcouvre":8696,"Ġsurnom":8697,"ĠtÃ©lÃ©visÃ©e":8698,"Avant":8699,"gie":8700,"Ġlave":8701,"ĠVenise":8702,"Ġtramway":8703,"Ġflu":8704,"amiral":8705,"Ġcommuniste":8706,"ĠlittÃ©raires":8707,"Ġcivils":8708,"Ġbeaux":8709,"Ġ.":8710,"issi":8711,"ĠCri":8712,"odore":8713,"ĠParlement":8714,"Ġencad":8715,"Association":8716,"ĠprÃ©tend":8717,"mo":8718,"Ã©ens":8719,"meub":8720,"ĠcomÃ©die":8721,"illons":8722,"ĠÃ©vÃª":8723,"Ġissues":8724,"ĠrÃ©serves":8725,"Ġpatin":8726,"alimentation":8727,"ĠCarthage":8728,"57":8729,"garde":8730,"Ġence":8731,"ĠvÃ©ri":8732,"ims":8733,"ĠcongrÃ¨s":8734,"Cert":8735,"sol":8736,"ĠAv":8737,"ĠTy":8738,"Ġactif":8739,"Ġcivil":8740,"ĠMÃ©diterranÃ©e":8741,"AA":8742,"assent":8743,"ronic":8744,"}}\"":8745,"Ġmodifications":8746,"Ġprolongement":8747,"Ġprovenance":8748,"chester":8749,"ersonn":8750,"Ġempereur":8751,"Ġrecensement":8752,"autisme":8753,"aton":8754,"Ġroche":8755,"Institut":8756,"Ġespagnole":8757,"hyd":8758,"Ġtunn":8759,"Ġvigue":8760,"asy":8761,"Ã»t":8762,"ĠLove":8763,"ĠmÃ©ridion":8764,"Ġvapeur":8765,"Ġvigueur":8766,"Î½":8767,"agi":8768,"Ġjardins":8769,"abilis":8770,"Ã©rard":8771,"Ġ170":8772,"ĠtempÃ©ratures":8773,"Ġcanadienne":8774,"ĠBonn":8775,"ĠhypothÃ¨se":8776,"isses":8777,"Ang":8778,"arin":8779,"eta":8780,"ĠcrÃ©Ã©s":8781,"Ġrestant":8782,"aurait":8783,"Ġvoisins":8784,"Ġennemi":8785,"nom":8786,"Ġtor":8787,"Ġbra":8788,"ĠXIe":8789,"Ġexistent":8790,"Ġnarrateur":8791,"Ġforteresse":8792,"ĠBois":8793,"ĠEnter":8794,"ĠKen":8795,"ĠdÃ©placement":8796,"ĠmenÃ©":8797,"ropol":8798,"ĠAugustin":8799,"ĠHistory":8800,"rue":8801,"Ġverre":8802,"ĠColl":8803,"ĠtravaillÃ©":8804,"Ġtransformation":8805,"ĠfidÃ¨le":8806,"Î¹":8807,"Ġheur":8808,"oter":8809,"impression":8810,"aisseur":8811,"82":8812,"ĠMagn":8813,"ĠCheval":8814,"Ġpoul":8815,"neau":8816,"Ġconnexes":8817,"Ġsurv":8818,"Ġsocialiste":8819,"Ġbyzantine":8820,"ĠTitanic":8821,"trois":8822,"alph":8823,"Ġavis":8824,"Ã©rap":8825,"ssage":8826,"aker":8827,",,,.":8828,"ĠÃ©tablie":8829,"ĠemployÃ©":8830,"ĠAuguste":8831,"ĠconsidÃ©rable":8832,"ĠsupplÃ©mentaire":8833,"ĠFlorence":8834,"Station":8835,"enait":8836,"ĠCI":8837,"ĠCant":8838,"Ã©crit":8839,"ĠCeci":8840,"Arg":8841,"Ġsauver":8842,"ĠÃ©met":8843,"ĠGalles":8844,"ĠLamb":8845,"ĠTal":8846,"ocat":8847,"ĠannoncÃ©":8848,"Ġnotables":8849,"ĠÃ©levÃ©s":8850,"Ġos":8851,"ĠMid":8852,"Ã©rable":8853,"Ġcanon":8854,"licitÃ©":8855,"ĠdiversitÃ©":8856,"Ġquasiment":8857,"ĠinfluencÃ©":8858,"ĠprÃ©cipitations":8859,"urn":8860,"ĠImp":8861,"Ġ.\"":8862,"ĠdegrÃ©":8863,"veu":8864,"ĠAlain":8865,"ĠDum":8866,"ĠRoch":8867,"ĠGall":8868,"ĠVirgin":8869,"Ġsalon":8870,"Ġendroits":8871,"Ġinscrits":8872,"Ġdivisions":8873,"wa":8874,"anni":8875,"ĠengagÃ©":8876,"aigne":8877,"ĠRet":8878,"Ã©niens":8879,"Ãītienne":8880,"effond":8881,"ĠVictoria":8882,"aÃ©roport":8883,"ompe":8884,"elin":8885,"Ġvise":8886,"ĠAp":8887,"ĠDomin":8888,"Ġramen":8889,"ĠdÃ©criv":8890,"ĠinterprÃ¨te":8891,"Ġautonom":8892,"ĠnumÃ©rique":8893,"ĠÐ":8894,"Ġforts":8895,"Ġabsent":8896,"ĠrÃ©cur":8897,"landaise":8898,"Ġcircons":8899,"Ġvenus":8900,"Ġpotentiel":8901,"Ġtransfert":8902,"olith":8903,"Ġprotagon":8904,"Ġbillets":8905,"ona":8906,"quare":8907,"Ġexil":8908,"Ġrencontrent":8909,"Ġsportifs":8910,"ĠTunisie":8911,"CLC":8912,"tils":8913,"aid":8914,"ombres":8915,"Ġblanches":8916,"offici":8917,"ĠtÃ©moignage":8918,"Ġaccessible":8919,"ĠlatÃ©ra":8920,"ĠSans":8921,"ĠgrÃ©":8922,"ĠcomplÃ©ment":8923,"Ġformant":8924,"Ġ1880":8925,"ĠManuel":8926,"ĠrÃ©compens":8927,"Ac":8928,"Mont":8929,"Ġlait":8930,"rod":8931,"intermÃ©diaire":8932,"ĠcatÃ©gories":8933,"urÃ©s":8934,"iÃ¨mes":8935,"ĠGames":8936,"Ġrepouss":8937,"ĠautoritÃ©":8938,"ĠMadrid":8939,"Ġdocumentaire":8940,"ĠmÃ©decins":8941,"ĠFlori":8942,"Ġbri":8943,"ĠKer":8944,"ĠrÃ©glement":8945,"ĠdÃ©putÃ©":8946,"ĠrÃ©unit":8947,"Ġcavaliers":8948,"Ġretourner":8949,"ĠGand":8950,"Ġ41":8951,"elda":8952,"Ġtribus":8953,"Ġ_{":8954,"ĠsÅĵurs":8955,"uts":8956,"ĠFrancisco":8957,"Ġbranche":8958,"Ġstandard":8959,"Acc":8960,"lines":8961,"zaine":8962,"Ã©en":8963,"onien":8964,"Ġpert":8965,"audi":8966,"neurs":8967,"ĠchÅĵur":8968,"Ġinternationaux":8969,"Ġconcentration":8970,"ĠrÃ´les":8971,"identitÃ©":8972,"Ġ65":8973,"Ġabord":8974,"ĠrÃ©publique":8975,"Ġproposer":8976,"ĠdemandÃ©":8977,"Joseph":8978,"pel":8979,"ĠAs":8980,"prÃªme":8981,"ĠNouveau":8982,"Ġsolide":8983,"ĠConstitution":8984,"Ġerreur":8985,"83":8986,"ĠSpr":8987,"Ġanneaux":8988,"Ġcharbon":8989,"Ġ1923":8990,"Ġcombattre":8991,"humanitÃ©":8992,"ĠÃ©vidence":8993,"serve":8994,"ĠcinÃ©mat":8995,"ĠKeats":8996,"ĠRomains":8997,"ĠtÃ¢che":8998,"Mania":8999,"bour":9000,"Ġpaci":9001,"lect":9002,"ĠFern":9003,"ĠChÃ¢teau":9004,"Ġcommuni":9005,"ĠreprÃ©sentÃ©e":9006,"ĠSega":9007,"ĠTournoi":9008,"Ġdress":9009,"ĠrÃ©seaux":9010,"Ġsurprise":9011,"ĠDer":9012,"ĠprÃªte":9013,"obe":9014,"ĠdÃ©pass":9015,"ĠdÃ©mÃ©n":9016,"Ġretirer":9017,"Ġcontemporaine":9018,"Ġalentours":9019,"ĠtrÃ©sor":9020,"ĠCos":9021,"Ġchien":9022,"ĠÃ©glises":9023,"ĠmÃ©can":9024,"riens":9025,"ĠIm":9026,"ĠprÃ©cision":9027,"intervention":9028,"roir":9029,"aider":9030,"checs":9031,"explo":9032,"Ġ1908":9033,"Ġarchives":9034,"ĠcoÃ»te":9035,"Ġconnaissances":9036,"Ã©diteur":9037,"Claude":9038,"Ġquotidienne":9039,"PS":9040,"bat":9041,"vÃ©s":9042,"Ġsk":9043,"Ġpeupl":9044,"Ġincar":9045,"Ġperdent":9046,"ĠdÃ©roulent":9047,"ĠÃĨthel":9048,"ĠLiver":9049,"ĠÃ©me":9050,"Ġconform":9051,"oung":9052,"house":9053,"arth":9054,"ĠJeff":9055,"Ġcoord":9056,"Ġsentiments":9057,"Ġpapier":9058,"ĠvÃ©hicule":9059,"reau":9060,"ocation":9061,"ida":9062,"Ġoccidental":9063,"Ġsanctuaire":9064,"RÃ©fÃ©rences":9065,"Ġcommis":9066,"Ġvisibles":9067,"ĠColle":9068,"Ġ1907":9069,"Es":9070,"Ġromp":9071,"ĠTok":9072,"Ġannex":9073,"instru":9074,"alie":9075,"ĠMatt":9076,"ĠDie":9077,"ĠMetroid":9078,"Ġorthod":9079,"affaires":9080,"lation":9081,"Ġel":9082,"ĠCorn":9083,"ĠSicile":9084,"ousseau":9085,"ĠgÃ©nie":9086,"Ġinsuffis":9087,"ĠrhÃ©t":9088,"ĠPlayStation":9089,"mÃ©es":9090,"ĠMarg":9091,"Ġjugement":9092,"oppose":9093,"Ġmanuscrits":9094,"Liste":9095,"inverse":9096,"ĠdÃ©vo":9097,"ĠTemp":9098,"Ġhiver":9099,"MS":9100,"ĠduchÃ©":9101,"athie":9102,"Ġmotif":9103,"ĠLorsqu":9104,"ĠrÃ©cupÃ©rer":9105,"ĠdÃ©cennie":9106,"ĠsÃ©quence":9107,"AD":9108,"Cont":9109,"ourant":9110,"ĠPorte":9111,"ĠpÃ¨ler":9112,"Ġperspective":9113,"emark":9114,"ancy":9115,"Ġdoctr":9116,"Martin":9117,"ĠmaÃ®trise":9118,"ĠÃ©talons":9119,"euse":9120,"Ġdisposi":9121,"Ġdomestiques":9122,"vants":9123,"ties":9124,"ĠÃ©pr":9125,"avÃ¨re":9126,"ougos":9127,"Ġravit":9128,"ĠhiÃ©r":9129,"Ġaper":9130,"ĠDre":9131,"ĠgÃ©ant":9132,"Ġisra":9133,"Ġcertainement":9134,"Ġchauff":9135,"Ġvirtu":9136,"Ġpanneaux":9137,"ep":9138,"chet":9139,"ĠCrÃ©":9140,"Ġadh":9141,"Ġdizaines":9142,"interprÃ©tation":9143,"ĠTay":9144,"ĠsuccÃ¨de":9145,"laces":9146,"ĠJaponais":9147,"haus":9148,"Ġnavigation":9149,"Ġcalendrier":9150,"81":9151,"esc":9152,"lion":9153,"Ġhypoth":9154,"ĠFreud":9155,"ĠprÃ©serv":9156,"ĠamÃ©liorer":9157,"Ġadulte":9158,"Ġbrigade":9159,"tem":9160,"Ġchancel":9161,"ĠDam":9162,"Ġaventures":9163,"lÃ¨te":9164,"Ġobservations":9165,"ĠblessÃ©":9166,"Ġcris":9167,"ĠconsidÃ©rablement":9168,"Ara":9169,"Ġaider":9170,"Ġrect":9171,"onnÃ©s":9172,"adop":9173,"Ã©rÃ¨se":9174,"ellÃ©n":9175,"ĠterminÃ©":9176,"ASA":9177,"installer":9178,"Ġlacs":9179,"Ġactive":9180,"Ġpersu":9181,"Ġafflu":9182,"Ġvertu":9183,"ĠmÃ©taph":9184,"ĠprivÃ©s":9185,"Ġvenu":9186,"abandon":9187,"fa":9188,"Ġair":9189,"omo":9190,"Ġalpin":9191,"ĠÃ©quipements":9192,"Ġpratiquement":9193,"dier":9194,"ĠextÃ©rieur":9195,"ĠdÃ©crite":9196,"Ġ43":9197,"ĠInde":9198,"ĠdixiÃ¨me":9199,"Ġterminer":9200,"fran":9201,"oft":9202,"Ġtoile":9203,"Ġpoursuite":9204,"Ġfins":9205,"Ġmontant":9206,"major":9207,"ĠGrant":9208,"ĠrÃ©partis":9209,"ĠSÃ©nat":9210,"Ġleader":9211,"Ġtenant":9212,"estation":9213,"Ġmarbre":9214,"Ġremplacement":9215,"Ġtourner":9216,"ĠdisparaÃ®t":9217,"Ġchasseurs":9218,"ondissement":9219,"Ġpostes":9220,"Ġmorph":9221,"Ġvingtaine":9222,"onnÃ©es":9223,"ĠLewis":9224,"agnos":9225,"Ġphrase":9226,"Ġendomm":9227,"Homme":9228,"Ġmens":9229,"ĠPatri":9230,"ĠDur":9231,"Ġmarquer":9232,"Art":9233,"Ġfixe":9234,"ositions":9235,"diques":9236,"ĠRap":9237,"Ġcapt":9238,"ĠBrowning":9239,"Åĵil":9240,"ĠMuseum":9241,"Ġmanifeste":9242,"Ġblessure":9243,"ÏĦ":9244,"ĠSou":9245,"ĠrÃ©duction":9246,"Ġroul":9247,"uth":9248,"ongrois":9249,"Ġrenf":9250,"omique":9251,"intrigue":9252,"Ġsymbol":9253,"Ġmachines":9254,"ĠGod":9255,"Ġ1830":9256,"olutions":9257,"Ġbarb":9258,"ĠdÃ©truire":9259,"Ġfroide":9260,"ĠLiverpool":9261,"ĠBell":9262,"ĠGabri":9263,"Ġdioc":9264,"Ġraid":9265,"Ġannuelle":9266,"ĠzÃ©ro":9267,"ascal":9268,"Ġadversaire":9269,"Ġmusulmans":9270,"lieu":9271,"Ġachev":9272,"Ġrece":9273,"cial":9274,"ĠZelda":9275,"ĠAnglo":9276,"ĠboÃ®te":9277,"zz":9278,"Ġsainte":9279,"Ġfar":9280,"Ġgoth":9281,"ĠMun":9282,"igration":9283,"Ġ1850":9284,"ĠOb":9285,"mide":9286,"Ġsculpt":9287,"annes":9288,"Ġdesign":9289,"Ġtrace":9290,"Ġacteur":9291,"Ġamour":9292,"avion":9293,"ĠrestÃ©":9294,"ĠdiffusÃ©":9295,"Baptiste":9296,"Ġta":9297,"ĠÂ»).\"":9298,"ulÃ©e":9299,"aya":9300,"Ġremarquer":9301,"Ġlaissent":9302,"Ġpaysages":9303,"Ġcharges":9304,"fiction":9305,"Ġhumaines":9306,"ĠÃ©difices":9307,"Ġrassembl":9308,"Ġcontrovers":9309,"lum":9310,"ĠSum":9311,"Ġresta":9312,"adies":9313,"Ġcollections":9314,"Phili":9315,"Germain":9316,"cope":9317,"Ġvoyages":9318,"ĠÃ©mo":9319,"Ġfuture":9320,"vet":9321,"Ġpage":9322,"ĠÃ©lus":9323,"Ġbot":9324,"ĠdÃ©ploy":9325,"Ġtch":9326,"ogÃ©e":9327,"Ġattra":9328,"Ġattribue":9329,"Ġchoisir":9330,"Ġ1848":9331,"ĠÃ©trangÃ¨re":9332,"Ġruines":9333,"Ġfinancier":9334,"Ġcomplexes":9335,"Ġfinancement":9336,"ĠdensitÃ©":9337,"ĠhÃ©roÃ¯":9338,"Ġantiques":9339,"obi":9340,"Ġinterromp":9341,"Ã¤n":9342,"ator":9343,"ĠBall":9344,"Ġracc":9345,"Ġmarais":9346,"Ġcouches":9347,"Ġvoulu":9348,"ĠvÃ©cu":9349,"ĠJord":9350,"idae":9351,"ĠdÃ©bats":9352,"Ġsoud":9353,"ĠÃ©vÃªque":9354,"organ":9355,"Ġinclut":9356,"ĠWeb":9357,"ĠMaxim":9358,"Eur":9359,"tibles":9360,"Ġsecteurs":9361,"Ġmanche":9362,"Ġindic":9363,"Ġdisposent":9364,"ĠByz":9365,"ĠNelson":9366,"Ġsolo":9367,"Ġchevalier":9368,"ĠDanemark":9369,"Ġatteignent":9370,"commun":9371,"mens":9372,"Ġfleur":9373,"Ġforc":9374,"alisÃ©s":9375,"ventions":9376,"Ġmilit":9377,"Ġmodes":9378,"rammes":9379,"ĠqualifiÃ©":9380,"ĠTrack":9381,"Ġdimanche":9382,"ĠLink":9383,"icale":9384,"Ã§u":9385,"anglais":9386,"Ġrecens":9387,"trations":9388,"Ġcommunal":9389,"Ġtouristique":9390,"Ġindig":9391,"ĠlÃ©giti":9392,"ĠgarÃ§on":9393,"ĠinstallÃ©s":9394,"Ġfragments":9395,"lova":9396,"ĠrÃ©solution":9397,"Ġethn":9398,"Ġlecteurs":9399,"Ġgymn":9400,"film":9401,"rak":9402,"auff":9403,"ĠCast":9404,"ĠBarc":9405,"avaient":9406,"Ġmontrant":9407,"Ġ130":9408,"Ġcommencer":9409,"ĠAmerican":9410,"hom":9411,"orges":9412,"Ġfum":9413,"ĠorganisÃ©es":9414,"ĠspÃ©cialisÃ©e":9415,"ĠrÃ©volutionnaire":9416,"ĠStephen":9417,"ĠAussi":9418,"illÃ©e":9419,"ĠmarÃ©chal":9420,"Ġqualifications":9421,"ĠBenn":9422,"ĠFilm":9423,"Ġexposition":9424,"Ġ1793":9425,"ĠattribuÃ©":9426,"ĠdiffusÃ©e":9427,"Ġcandidats":9428,"ĠdoublÃ©":9429,"ĠGord":9430,"prits":9431,"Ġjouant":9432,"Ġdessous":9433,"ĠintÃ©grÃ©":9434,"Ġsultan":9435,"agan":9436,"agir":9437,"ĠintÃ©rieur":9438,"ĠDÃ©t":9439,"onnant":9440,"trad":9441,"igneur":9442,"entissage":9443,"Ġfaune":9444,"Ġformule":9445,"marÃ¨s":9446,"Ã©les":9447,"ĠrÃ©ception":9448,"Ġtromp":9449,"ĠVoy":9450,"Ġ47":9451,"Ġsauvages":9452,"orÃ©s":9453,"Ġplat":9454,"ĠRadi":9455,"ĠrÃ©publicains":9456,"Ġchiens":9457,"ĠsuprÃªme":9458,"Ã©los":9459,"Ġexemples":9460,"ragons":9461,"ĠconsacrÃ©e":9462,"ĠcontrÃ´ler":9463,"ĠBerg":9464,"ictionnaire":9465,"ops":9466,"enstein":9467,"ĠWind":9468,"extrÃ©mitÃ©":9469,"manuel":9470,"ĠprÃ©sentÃ©e":9471,"chesse":9472,"Ġmairie":9473,"Ġlargeur":9474,"Ġvoulait":9475,"ĠaÃ©rienne":9476,"ĠcompÃ©tences":9477,"ĠAlliÃ©s":9478,"atus":9479,"ĠbÃ©arn":9480,"ortation":9481,"Ġprinces":9482,"explique":9483,"Ã©quilibre":9484,"Ġeffectuer":9485,"ĠdÃ©gÃ¢ts":9486,"Ġpseud":9487,"ĠCitÃ©":9488,"ĠsuÃ©d":9489,"Ġofficiels":9490,"Ġautrefois":9491,"Ġ1890":9492,"Ġfonctionnaires":9493,"Ġsable":9494,"rix":9495,"Ġesclaves":9496,"ĠrÃ©gionale":9497,"ĠHamilton":9498,"Ġmamm":9499,"unique":9500,"Ġ46":9501,"ĠÃ©poux":9502,"upiter":9503,"Ġsuscep":9504,"Ġblocs":9505,"Ġcabinet":9506,"hÃ©tique":9507,"uritÃ©":9508,"Ġquelle":9509,"ĠquÃªte":9510,"Ġbag":9511,"ĠLeon":9512,"ĠrÃ¨glement":9513,"ĠÃ®le":9514,"Ġrassemble":9515,"illeur":9516,"Ã©tablir":9517,"adaptation":9518,"ĠnuclÃ©aire":9519,"ua":9520,"tille":9521,"ĠdÃ©lÃ©gation":9522,"ĠBle":9523,"Ġorch":9524,"ĠgÃ©nÃ©":9525,"Ġmodule":9526,"ĠColombie":9527,"orations":9528,"sif":9529,"trer":9530,"accent":9531,"Ġdomestique":9532,"aoÃ»t":9533,"invent":9534,"Ġrendant":9535,"Ġbattant":9536,"Ġculturelles":9537,"viÃ¨me":9538,"Ġtunis":9539,"ĠprÃªtres":9540,"Ġparticipants":9541,"ĠProv":9542,"ĠlancÃ©e":9543,"ĠspÃ©cifiques":9544,"roÃ¯":9545,"ĠAward":9546,"Ġtron":9547,"Ġescad":9548,"Ġincendi":9549,"Ġsalari":9550,"ĠestimÃ©":9551,"ĠBritish":9552,"ĠPyrÃ©nÃ©es":9553,"utent":9554,"avenir":9555,"Ġislam":9556,"Ġtraditionnel":9557,"housias":9558,"Ð°":9559,"neuf":9560,"ogn":9561,"Ġrecueil":9562,"ĠplacÃ©e":9563,"Ġpeintres":9564,"enis":9565,"erte":9566,"Ġfruits":9567,"ĠJud":9568,"ĠNice":9569,"ĠjugÃ©":9570,"Ġaffaire":9571,"ĠrÃ©fÃ©rences":9572,"Ġsouverains":9573,"ĠrÃ©current":9574,"AR":9575,"quatre":9576,"Ġmou":9577,"ĠFox":9578,"ĠNam":9579,"Ġoppose":9580,"Ġpattes":9581,"Ġfermet":9582,"itÃ´t":9583,"ĠOlymp":9584,"Ġimpose":9585,"quisition":9586,"Ġadopte":9587,"Histor":9588,"Ġgross":9589,"ĠAfin":9590,"Ġpolonais":9591,"ĠchargÃ©e":9592,"Ġterminent":9593,"Ġressemble":9594,"Ġrentrer":9595,"Ġore":9596,"Ġproducteurs":9597,"ĠconsidÃ©rer":9598,"Ġsymboles":9599,"Ġspatial":9600,"ĠcoÃ©quipier":9601,"Occident":9602,"ĠGrÃ©g":9603,"entretien":9604,"Ġrense":9605,"Ġrempla":9606,"tionnels":9607,"Ġagents":9608,"ĠComics":9609,"ĠtÃ©moignent":9610,"bury":9611,"asp":9612,"avre":9613,"Ã©mon":9614,"ĠÃ©car":9615,"ĠZe":9616,"Ġcroit":9617,"Ġmoments":9618,"ĠcondamnÃ©":9619,"Ġtests":9620,"Ġateliers":9621,"initiative":9622,"ĠGaston":9623,"hÃ©s":9624,"aile":9625,"ĠAff":9626,"ĠNASA":9627,"Ġbouc":9628,"Ġlogique":9629,"ĠenvoyÃ©s":9630,"Ġmultipli":9631,"kins":9632,"Ġpaque":9633,"Ġfolk":9634,"ĠIt":9635,"Ġgrave":9636,"Ġdirigeant":9637,"anat":9638,"Ġintervient":9639,"Ġcanadien":9640,"Ġabsolu":9641,"ĠOutre":9642,"Ġecc":9643,"ĠÃ©tages":9644,"Ġ52":9645,",,,.\"":9646,"ĠHarrison":9647,"ĠexpÃ©riences":9648,"Ãİle":9649,"Ġvues":9650,"Ġchauss":9651,"ĠGÃ©n":9652,"Ġcontent":9653,"ĠMusÃ©e":9654,"Ġselle":9655,"geant":9656,"inger":9657,"Ġsommets":9658,"ĠRouen":9659,"Ġseigneurs":9660,"Ġperturb":9661,"uites":9662,"sectes":9663,"ĠAsie":9664,"ĠadoptÃ©":9665,"Ġvoisin":9666,"Oise":9667,"Ġponc":9668,"Ġdet":9669,"ĠHart":9670,"ilson":9671,"Ġemploi":9672,"Ġrefuge":9673,"Ġmaximale":9674,"octobre":9675,"ĠcafÃ©":9676,"ĠrhÃ©torique":9677,"Ġaust":9678,"iÃ¨ge":9679,"ĠHigh":9680,"ody":9681,"Ġmaladies":9682,"Ġ1901":9683,"ĠCeltics":9684,"ĠcÃ©rÃ©mon":9685,"ĠdÃ©finitive":9686,"Ġquad":9687,"row":9688,"ĠSyl":9689,"Ġtrah":9690,"Ġprimi":9691,"Ġ1896":9692,"Ġgrimp":9693,"ercice":9694,"Ġdramatique":9695,"Ġplaque":9696,"ĠMand":9697,"Ġ51":9698,"Ġformations":9699,"animaux":9700,"ĠrÃ©sidences":9701,"ĠfinanciÃ¨res":9702,"ĠPenguins":9703,"onciation":9704,"uln":9705,"tissements":9706,"affront":9707,"Ġcalme":9708,"Ġphilosophe":9709,"ĠPrusse":9710,"tainment":9711,"Ġsl":9712,"Ġbruit":9713,"ivern":9714,"guerre":9715,"Ġfinanciers":9716,"ĠRoland":9717,"dat":9718,"anz":9719,"ĠSab":9720,"Ġconvo":9721,"Ġattent":9722,"ĠnÃ©erlandais":9723,"Ġvariations":9724,"ĠIsraÃ«l":9725,"Ġnaufrage":9726,"CO":9727,"outer":9728,"sign":9729,"Ġrepos":9730,"Ġmusiques":9731,"Ġqualifier":9732,"ternet":9733,"ĠdÃ©cisions":9734,"hard":9735,"Ġfal":9736,"chette":9737,"Ã©tage":9738,"ussitÃ´t":9739,"ĠinstallÃ©e":9740,"ĠcomposÃ©s":9741,"ĠinaugurÃ©":9742,"Ġplaisir":9743,"pro":9744,"orf":9745,"ĠTin":9746,"Ġmotiv":9747,"ĠplacÃ©s":9748,"olitique":9749,"Ġaval":9750,"ĠVIII":9751,"Ġ'":9752,"Ġparticuliers":9753,"Ġenfance":9754,"ĠCorÃ©e":9755,"Ġphysiques":9756,"ĠBlanche":9757,"Ġcirconstances":9758,"pus":9759,"roix":9760,"ĠAh":9761,"Ġproduisent":9762,"oiseau":9763,"avions":9764,"ĠdÃ©finit":9765,"ĠSn":9766,"extension":9767,"Ġrestre":9768,"Ġcolonisation":9769,"Ġaccords":9770,"Ġincluant":9771,"Ġsuccessivement":9772,"adelph":9773,"aldi":9774,"Ġhoriz":9775,"ĠdÃ©pÃ´t":9776,"Ġmodeste":9777,"ĠrÃ©soudre":9778,"observation":9779,"Ġrusses":9780,"Ġpotenti":9781,"atteindre":9782,"Ġchambres":9783,"ĠÃ©lÃ¨ve":9784,"ĠprÃ©server":9785,"Ġnoter":9786,"Ġpuissante":9787,"dicap":9788,"ĠInternational":9789,"stacles":9790,"Ġferroviaire":9791,"ĠÃ©b":9792,"med":9793,"Ġrotation":9794,"ĠYoung":9795,"Ġbatterie":9796,"ganisation":9797,"Ġplacer":9798,"Ġdistinction":9799,"Ġattire":9800,"Ġbreton":9801,"Ġvocation":9802,"PrÃ©":9803,"ĠUnited":9804,"ĠrÃ©cente":9805,"Ġcroire":9806,"ĠrÃ©compense":9807,"citÃ©":9808,"uries":9809,"ĠEast":9810,"ĠLem":9811,"Ġdiagnos":9812,"empÃª":9813,"Ġaccent":9814,"ĠMike":9815,"Ġsupporters":9816,"Ġmassacre":9817,"Ġappareils":9818,"Olympique":9819,"odique":9820,"sax":9821,"ĠJupiter":9822,"ocie":9823,"Ġcomprom":9824,"Ġdevoir":9825,"Ġlittor":9826,"ĠTurcs":9827,"ĠlignÃ©e":9828,"ĠDay":9829,"Ġconfort":9830,"Ġmalade":9831,"ĠretrouvÃ©s":9832,"Ġjudiciaire":9833,"rais":9834,"ĠrÃ©side":9835,"ĠHaut":9836,"ĠMaroc":9837,"ĠguÃ©r":9838,"Ġconstruites":9839,"Ġlimiter":9840,"ĠsupÃ©rieures":9841,"oiseaux":9842,"alogues":9843,"Ġfermeture":9844,"hyp":9845,"ĠChÃ¢":9846,"Ġ[Â«":9847,"oreau":9848,"ĠlÃ©ger":9849,"Ġretire":9850,"ĠthÃ©ories":9851,"augmentation":9852,"Maur":9853,"ery":9854,"oiff":9855,"Ãīp":9856,"archipel":9857,"ĠneuviÃ¨me":9858,"Ġnormale":9859,"etta":9860,"ĠLam":9861,"ĠNik":9862,"Ġextension":9863,"Ġwith":9864,"Ã©fense":9865,"ĠÃ©ditÃ©":9866,"ĠCopp":9867,"Ã©gal":9868,"Ġsols":9869,"Ġemplois":9870,"Ġdessus":9871,"ĠÅĵufs":9872,"illÃ©s":9873,"Ġcontes":9874,"ĠassurÃ©":9875,"Ġculmin":9876,"ĠorganisÃ©s":9877,"Em":9878,"hon":9879,"enci":9880,"Ġinqui":9881,"cts":9882,"ĠtempÃªte":9883,"ank":9884,"Ã©tape":9885,"inscrit":9886,"Ġperf":9887,"expansion":9888,"Ġinitial":9889,"Ġmythologie":9890,"ĠBayonne":9891,"ĠContrairement":9892,"dinand":9893,"ĠFloride":9894,"Ġdents":9895,"Ġloy":9896,"owe":9897,"ĠstratÃ©gique":9898,"Ġremettre":9899,"Ġpavillon":9900,"cade":9901,"ĠprÃ©s":9902,"Ã©bÃ©c":9903,"Ġcoutu":9904,"urgence":9905,"ĠÃ©liminatoires":9906,"board":9907,"Ġmourir":9908,"ĠdÃ©lÃ©gu":9909,"ĠprÃªtre":9910,"Ġindustriel":9911,"ĠdÃ©tec":9912,"ĠfenÃªtres":9913,"una":9914,"ĠMort":9915,"ĠPales":9916,"ĠHu":9917,"thi":9918,"Ġquittent":9919,"Ġcommerciaux":9920,"ĠarrivÃ©":9921,"ĠgagnÃ©":9922,"Ġsouffre":9923,"ĠdotÃ©":9924,"ĠsÃ»r":9925,"Philippe":9926,"inus":9927,"ĠMach":9928,"oton":9929,"Ġaristocra":9930,"Ġannuel":9931,"ĠsÃ©lectionnÃ©":9932,"Ġrebonds":9933,"joueur":9934,"Ġcopie":9935,"Quel":9936,"ito":9937,"ĠreprÃ©sentÃ©s":9938,"Ġbouche":9939,"intÃ©resse":9940,"Ġvenue":9941,"estres":9942,"ĠCob":9943,"Ġincomp":9944,"Ġsemblable":9945,"Ġillust":9946,"Ġsoin":9947,"dem":9948,"Ġtiennent":9949,"ĠdÃ©bar":9950,"Ġportraits":9951,"ĠmÃ©trage":9952,"ĠinterprÃ©tation":9953,"ĠChristophe":9954,"Ġsportives":9955,"As":9956,"Ġconvention":9957,"ĠdÃ©faut":9958,"ĠÃ©tablir":9959,"Ġenceinte":9960,"ĠingÃ©n":9961,"Ã¢ne":9962,"ĠrÃ©centes":9963,"ĠdÃ©partements":9964,"ĠsacrÃ©":9965,"Er":9966,"ple":9967,"Ġcur":9968,"Ġballe":9969,"ĠTony":9970,"Ġhit":9971,"ĠFried":9972,"ĠVar":9973,"Ġavantage":9974,"Ã¯n":9975,"owski":9976,"ĠdestinÃ©es":9977,"ĠvÃ©gÃ©tation":9978,"Ġhonor":9979,"Ġreconstitu":9980,"ouer":9981,"Ġpros":9982,"ĠHob":9983,"ĠcolÃ¨re":9984,"Ġcontemporain":9985,"ĠGenÃ¨ve":9986,"enberg":9987,"olet":9988,"ciÃ¨re":9989,"attle":9990,"Ġcollectif":9991,"ĠErnest":9992,"Ã©rindiens":9993,"ĠecclÃ©":9994,"ualitÃ©":9995,"ĠKo":9996,"annonce":9997,"ĠtirÃ©":9998,"Ġutilisation":9999,"Ġmajeurs":10000,"illir":10001,"ĠdÃ©fenseur":10002,"oureuse":10003,"Contexte":10004,"Ġaire":10005,"ĠMoh":10006,"uls":10007,"ĠOl":10008,"Ã©cos":10009,"tenance":10010,"ĠmaÃ§onn":10011,"olumb":10012,"ĠReims":10013,"ows":10014,"Ġmobilis":10015,"Ġreliant":10016,"usions":10017,"ĠLux":10018,"ĠPit":10019,"ima":10020,"Ã¨nements":10021,"accus":10022,"Ġflot":10023,"ĠinterprÃ©tÃ©":10024,"Ġjuridique":10025,"exÃ©cution":10026,"SD":10027,"ror":10028,"Ġdign":10029,"tio":10030,"ouff":10031,"Ġvins":10032,"ĠBu":10033,"ĠGri":10034,"occupe":10035,"Ġaccorde":10036,"Ġassiste":10037,"ĠThor":10038,"Ġprestig":10039,"Ġroyaumes":10040,"Ġ140":10041,"Ġtechnologie":10042,"Ġfrappe":10043,"Biographie":10044,"ctif":10045,"drome":10046,"Ã¨ges":10047,"chen":10048,"ignant":10049,"tionnelles":10050,"ĠchargÃ©s":10051,"ĠcontribuÃ©":10052,"Ġministres":10053,"ĠmÃ¨tre":10054,"aria":10055,"lications":10056,"Ġ1904":10057,"formes":10058,"ĠÃ©difice":10059,"ĠVersailles":10060,"exploration":10061,"fond":10062,"rik":10063,"ĠÃ©par":10064,"Ġproviennent":10065,"ĠNap":10066,"Ã©rien":10067,"ĠOne":10068,"ology":10069,"Ġcauses":10070,"ĠempÃªcher":10071,"wald":10072,"Ġpollu":10073,"Ġfame":10074,"ĠnÃ©cessite":10075,"ĠsurnommÃ©":10076,"Ġsatellite":10077,"ĠcritÃ¨res":10078,"Ġponctu":10079,"ĠchangÃ©":10080,"Ã©vel":10081,"Ġports":10082,"ĠrÃ©fÃ©r":10083,"Ġcommerciales":10084,"Ġinitiale":10085,"domad":10086,"Ã©opold":10087,"olo":10088,"Ġcertif":10089,"Ġproportion":10090,"ĠlÃ©gendes":10091,"ĠNick":10092,"ĠVIe":10093,"Ġesprits":10094,"Ġindiquent":10095,"Ġsubi":10096,"encer":10097,"ultime":10098,"Ġexistence":10099,"ĠPhiladelph":10100,"Ġtitulaire":10101,"Roy":10102,"ria":10103,"rane":10104,"ĠFire":10105,"istote":10106,"ĠspÃ©cial":10107,"ĠJusqu":10108,"Ġpositif":10109,"Ġpropagande":10110,"Ġlion":10111,"Ġpon":10112,"ĠBros":10113,"ĠRand":10114,"ĠdÃ©mographique":10115,"Personn":10116,"xe":10117,"}\\":10118,"Ã¥":10119,"ĠLeague":10120,"avril":10121,"Ġarme":10122,"ĠpubliÃ©es":10123,"Ġhandicap":10124,"Ã©velopp":10125,"Ġsoins":10126,"amoto":10127,"Ġarg":10128,"ĠmusÃ©es":10129,"Ġportug":10130,"aka":10131,"ĠocÃ©an":10132,"ĠXIII":10133,"ĠdÃ©placer":10134,"Ġcousin":10135,"assassinat":10136,"Ġasi":10137,"Ġvass":10138,"aints":10139,"),.":10140,"Ġcheveux":10141,"rimÃ©s":10142,"Ġmarchandises":10143,"ĠmÃ©ti":10144,"agissait":10145,"ĠPalais":10146,"Ap":10147,"Ġpreuves":10148,"Ġfan":10149,"ĠvÃ©tÃ©":10150,"ĠFam":10151,"akistan":10152,"Ġaffirmant":10153,"ĠMadonna":10154,"Ġcuivre":10155,"olithique":10156,"Ġave":10157,"als":10158,"ĠTrÃ¨s":10159,"Ġallus":10160,"Ã©ratrice":10161,"extrÃªme":10162,"ĠsÃ©rieux":10163,"ĠTeam":10164,"ĠCommission":10165,"Ã©lectricitÃ©":10166,"Ġmasculin":10167,"ĠTexas":10168,"Ġpassionn":10169,"Ġnomination":10170,"ixon":10171,"lieue":10172,"enfance":10173,"ĠenregistrÃ©":10174,"ĠmÃ©tropole":10175,"Ġdoig":10176,"Ġfoyer":10177,"Ġdesqu":10178,"ĠdÃ©lic":10179,"Ġinnov":10180,"ĠHab":10181,"lÃ©ch":10182,"Ã©bas":10183,"Ġvilla":10184,"Ġgenres":10185,"ĠfrÃ©quente":10186,"Ġsensible":10187,"ĠFielding":10188,"Ĵuv":10189,"Ġnoires":10190,"siÃ¨re":10191,"tinÃ©ra":10192,"Ã©mi":10193,"Ġinfrastructures":10194,"Ġrapides":10195,"ĠdÃ©placements":10196,"Ġmarques":10197,"Ġjuments":10198,"Ġconstante":10199,"Ġromanci":10200,"Ġdispers":10201,"ĠGeorg":10202,"Ġartiste":10203,"Ġressenti":10204,"Ġcordes":10205,"ĠperpÃ©tu":10206,"Ġpin":10207,"ĠMoul":10208,"ĠRub":10209,"ennemi":10210,"ther":10211,"Ġbasque":10212,"ĠrencontrÃ©":10213,"Ġpublications":10214,"ĠÃ©chelle":10215,"Ġconclusion":10216,"Ġsculpture":10217,"rÃ¨":10218,"ila":10219,"Ġduo":10220,"ĠGÃ©rard":10221,"Ġappuy":10222,"ĠrefusÃ©":10223,"Ġconvainc":10224,"oÃ®t":10225,"Ġhausse":10226,"rÃ©hension":10227,"Ġcardinal":10228,"veau":10229,"ĠKong":10230,"Albert":10231,"Ġchiffres":10232,"intÃ©gration":10233,"exemplaires":10234,"ĠBarcelon":10235,"ĠGard":10236,"Ġ53":10237,"Ġadress":10238,"Ġ900":10239,"Ġpneus":10240,"Aux":10241,"till":10242,"ĠMem":10243,"ĠAlan":10244,"Ã©galitÃ©":10245,"ĠÃ©vÃªques":10246,"ints":10247,"imposer":10248,"appare":10249,"ĠdÃ©veloppent":10250,"ĠcaractÃ©rise":10251,"actuel":10252,"ĠJuan":10253,"ĠaÃ®nÃ©":10254,"hos":10255,"rienne":10256,"Ġplumes":10257,"ĠHa":10258,"tenues":10259,"auration":10260,"Ġarriver":10261,"ĠFreder":10262,"ĠentourÃ©":10263,"Ainsi":10264,"ilique":10265,"ogie":10266,"Ġamateurs":10267,"ĠmÃ©trages":10268,"ĠoccupÃ©e":10269,"Ġglobalement":10270,"ĠEntertainment":10271,"Ġlune":10272,"ero":10273,"ĠLud":10274,"ĠSel":10275,"ĠSys":10276,"Ġinscriptions":10277,"Ġprestige":10278,"Ġconstituer":10279,"Ġreconnue":10280,"habitants":10281,"ĠTaylor":10282,"Ġlourd":10283,"ĠpÃ©":10284,"ĠCinq":10285,"ĠColumb":10286,"ĠDj":10287,"Ġceinture":10288,"ĠÃ©tend":10289,"prÃ©sident":10290,"Ġgrecques":10291,"Ġrangs":10292,"Ġminimum":10293,"Ġstatistiques":10294,"ĠDÃ©troit":10295,"Ġcible":10296,"Ġ56":10297,"ĠdÃ©sert":10298,"Ġopin":10299,"ensif":10300,"ny":10301,"inqu":10302,"ĠÃ¨":10303,"ĠFis":10304,"enna":10305,"ĠassociÃ©s":10306,"Ġremportant":10307,"Ġdiriger":10308,"ĠDark":10309,"Ġhas":10310,"ĠFra":10311,"Ġcombatt":10312,"Ġpromouvoir":10313,"Ġblessures":10314,"ĠmÃ©diÃ©vale":10315,"Lar":10316,"fe":10317,"Ġais":10318,"ĠMÃ©sopotam":10319,"Inf":10320,"Ġpensent":10321,"Ġinfluences":10322,"URSS":10323,"ĠGabriel":10324,"Che":10325,"importe":10326,"Ġdisques":10327,"ypes":10328,"Ġbanlieue":10329,"ĠstÃ©rÃ©":10330,"Ġsoie":10331,"Ġconvers":10332,"euve":10333,"ĠcrÃ©ant":10334,"Ġnotable":10335,"ĠZhou":10336,"Ġ110":10337,"Ġtombes":10338,"aldo":10339,"ĠNavarre":10340,"Ġcarbone":10341,"Ġrand":10342,"ĠSeth":10343,"ĠFour":10344,"lÃ©matique":10345,"ĠâĢ¢":10346,"Ġentame":10347,"Ġoccasionn":10348,"rants":10349,"Ġnef":10350,"Ġhabitat":10351,"Ġ1903":10352,"Ġ1840":10353,"ĠRoman":10354,"ĠChristoph":10355,"Esp":10356,"Ġsoign":10357,"ilÃ©e":10358,"ĠCaravage":10359,"Ġessay":10360,"Ġneutra":10361,"Ġaugmenter":10362,"Ġiran":10363,"ĠhÃ©b":10364,"Ã¢t":10365,"Ġpublier":10366,"loge":10367,"Ġoncle":10368,"urgie":10369,"Ġtravaillent":10370,"ĠdÃ©tail":10371,"ĠKarl":10372,"Î»":10373,"ĠCle":10374,"ĠMu":10375,"Ġtravailleurs":10376,"midi":10377,"ĠdÃ©penses":10378,"Ġvictor":10379,"Ġparcour":10380,"ĠdisparaÃ®tre":10381,"ĠCommun":10382,"Ġinconnue":10383,"Ġenle":10384,"Ġsond":10385,"Ġregistre":10386,"Ġoccupent":10387,"ĠRoad":10388,"Ġflore":10389,"ĠBasse":10390,"ĠDra":10391,"iger":10392,"issements":10393,"ĠtournÃ©":10394,"Ġhabitant":10395,"Ġclip":10396,"Ġallait":10397,"ĠService":10398,"arche":10399,"ĠLui":10400,"aum":10401,"ĠSun":10402,"abelle":10403,"uÃ©e":10404,"Ġparvenir":10405,"ĠFred":10406,"ĠillÃ©g":10407,"Ġtrajet":10408,"igny":10409,"Ġbasket":10410,"sionnaires":10411,"Ġfacteur":10412,"Ġfavorables":10413,"mati":10414,"Ġrede":10415,"sey":10416,"ĠLaw":10417,"Ã©nario":10418,"ecture":10419,"Ġcellu":10420,"Ġaffaib":10421,"tentrion":10422,"office":10423,"Ġmyst":10424,"Ġguide":10425,"Ġbleue":10426,"EC":10427,"kk":10428,"mund":10429,"noc":10430,"Ġdan":10431,"six":10432,"Ġrentre":10433,"Ġfini":10434,"ĠdisputÃ©":10435,"iziÃ¨me":10436,"Ġachet":10437,"hal":10438,"Ġfiction":10439,"Ġtar":10440,"Ġrecettes":10441,"Åĵuf":10442,"Ġscru":10443,"ĠrivalitÃ©":10444,"Ġuniversitaires":10445,"Ġitaliens":10446,"Ġgraphique":10447,"Ġhabituellement":10448,"Ġgallo":10449,"vÃ©g":10450,"work":10451,"Ġpira":10452,"Ġsonore":10453,"ĠHard":10454,"ĠHay":10455,"Ġprit":10456,"ĠChili":10457,"ĠWilson":10458,"Ġstric":10459,"Ã©gard":10460,"Ġempris":10461,"Ġimmense":10462,"tise":10463,"Ġ54":10464,"Ġtransition":10465,"Ġpromen":10466,"assadeur":10467,"zac":10468,"Ġcerc":10469,"Ġfic":10470,"ĠMosc":10471,"ierry":10472,"ĠOt":10473,"ĠSyrie":10474,"ĠparticularitÃ©":10475,"ĠCollins":10476,"chy":10477,"ĠCoch":10478,"tÃ©rieurs":10479,"ĠChat":10480,"ventures":10481,"Ġjuif":10482,"ĠWii":10483,"Ġur":10484,"ĠCD":10485,"Ġretenu":10486,"ĠMes":10487,"ĠRy":10488,"ĠprÃ©occup":10489,"autor":10490,"ĠriviÃ¨res":10491,"Ġdrame":10492,"habitat":10493,"Ġconseillers":10494,"Ã©bastien":10495,"fils":10496,"onienne":10497,"Ġpop":10498,"Ġlatine":10499,"ĠDor":10500,"ĠFel":10501,"tinction":10502,"ĠEnc":10503,"ĠThess":10504,"adien":10505,"ĠAlice":10506,"ĠSpirou":10507,"].":10508,"Ã©demment":10509,"archevÃªque":10510,"ĠfÃ©":10511,"ĠLag":10512,"Ġbru":10513,"aig":10514,"ĠPub":10515,"mber":10516,"ĠAnth":10517,"Ġexport":10518,"ĠprÃ©cÃ©demment":10519,"MP":10520,"SP":10521,"ĠaussitÃ´t":10522,"teau":10523,"Ġparole":10524,"Ġvamp":10525,"ĠDol":10526,"Ġpropositions":10527,"ibilitÃ©":10528,"ssant":10529,"ĠÃīmile":10530,"Ġpuissants":10531,"ĠrÃ©publicain":10532,"bilitÃ©s":10533,"nam":10534,"intelligence":10535,"Ġmarqu":10536,"Ġprai":10537,"Ġproposent":10538,"Ġcrist":10539,"ĠopposÃ©":10540,"ĠSpace":10541,"Ġveulent":10542,"ĠLimoges":10543,"Ġsatellites":10544,"accompagne":10545,"Orig":10546,"Ã©tudi":10547,"oniens":10548,"Ġfinir":10549,"Ã©lÃ©s":10550,"achat":10551,"ĠÃ©choue":10552,"Ġquarts":10553,"tilitÃ©":10554,"ĠdÃ©diÃ©":10555,"ĠcentimÃ¨tres":10556,"Quelques":10557,"ĠAur":10558,"aintes":10559,"allÃ¨lement":10560,"ĠquittÃ©":10561,"Ġoriental":10562,"montre":10563,"Ġcroisements":10564,"ĠrÃ©novation":10565,"ĠGrÃ©goire":10566,"ĠBarcelone":10567,"jection":10568,"ĠMul":10569,"ouvÃ©":10570,"umÃ©":10571,"cool":10572,"Ã©crire":10573,"Ġsecrets":10574,"Ġbrun":10575,"Ġuniverselle":10576,"Ġchanteuse":10577,"roÃ®t":10578,"ĠCrÃ¨te":10579,"ppen":10580,"opa":10581,"artney":10582,"ĠdivinitÃ©s":10583,"ĠfunÃ©raire":10584,"DF":10585,"ĠXe":10586,"akes":10587,"ĠprÃ©pare":10588,"Ġsuscite":10589,"ĠSaturn":10590,"Ã©vÃ©nement":10591,"Ġtunnel":10592,"Ġplong":10593,"ĠextÃ©rieure":10594,"Ã§ait":10595,"Ġtransforme":10596,"ĠrÃ©servÃ©":10597,"ĠindÃ©pendante":10598,"Ġcomportant":10599,"NC":10600,"bout":10601,"Ġing":10602,"Ġsati":10603,"Ġtradu":10604,"Ġtomber":10605,"Ġblind":10606,"ĠChampagne":10607,"ĠnorvÃ©g":10608,"eral":10609,"Ġjur":10610,"Ġproph":10611,"ĠthÃ©m":10612,"ackleton":10613,"ĠStein":10614,"Ġtribune":10615,"Ġconversion":10616,"ĠschÃ©ma":10617,"AT":10618,"ns":10619,"uki":10620,"ĠrÃ©clam":10621,"ĠIXe":10622,"Ġaver":10623,"Ġneveu":10624,"ĠKaz":10625,"ĠÃītienne":10626,"ĠcrÃ©atures":10627,"2011":10628,"ĠBey":10629,"lÃ©es":10630,"vide":10631,"Ġfinissent":10632,"ness":10633,"ĠRep":10634,"Ġvolant":10635,"dication":10636,"Ġgloire":10637,"ĠLÃ©onard":10638,"Ġaccompagne":10639,"oman":10640,"sive":10641,"Ġcapables":10642,"ĠGrands":10643,"ĠFerdinand":10644,"back":10645,"mÃ¨re":10646,"ĠrÃ©bel":10647,"obs":10648,"Ġmenant":10649,"Ġindisp":10650,"ĠÃ©clai":10651,"Ġsilence":10652,"orchestre":10653,"ĠrÃ©flexion":10654,"ĠChurchill":10655,"Ã£":10656,"ĠquÃ©bÃ©c":10657,"ĠMÃ©m":10658,"ĠPascal":10659,"Ġconsol":10660,"Ġvariable":10661,"Ġrival":10662,"Ġtraditionnels":10663,"ĠMagazine":10664,"ĠdÃ©rivÃ©s":10665,"rum":10666,"ouement":10667,"intention":10668,"ĠÃ©ducation":10669,"ĠBlo":10670,"ĠKhan":10671,"ĠenchaÃ®":10672,"Ġvag":10673,"asses":10674,"hr":10675,"Ġdict":10676,"ĠNancy":10677,"Ġpuissent":10678,"ĠÃ©cossais":10679,"2010":10680,"ĠPlut":10681,"ĠKey":10682,"Ġoubli":10683,"Ġsel":10684,"Ġflan":10685,"eler":10686,"ĠAch":10687,"ĠRousseau":10688,"ĠAlb":10689,"Ġportail":10690,"Ġhumides":10691,"Ġdynamique":10692,"ĠdÃ©monstration":10693,"ĠSystem":10694,"Sous":10695,"jo":10696,"antaine":10697,"cile":10698,"ĠPa":10699,"ĠprotÃ©":10700,"ritz":10701,"ĠclassÃ©e":10702,"Ġaccepter":10703,"Antoine":10704,"Ġincapable":10705,"Ren":10706,"ĠCou":10707,"ĠTib":10708,"ssis":10709,"ormis":10710,"Ġremonter":10711,"Ġhal":10712,"ĠFir":10713,"ĠFace":10714,"ĠformÃ©e":10715,"Ġcourtes":10716,"Ġ85":10717,"Ġprofiter":10718,"ĠÃ©crites":10719,"Ġculturels":10720,"Ġmoral":10721,"ĠdatÃ©":10722,"Ġartistiques":10723,"Ġcamar":10724,"ĠmentionnÃ©":10725,"Ġacquiert":10726,"Ġencourage":10727,"AP":10728,"Als":10729,"à¦":10730,"arisation":10731,"ĠlaÃ¯":10732,"Ġsurp":10733,"ĠIb":10734,"Ġinsiste":10735,"Ġmagist":10736,"ĠcontinuitÃ©":10737,"Ġvouloir":10738,"ĠsÃ©di":10739,"agements":10740,"Ġsame":10741,"Ġcomptent":10742,"ĠÃªtres":10743,"orel":10744,"Ġ1898":10745,"ĠManchester":10746,"ascension":10747,"Ġsimultan":10748,"Ġalliance":10749,"Ġrecords":10750,"ĠRhin":10751,"sterdam":10752,"ĠIX":10753,"ĠdÃ©funt":10754,"essais":10755,"Ġvoisine":10756,"Ġer":10757,"Ġdoule":10758,"orant":10759,"siers":10760,"enson":10761,"ĠspÃ©ciale":10762,"importantes":10763,"DÃ©but":10764,"dro":10765,"Ġpoit":10766,"Ġabsence":10767,"Annexes":10768,"Ġcommuns":10769,"ophie":10770,"ĠdatÃ©e":10771,"tus":10772,"Ġcav":10773,"atter":10774,"Ġbale":10775,"ĠcomÃ©di":10776,"pris":10777,"ĠnommÃ©s":10778,"ĠmarquÃ©s":10779,"ĠKenne":10780,"Ġimpact":10781,"ĠcrÃ©ateur":10782,"ĠrÃ©pression":10783,"ĠassociÃ©e":10784,"ĠIsland":10785,"Ġtellement":10786,"ĠidentifiÃ©":10787,"Ġlaboratoire":10788,"ĠCharlotte":10789,"Ġenj":10790,"Ġbov":10791,"imon":10792,"Ġmarquant":10793,"Ġproduite":10794,"Ġcollecte":10795,"arrÃªte":10796,"ĠMÃ©sopotamie":10797,"mus":10798,"chage":10799,"ĠBÃ©":10800,"Ġrenvers":10801,"ĠYe":10802,"ĠthÃ©Ã¢":10803,"ĠmÃ©tier":10804,"Ġsignifiant":10805,"ĠAmerica":10806,"Ġweek":10807,"ĠMoscou":10808,"ĠBible":10809,"empÃªche":10810,"ĠassurÃ©e":10811,"Ġestiment":10812,"ĠÃ©tudier":10813,"ĠfrÃ©quence":10814,"ĠrÃ©fugiÃ©s":10815,"istiques":10816,"ĠfÃ©l":10817,"Ġconduire":10818,"ĠToutes":10819,"impulsion":10820,"atine":10821,"ĠrÃ©sist":10822,"Ġreprenant":10823,"Ġofficielles":10824,"Ġdistinguer":10825,"Ġexcell":10826,"ĠEugÃ¨ne":10827,"Iv":10828,"Iran":10829,"Ġmante":10830,"ĠSl":10831,"ĠamÃ¨ne":10832,"ĠAns":10833,"ĠÃ©vÃ¨nements":10834,"ĠUl":10835,"enfants":10836,"ĠsÃ©lections":10837,"GN":10838,"180":10839,"ĠobservÃ©":10840,"ĠdivisÃ©":10841,"appuie":10842,"Ġsections":10843,"ĠFond":10844,"Ġobsc":10845,"Ġobserve":10846,"Ġentendre":10847,"Ġseptentrion":10848,"ĠprÃ©sidentielle":10849,"Ġsymbolis":10850,"Ġrefusent":10851,"ĠLorient":10852,"ittle":10853,"arrÃªter":10854,"cli":10855,"etti":10856,"roise":10857,"ĠrÃ©Ã©d":10858,"ĠhÃ©s":10859,"ĠÃ©toile":10860,"application":10861,"Ġcrime":10862,"ĠmÃ©tropol":10863,"Ġ1897":10864,"Description":10865,"ĠÃ©crivain":10866,"ĠdÃ©chets":10867,"reuse":10868,"ĠLÃ©opold":10869,"ĠStÃ©":10870,"glas":10871,"ĠJedi":10872,"ĠInd":10873,"ĠShackleton":10874,"Ġcomprennent":10875,"bey":10876,"omination":10877,"ĠthÃ©orÃ¨me":10878,"ĠÃ©crivains":10879,"ĠmagnÃ©tique":10880,"ĠJordan":10881,"Me":10882,"Ġrevers":10883,"ĠhellÃ©n":10884,"Ġclin":10885,"Ãīdouard":10886,"ĠentrÃ©es":10887,"Ġoffensive":10888,"Ã©quitation":10889,"ĠsupÃ©rieurs":10890,"Ġ1889":10891,"ĠindÃ©pendance":10892,"ĠÃ©gyptien":10893,"mor":10894,"mÃ¨tre":10895,"Ġcoiff":10896,"Ġtaure":10897,"ĠJer":10898,"excl":10899,"Ġcoff":10900,"Ġorganisations":10901,"ĠÃ©lÃ©g":10902,"Ġtraditionnellement":10903,"ref":10904,"Ġsurvie":10905,"Ġsurveillance":10906,"iÃ¨vre":10907,"ĠdÃ©coup":10908,"Ġannon":10909,"ynam":10910,"Ġidentique":10911,"rectement":10912,"apparence":10913,"Ġbuteur":10914,"Ġrumeurs":10915,"Ġdoctrine":10916,"TV":10917,"Ġoutils":10918,"ĠdÃ©passer":10919,"ika":10920,"Ġmanifestation":10921,"Ġencourag":10922,"Ġiv":10923,"ĠRud":10924,"Ġpersonnels":10925,"ĠdÃ©pÃ´ts":10926,"ĠSept":10927,"ĠestimÃ©e":10928,"Ordre":10929,"Ġcopies":10930,"Comp":10931,"yll":10932,"Ġquai":10933,"Ġmena":10934,"Ġtouristes":10935,"Ġzo":10936,"ĠSeigneur":10937,"ĠÃ©tablissement":10938,"Ġlutter":10939,"amÃ©lioration":10940,"Ġconcurrents":10941,"Ġrejoignent":10942,"VF":10943,"gÃ©rie":10944,"onction":10945,"Ã¨vre":10946,"ĠGood":10947,"enny":10948,"Ġprofil":10949,"ĠrÃ©vÃ©lÃ©":10950,"ĠtentÃ©":10951,"Lorsque":10952,"Ġboulevard":10953,"Ġdiplomatique":10954,"ĠRecords":10955,"ubert":10956,"ativitÃ©":10957,"version":10958,"Ġ1902":10959,"ĠconsidÃ©rÃ©es":10960,"Organisation":10961,"ĠinspirÃ©e":10962,"ĠTouraine":10963,"Ġdispositif":10964,"Ġran":10965,"ĠtÃ©lÃ©s":10966,"Ġruis":10967,"actrice":10968,"Ġpromet":10969,"engager":10970,"Ġdemandent":10971,"Ġembar":10972,"Ġusines":10973,"ĠGilbert":10974,"Ġlinguistique":10975,"Ê»":10976,"ief":10977,"ĠDuc":10978,"ĠRest":10979,"ĠdÃ©coration":10980,"Ġdistances":10981,"ĠTurquie":10982,"ĠaffectÃ©":10983,"DÃ©c":10984,"ashi":10985,"ĠcarrÃ©":10986,"Ġtransmission":10987,"ĠUnion":10988,"aisses":10989,"Ġ1895":10990,"ĠdÃ©truite":10991,"organiser":10992,"Ġadministration":10993,"ĠBruce":10994,"Ġmineurs":10995,"Ġponeys":10996,"ĠPalestine":10997,"vÃ©es":10998,"Ġtrent":10999,"ĠphÃ©nomÃ¨nes":11000,"Ġgarnison":11001,"ĠNich":11002,"idÃ©s":11003,"ĠOccident":11004,"ĠcoopÃ©ration":11005,"ĠMonte":11006,"Imp":11007,"sk":11008,"itimes":11009,"offensive":11010,"Op":11011,"ĠbrÃ©sil":11012,"ĠdÃ©ser":11013,"Ġher":11014,"Ġconstate":11015,"Ġaffect":11016,"ĠmenÃ©s":11017,"ĠanimÃ©":11018,"ĠprivÃ©es":11019,"aucun":11020,"Ġcalcaire":11021,"notamment":11022,"ĠdiocÃ¨se":11023,"Cons":11024,"ĠRu":11025,"ĠpassÃ©e":11026,"ĠtouchÃ©":11027,"Ġbatailles":11028,"ĠKennedy":11029,"].\"":11030,"Ġloup":11031,"ĠrÃ©actions":11032,"ĠTime":11033,"ĠcrÃ©Ã©es":11034,"ennetÃ©":11035,"Ġsigner":11036,"ĠpublicitÃ©":11037,"Ã¼r":11038,"Ã¶r":11039,"Ġpaie":11040,"ĠBlanc":11041,"ĠRel":11042,"uise":11043,"venus":11044,"assemblÃ©e":11045,"ĠAllen":11046,"Ġsubstitu":11047,"Ġbonheur":11048,"Ġinclus":11049,"Ġadministrative":11050,"Ġchancelier":11051,"astiques":11052,"ĠStone":11053,"Ġspons":11054,"ĠÃ©clat":11055,"Ġvolcanique":11056,"Denis":11057,"oper":11058,"ĠcaractÃ¨res":11059,"Ġautomatique":11060,"ĠdÃ©liv":11061,"Ġdangereux":11062,"ĠcommenÃ§a":11063,"zy":11064,"ĠFu":11065,"onnage":11066,"Ġtrag":11067,"tissent":11068,"Ġmanip":11069,"Ġindustriels":11070,"Ġlourds":11071,"plan":11072,"Ġcend":11073,"qualif":11074,"Ġtol":11075,"dies":11076,"ĠRab":11077,"tinent":11078,"ĠÃ©gal":11079,"Ġparticules":11080,"amÃ©liorer":11081,"ĠchÃ¢ssis":11082,"ĠBulgarie":11083,"pellier":11084,"ev":11085,"vu":11086,"ticul":11087,"Ġflanc":11088,"alition":11089,"sia":11090,"ĠSig":11091,"ĠGreg":11092,"Ġdiale":11093,"Ġattitude":11094,"Ġtouch":11095,"rash":11096,"ĠMerlin":11097,"ĠdÃ©diÃ©e":11098,"Rob":11099,"Ã¨vres":11100,"acha":11101,"ĠShow":11102,"onymes":11103,"Ġproprement":11104,"ĠtÃ©moin":11105,"Ġbranches":11106,"effectu":11107,"ĠSpring":11108,"ĠPhiladelphie":11109,"hol":11110,"uaire":11111,"ĠsÃ©d":11112,"Ġaqu":11113,"ĠhÃ©ritier":11114,"ĠRic":11115,"Ã§oise":11116,"aver":11117,"Ġphare":11118,"athan":11119,"ĠSher":11120,"Ã©lix":11121,"ĠÃ©tudie":11122,"Ã©change":11123,"enger":11124,"Ġconvaincu":11125,"Ġperfection":11126,"Ġdommages":11127,"Ġcass":11128,"Ã¨lent":11129,"Ġtub":11130,"Ġchir":11131,"ĠFranc":11132,"ĠdÃ©sastre":11133,"ĠmÃ©diterran":11134,"Ġvolontaires":11135,"aisseaux":11136,"Ġobligatoire":11137,"ON":11138,"Ġproies":11139,"ĠalÃ©":11140,"Ġengagement":11141,"ĠÃ©tudiÃ©":11142,"Ġphotos":11143,"Ġprolongation":11144,"ĠmammifÃ¨res":11145,"miques":11146,"Ġ58":11147,"ĠrÃ©putÃ©":11148,"Ġentreprend":11149,"Ġpsychi":11150,"Ġdiminution":11151,"ĠrÃ©dige":11152,"rissage":11153,"ĠFernand":11154,"Sax":11155,"enaire":11156,"enay":11157,"Ġparad":11158,"chim":11159,"atra":11160,"ĠPou":11161,"ĠeffectuÃ©s":11162,"Ġtrouvant":11163,"Ġcollabor":11164,"ĠcoÃ»ts":11165,"yclopÃ©die":11166,"mage":11167,"Ġomn":11168,"anÃ§ant":11169,"iges":11170,"ĠspÃ©ciaux":11171,"Ġressort":11172,"ĠAntonio":11173,"Empereur":11174,"Ġsprint":11175,"Ġgeste":11176,"Ġchaud":11177,"ĠTop":11178,"ĠRiver":11179,"ĠLeurs":11180,"Ġfinales":11181,"Ġadolesc":11182,"ĠBrab":11183,"Ġgothique":11184,"Vers":11185,"ouk":11186,"Ġfres":11187,"ĠtÃªtes":11188,"Ġtennis":11189,"ĠMaz":11190,"Ġchal":11191,"ĠcomposÃ©es":11192,"Ġfamiliale":11193,"Ġmoulin":11194,"ĠClark":11195,"Ġfaciliter":11196,"Ġnoyau":11197,"Alsace":11198,"Cal":11199,"Ġvign":11200,"Ġamoureux":11201,"Ġcolomb":11202,"Ġchevaliers":11203,"visionnement":11204,"Ã©lÃ¨ne":11205,"Ġengend":11206,"ĠÃ©diteur":11207,"Ġinconnu":11208,"ĠcÃ©rÃ©monies":11209,"ĠLine":11210,"Ġabat":11211,"huile":11212,"Ġveuve":11213,"Ġmodifier":11214,"ĠWild":11215,"ĠlibÃ©raux":11216,"tia":11217,"acqu":11218,"amitiÃ©":11219,"Ġhonneur":11220,"ĠLaur":11221,"opes":11222,"ĠcrÃ©ent":11223,"Ġpsychologie":11224,"Ġparlementaire":11225,"AF":11226,"Amer":11227,"usta":11228,"ĠDig":11229,"Ġconcentre":11230,"ĠYam":11231,"ĠThÃ©rÃ¨se":11232,"ĠarmÃ©n":11233,"ĠdÃ©lib":11234,"Ġplaques":11235,"Ġvaisseaux":11236,"ĠSac":11237,"Angl":11238,"Ġoffrant":11239,"Ġ1899":11240,"Ġdominant":11241,"Ġalimentaire":11242,"Ress":11243,"nF":11244,"Ġpoule":11245,"Ġaigu":11246,"ĠÂ£":11247,"Ġintellig":11248,"Ã©miques":11249,"Ġgraves":11250,"Ġestim":11251,"ĠcrÃªte":11252,"attaquer":11253,"ĠAnderson":11254,"Ġtypique":11255,"ĠchaÃ®nes":11256,"Ġexactement":11257,"Ġtrentaine":11258,"ĠNixon":11259,"Ġdisant":11260,"Anjou":11261,"ĠlibÃ©rer":11262,"ĠsouverainetÃ©":11263,"John":11264,"RÃ©s":11265,"wer":11266,"ĠtÃ©n":11267,"Ġved":11268,"implant":11269,"ĠÃīlisabeth":11270,"oks":11271,"Ġtraverser":11272,"2008":11273,"ĠprotÃ©gÃ©":11274,"Ġnavale":11275,"Ġchinoise":11276,"Ġsculptures":11277,"ĠLÃł":11278,"Ġvif":11279,"ĠFR":11280,"ĠJam":11281,"ency":11282,"ĠmodifiÃ©":11283,"Ġatelier":11284,"Ġmixte":11285,"Ġgamme":11286,"AM":11287,"Ġfati":11288,"aline":11289,"eller":11290,"ĠÃ©lar":11291,"ĠSard":11292,"ĠSub":11293,"ĠMiller":11294,"ĠDÃ©fense":11295,"irant":11296,"Ġtraject":11297,"Ġcontacts":11298,"ĠEnsuite":11299,"obiles":11300,"Ġcontraste":11301,"Ġ1894":11302,"ĠremplacÃ©e":11303,"ĠÃ©nergie":11304,"Ġextraordin":11305,"Ġprimaire":11306,"Ġlicence":11307,"ĠÃ¨re":11308,"}{":11309,"aristocra":11310,"autorisation":11311,"ĠMontpellier":11312,"Ã¢teaux":11313,"Ġvivants":11314,"effic":11315,"unior":11316,"ĠMonaco":11317,"Ġcavalier":11318,"ĠCenter":11319,"Ġsouvenirs":11320,"ĠMcCartney":11321,"lovaquie":11322,"ĠÂ»],":11323,"stan":11324,"ignements":11325,"ĠconsidÃ©rant":11326,"Ġchapitres":11327,"Ġadministratif":11328,"ĠJÃ©rÃ´me":11329,"ĠapprÃ©ciÃ©":11330,"Ġcuisine":11331,"osaurus":11332,"Ġpomp":11333,"Ġvastes":11334,"opÃ©e":11335,"umage":11336,"Ġobtiennent":11337,"Ġadmis":11338,"raphie":11339,"Ã©lique":11340,"Ġ1888":11341,"2007":11342,"Ġcivilis":11343,"scar":11344,"Ġanth":11345,"Ġvotre":11346,"itte":11347,"ĠFle":11348,"Ġard":11349,"Ġfinancer":11350,"ĠOttom":11351,"Ġirlandais":11352,"ĠalliÃ©":11353,"ĠachÃ¨te":11354,"Ġampli":11355,"ĠButton":11356,"ĠTrackMania":11357,"idi":11358,"rimin":11359,"Ġcondu":11360,"ĠPotter":11361,"ĠBnF":11362,"ĠHon":11363,"onda":11364,"ĠWrest":11365,"aillement":11366,"ĠrÃ©gionales":11367,"Ġterminant":11368,"ĠancÃªtres":11369,"ĠArabes":11370,"Bains":11371,"hÃ©roÃ¯":11372,"ĠPres":11373,"ĠAy":11374,"Ġhol":11375,"octur":11376,"Ġactifs":11377,"conque":11378,"Ġtraditionnelles":11379,"enus":11380,"Ġlever":11381,"iler":11382,"Ġty":11383,"ĠPÃ©t":11384,"Ġcomptant":11385,"Ġrenn":11386,"ĠtÃ©moins":11387,"ĠRoumanie":11388,"ĠPublish":11389,"Az":11390,"aremment":11391,"Ġboul":11392,"Enf":11393,"Ġconfig":11394,"Ġbasilique":11395,"ĠidentitÃ©":11396,"Ġoiseau":11397,"Ġnoble":11398,"Ġnaturellement":11399,"ĠOlivier":11400,"ĠJustinien":11401,"ĠRadio":11402,"Ġcombattants":11403,"Uru":11404,"ĠlinÃ©":11405,"inois":11406,"ÃªchÃ©":11407,"ĠNob":11408,"ĠprÃ©al":11409,"ĠKings":11410,"ĠOld":11411,"ĠsupÃ©rioritÃ©":11412,"ĠconservÃ©e":11413,"habitu":11414,"ĠEuropÃ©":11415,"Ġerreurs":11416,"helm":11417,"Ġouverture":11418,"aristes":11419,"ropole":11420,"Ġronde":11421,"assan":11422,"ergence":11423,"rett":11424,"Ġboudd":11425,"Jus":11426,"cÃ©es":11427,"ĠCur":11428,"lÃ©tisme":11429,"Ġamie":11430,"Ġsoldat":11431,"Ã©lÃ©ments":11432,"Ġmoyennes":11433,"ĠGeoff":11434,"2006":11435,"ĠChristopher":11436,"dits":11437,"ĠnÃ©c":11438,"ĠDarc":11439,"Ġminor":11440,"inthe":11441,"ĠReine":11442,"ĠpossibilitÃ©s":11443,"Ġuns":11444,"ied":11445,"Ġplage":11446,"ĠÃ©tats":11447,"cules":11448,"Ġros":11449,"ĠÃīgypte":11450,"ĠdÃ©pens":11451,"ĠsÃ©ances":11452,"ĠengagÃ©s":11453,"ĠRussell":11454,"burgh":11455,"Ã©sion":11456,"ĠAct":11457,"ĠRig":11458,"Ġyards":11459,"Ġromantique":11460,"Ġclient":11461,"Ġcroisement":11462,"Ġterrestres":11463,"Ali":11464,"CI":11465,"ocÃ¨ne":11466,"Ġperse":11467,"ĠrÃ©alisme":11468,"iliation":11469,"Ġplanches":11470,"Ġcentrales":11471,"hipp":11472,"Ġbiographie":11473,"rophes":11474,"SI":11475,"down":11476,"ĠlÃ¢":11477,"eni":11478,"Ġaime":11479,"ĠCav":11480,"ĠCall":11481,"Ġgo":11482,"Ġchape":11483,"ĠEli":11484,"ĠFau":11485,"ĠFanny":11486,"onso":11487,"Ġattention":11488,"Ġexprime":11489,"ignent":11490,"Arc":11491,"incendie":11492,"ĠentraÃ®nÃ©":11493,"Ġdates":11494,"ĠmÃ©daill":11495,"ĠabandonnÃ©e":11496,"Ġpoliciers":11497,"Ġstud":11498,"Ġaustro":11499,"ĠCab":11500,"ĠMÃ©":11501,"ĠPier":11502,"ĠPoe":11503,"Ġmusicien":11504,"Ġchars":11505,"airs":11506,"Ġperdue":11507,"ĠmarchÃ©s":11508,"Ġlogement":11509,"ĠÃ©voluÃ©":11510,"Ġheureux":11511,"Ġbureaux":11512,"ĠNavy":11513,"Ġrappelant":11514,"ĠprÃ©dÃ©cesseur":11515,"fes":11516,"king":11517,"soit":11518,"Ã©enne":11519,"leine":11520,"Ġturb":11521,"ĠMou":11522,"ĠRio":11523,"Ã§ants":11524,"inscription":11525,"Ġcollis":11526,"Ġ57":11527,"ĠdÃ©bit":11528,"Ġcommunistes":11529,"Ġpartent":11530,"Ġsollic":11531,"Ġcontraintes":11532,"Ã©limin":11533,"Ġprieur":11534,"Ġaccueil":11535,"ĠtransformÃ©":11536,"Ġdescendants":11537,"Ġsyndicat":11538,"Ġluxe":11539,"Ġhorizont":11540,"ĠdÃ®":11541,"ĠdÃ©pe":11542,"Ġsuites":11543,"Ġimplique":11544,"Ġconstructeur":11545,"Ġsolde":11546,"ĠCarpent":11547,"Ġincendie":11548,"ĠspÃ©cimens":11549,"ĠGreat":11550,"Ġphotographies":11551,"Ġsexe":11552,"ĠRosa":11553,"Ġdurable":11554,"Ġbretonne":11555,"Ġcompilation":11556,"ĠTokyo":11557,"Ïĥ":11558,"ĠLouvre":11559,"ĠCli":11560,"attitude":11561,"ĠPoin":11562,"ĠBach":11563,"dict":11564,"ĠKal":11565,"Ġadjoint":11566,"ĠdÃ©mis":11567,"2009":11568,"ĠSports":11569,"ĠHein":11570,"ScÃ©nario":11571,"Accueil":11572,"Ġcouvent":11573,"aule":11574,"Ġbro":11575,"eut":11576,"rante":11577,"ettel":11578,"ĠrÃ©gi":11579,"rague":11580,"Ġconservateur":11581,"Ġmicro":11582,"Ġdeg":11583,"ĠmÃ¨nent":11584,"Ġjal":11585,"ulations":11586,"ĠWay":11587,"Ã©dÃ©e":11588,"erbie":11589,"ĠVIIe":11590,"ĠrÃ©volutionnaires":11591,"Ġrituels":11592,"face":11593,"ĠCond":11594,"ressent":11595,"oste":11596,"Ġrayon":11597,"ingÃ©nieur":11598,"ĠpoÃ©tique":11599,"achÃ¨ve":11600,"apparaÃ®t":11601,"Ġspectacles":11602,"Ġauxquelles":11603,"ĠChambÃ©ry":11604,"ĠpauvretÃ©":11605,"ĠbÃ©ton":11606,"ĠFontaine":11607,"ĠLegend":11608,"Ġindispens":11609,"laire":11610,"ĠLens":11611,"ĠDire":11612,"ĠTÃ©":11613,"illard":11614,"Ġnez":11615,"ĠFrances":11616,"ĠmanÅĵuvre":11617,"Ã©land":11618,"ĠâĪĴ":11619,"ĠdÃ©mocratique":11620,"Ġpermanente":11621,"Ġremarquables":11622,"effectif":11623,"Auguste":11624,"Ital":11625,"Ġlis":11626,"ĠSyd":11627,"ĠBibliothÃ¨que":11628,"extinction":11629,"ĠAnti":11630,"Ġpartagent":11631,"ĠYougos":11632,"Ġdivine":11633,"Ġballon":11634,"Ġpontif":11635,"Ġrevi":11636,"ĠAf":11637,"Ġproie":11638,"Ġsons":11639,"Ġ1815":11640,"Ġconnait":11641,"Ġcorrid":11642,"osex":11643,"ĠNews":11644,"Ġbarrage":11645,"ĠÃ©clate":11646,"vait":11647,"rel":11648,"Ġparam":11649,"Ġcomprise":11650,"...)":11651,"Ġlourdes":11652,"Ġcircuits":11653,"Ġcombinaison":11654,"Ġemmen":11655,"Ġlittoral":11656,"ĠrÃ©bellion":11657,"aac":11658,"tÃ¨re":11659,"Ġunion":11660,"ĠLot":11661,"Ġparas":11662,"ĠSus":11663,"Ġincont":11664,"Ġrus":11665,"rone":11666,"Ġconfusion":11667,"Ġentendu":11668,"Ġcompagnons":11669,"Ġsinges":11670,"ĠmatiÃ¨res":11671,"Ġsurvivants":11672,"Ġgermanique":11673,"ĠsynthÃ¨se":11674,"ĠÃ©missions":11675,"Ġartificielle":11676,"ĠOrient":11677,"assaut":11678,"Ġtransformer":11679,"ĠAlexander":11680,"ĠWarner":11681,"Ġintense":11682,"ĠCaroline":11683,"Maurice":11684,"Trois":11685,"Ġ350":11686,"Ġinternes":11687,"Ã©lie":11688,"Ġmoine":11689,"Ġoriginaires":11690,"Ġcontribution":11691,"Ġdissolution":11692,"umacher":11693,"vation":11694,"Ã¸":11695,"ĠclÃ©":11696,"ineux":11697,"urait":11698,"Ġfine":11699,"ĠBad":11700,"Ãªne":11701,"ĠexÃ©c":11702,"Ġmarin":11703,"angulaire":11704,"Ġ59":11705,"Ġsouci":11706,"Ġappartiennent":11707,"lywood":11708,"Ġaboutit":11709,"Laren":11710,"aster":11711,"ĠPS":11712,"Ã©man":11713,"ĠpolÃ©mique":11714,"Ġflux":11715,"Ġwh":11716,"Ġ1893":11717,"Ġdemandant":11718,"ĠChez":11719,"Ġpartenariat":11720,"ĠQueen":11721,"Ġastronautes":11722,"ĠClo":11723,"ĠHi":11724,"Ġexpositions":11725,"Ġcompositions":11726,"Ġfinances":11727,"ĠplanÃ¨tes":11728,"Ġprocure":11729,"2004":11730,"reyfus":11731,"ĠAndrew":11732,"ĠdotÃ©e":11733,"Ġjambes":11734,"ĠfÃ©dÃ©rale":11735,"kans":11736,"encontre":11737,"Ġpist":11738,"Ġlap":11739,"ĠAz":11740,"ĠChi":11741,"verg":11742,"appelle":11743,"ĠspÃ©cialiste":11744,"ĠVIIIe":11745,"Ġracines":11746,"Ġbouddh":11747,"lind":11748,"Îµ":11749,"oura":11750,"Ġvuln":11751,"illus":11752,"ingo":11753,"Ġjument":11754,"ĠAllan":11755,"Ġsituations":11756,"Ġindiquant":11757,"Ġ1867":11758,"Outre":11759,"ĠdivinitÃ©":11760,"Ġfavoriser":11761,"ĠHugo":11762,"ĠEnglish":11763,"esque":11764,"Ġmout":11765,"ĠSing":11766,"ĠDoc":11767,"Ġhe":11768,"ĠVik":11769,"ĠprÃ©fet":11770,"ĠFlandre":11771,"Certains":11772,"Ġmanteau":11773,"ouin":11774,"omiques":11775,"ĠDo":11776,"ĠexposÃ©":11777,"Ġentrent":11778,"Ġroyales":11779,"ĠspÃ©cialement":11780,"ĠrÃ©sulte":11781,"Ġbanque":11782,"Ġbombe":11783,"Ġvainqueurs":11784,"ralitÃ©":11785,"Ġautonome":11786,"ĠGordon":11787,"Ġoreilles":11788,"kers":11789,"vise":11790,"ĠPomp":11791,"Ġrub":11792,"ĠconfÃ©rences":11793,"Ġmonts":11794,"Ġempire":11795,"ĠCharle":11796,"interdiction":11797,"ĠRobin":11798,"Ġmunicipale":11799,"Ġmobilier":11800,"ĠmaÃ®tris":11801,"dal":11802,"Ġsph":11803,"ĠcÃ¨de":11804,"ĠaidÃ©":11805,"autel":11806,"avais":11807,"Ġdisputer":11808,"ĠSchumacher":11809,"ĠconservÃ©s":11810,"ĠacceptÃ©":11811,"Ġmultijoueur":11812,"Ġglacier":11813,"Ġ1789":11814,"ĠdÃ©barquement":11815,"OC":11816,"ĠcÃ¢":11817,"Ġparution":11818,"ĠSovi":11819,"ĠRoh":11820,"Ġceci":11821,"erton":11822,"atelier":11823,"ĠdÃ©fi":11824,"ĠrÃ©aliste":11825,"fiÃ©s":11826,"atrices":11827,"acker":11828,"ĠdÃ©triment":11829,"ĠAlexis":11830,"Pos":11831,"gs":11832,"ĠSat":11833,"),.\"":11834,"Ġrecul":11835,"ĠrÃ©alisations":11836,"ĠdÃ©fenseurs":11837,"ĠvÃ©ritables":11838,"Ġconclu":11839,"ĠdivisÃ©e":11840,"ĠTroisiÃ¨me":11841,"ĠsoviÃ©tiques":11842,"housiasme":11843,"ĠLuxemb":11844,"Ġpoign":11845,"Ġposer":11846,"ÃŃn":11847,"Ġvenait":11848,"ĠprotÃ©gÃ©e":11849,"ĠavancÃ©e":11850,"aluation":11851,"Ġsynagogue":11852,"Ã£o":11853,"ĠPra":11854,"cessions":11855,"Ġcourante":11856,"ĠdÃ©veloppÃ©s":11857,"Ġgouvernements":11858,"Ġroux":11859,"ĠdÃ©couverts":11860,"allemand":11861,"ĠaugmentÃ©":11862,"ĠvÃ©lo":11863,"Adam":11864,"ystÃ¨me":11865,"ĠSures":11866,"aime":11867,"ĠNag":11868,"ĠRev":11869,"objets":11870,"Ġfragment":11871,"Ġapproxim":11872,"ĠtÃ¢ches":11873,"ĠsÃ©pare":11874,"ey":11875,"hu":11876,"Ġcomique":11877,"ĠMill":11878,"otage":11879,"Ġcompare":11880,"Ġverte":11881,"ĠformÃ©s":11882,"ĠlibÃ©ral":11883,"Ġmaintient":11884,"Ġcoureur":11885,"Ġconservateurs":11886,"ĠdÃ©clarant":11887,"Ġprovoquer":11888,"ĠBenoÃ®t":11889,"ĠGiov":11890,"Ġottomane":11891,"ĠpossÃ©dant":11892,"Ġscandale":11893,"EM":11894,"wan":11895,"ĠpaÃ¯":11896,"Ġfir":11897,"omen":11898,"omon":11899,"alcool":11900,"ĠLind":11901,"olat":11902,"ulli":11903,"Ġanaly":11904,"ocle":11905,"2012":11906,"ĠgarÃ§ons":11907,"lett":11908,"ĠclassÃ©s":11909,"Ġbasses":11910,"ĠDarcy":11911,"Situ":11912,"Ġput":11913,"arl":11914,"raham":11915,"angent":11916,"ĠconfiÃ©e":11917,"ĠÃ©val":11918,"ĠcaptivitÃ©":11919,"ĠIndes":11920,"Ġdemandes":11921,"ĠaccompagnÃ©e":11922,"ĠToujours":11923,"Ġpossessions":11924,"ĠsÃ©quences":11925,"Ã©veloppement":11926,"Har":11927,"aub":11928,"aurer":11929,"Ġconjoin":11930,"ographes":11931,"Ġvoler":11932,"ĠArg":11933,"ĠrÃ©vÃ©":11934,"Ġopposant":11935,"Ġactuels":11936,"Ġajouter":11937,"Ġaffronter":11938,"orientation":11939,"Ġdeviendra":11940,"Comm":11941,"feld":11942,"xi":11943,"Ġsolutions":11944,"ĠTrip":11945,"stone":11946,"Ġdispos":11947,"marin":11948,"Ġcommentaires":11949,"aucune":11950,"Ġpoitrine":11951,"ĠGT":11952,"mblement":11953,"Ġatten":11954,"Ġjuges":11955,"issante":11956,"appellation":11957,"Ġrapprocher":11958,"ĠisraÃ©li":11959,"'t":11960,"Off":11961,"ports":11962,"Ġpentes":11963,"ĠhÃ´":11964,"ĠLap":11965,"stra":11966,"occuper":11967,"ĠKra":11968,"ennais":11969,"Ġcapital":11970,"ĠdÃ©veloppeurs":11971,"Ã©lab":11972,"ĠlibÃ©rÃ©":11973,"ĠhypothÃ¨ses":11974,"Oc":11975,"ĠDÃ©c":11976,"ĠprÃ©m":11977,"Ġstable":11978,"Ġsoule":11979,"ĠdÃ©pour":11980,"gny":11981,"auld":11982,"Ġeffectivement":11983,"Ġcroisade":11984,"Ġtravaillant":11985,"Ã¶n":11986,"ĠAtlantique":11987,"ĠdÃ©marche":11988,"adoption":11989,"aujourd":11990,"ĠCir":11991,"Ġchats":11992,"ĠRangers":11993,"ĠHerm":11994,"uman":11995,"Ġcouples":11996,"Ġcherchent":11997,"ĠdominÃ©":11998,"ĠBrian":11999,"ĠProvence":12000,"aritÃ©s":12001,"ĠdÃ©tient":12002,"Ġrame":12003,"Ġmarquent":12004,"âĢ¦)":12005,"ĠDupuis":12006,"Ġmodification":12007,"Ġutile":12008,"Ġgrosse":12009,"ĠdÃ©cisif":12010,"ĠBruins":12011,"Ġvacances":12012,"ĠOttomans":12013,"ĠSid":12014,"ĠMade":12015,"Ġmarge":12016,"Ġfonte":12017,"Ġdisposer":12018,"Ġfera":12019,"ĠgÃ©rer":12020,"Ġsimpli":12021,"ĠLiber":12022,"ĠbÃ©tail":12023,"ĠcinÃ©matographique":12024,"ĠMess":12025,"ĠRÃ©s":12026,"ĠFr":12027,"Ġtril":12028,"empare":12029,"ĠdÃ©finir":12030,"habitude":12031,"Ġpatern":12032,"Marc":12033,"ĠTu":12034,"ĠhÃ©li":12035,"Ġ1814":12036,"Ġ95":12037,"Ġroyaux":12038,"Ġtombeau":12039,"ĠÃ©voquent":12040,"ĠMargaret":12041,"Osiris":12042,"Peu":12043,"ÃĨthel":12044,"ĠsphÃ¨re":12045,"ĠSky":12046,"ĠHomer":12047,"uisent":12048,"Ġacad":12049,"Ġ66":12050,"ĠgÃ©ographie":12051,"onymie":12052,"importants":12053,"Ġfortifications":12054,"ĠSittelle":12055,"Ġorthodoxe":12056,"Ġscrutin":12057,"ermes":12058,"ĠparaÃ®tre":12059,"ĠLake":12060,"Ġapparemment":12061,"Ġdescendant":12062,"Ġrespecter":12063,"Ġdisciplines":12064,"Ġmineur":12065,"Ġsuspension":12066,"ĠLorraine":12067,"ĠindÃ©pendants":12068,"ĠsalariÃ©s":12069,"Ġculminant":12070,"ĠingÃ©nieurs":12071,"Ð¾":12072,"quez":12073,"Ġbelles":12074,"Ġglis":12075,"ĠEss":12076,"ĠimprÃ©":12077,"ĠShar":12078,"ĠfacultÃ©":12079,"ĠdÃ©partementale":12080,"Ġvoisines":12081,"ĠlÃ©gislatives":12082,"Ġralenti":12083,"FF":12084,"Gen":12085,"ĠHy":12086,"Ġcarn":12087,"Ġrelatives":12088,"Ġimmeub":12089,"attan":12090,"2003":12091,"ĠLondon":12092,"Ġdestru":12093,"ĠaccusÃ©":12094,"ĠfenÃªtre":12095,"Aqu":12096,"Ġmous":12097,"Ã¨bre":12098,"rimÃ©e":12099,"ĠFors":12100,"Ġaventure":12101,"opie":12102,"Ġsession":12103,"ĠDev":12104,"Ġ%),":12105,"Ġinscription":12106,"Ġboucle":12107,"ĠeffectuÃ©es":12108,"ĠscÃ©nariste":12109,"Ġharmon":12110,"Ġaxe":12111,"Ġemm":12112,"ĠMis":12113,"acteurs":12114,"ĠGes":12115,"Ġappris":12116,"Ġromains":12117,"ĠAujourd":12118,"Ġmajeures":12119,"Ġclimatiques":12120,"Ġavion":12121,"Ġlentement":12122,"ĠNaples":12123,"hÃ©ritage":12124,"Ġbulle":12125,"ĠSpar":12126,"ĠAmb":12127,"istres":12128,"ĠEngl":12129,"institu":12130,"Ãīquipe":12131,"ĠDeb":12132,"Ġcrimes":12133,"Ġdominante":12134,"ĠRenault":12135,"Ġrappeler":12136,"quets":12137,"aman":12138,"ĠÃ©tendue":12139,"ĠcomprÃ©hension":12140,"Ġapporter":12141,"Ġamont":12142,"Ġvoyant":12143,"Ġcollines":12144,"ascar":12145,"ĠdÃ©nonce":12146,"humour":12147,"Ġpoudre":12148,"Ġfaiblesse":12149,"ĠBertrand":12150,"Ġcatastrophe":12151,"sch":12152,"Ġdil":12153,"Ġmanger":12154,"alg":12155,"acquisition":12156,"ĠTV":12157,"onscient":12158,"ĠKy":12159,"Ġgrille":12160,"antins":12161,"Ġcitad":12162,"Ġphotographie":12163,"Ġgolfe":12164,"ĠÃ©meutes":12165,"sar":12166,"Ġtribu":12167,"Ġjoie":12168,"Ġjazz":12169,"Ġ67":12170,"Alfred":12171,"ĠMadame":12172,"Ġrochers":12173,"zen":12174,"Ġfuir":12175,"Ġplates":12176,"igan":12177,"elly":12178,"ĠInternet":12179,"Ġsalaire":12180,"ĠtournÃ©es":12181,",,,":12182,"Ġattaquer":12183,"Ġintro":12184,"Christ":12185,"Ġrevendi":12186,"ĠadaptÃ©e":12187,"Ġgagnent":12188,"ĠDouglas":12189,"alliance":12190,"Ġtactique":12191,"erme":12192,"arriv":12193,"Ġpourra":12194,"mbourg":12195,"ĠHot":12196,"Ã©toile":12197,"teste":12198,"ĠgÃ©nÃ©rations":12199,"Ġfuturs":12200,"ĠespÃ¨re":12201,"ĠArts":12202,"Ġbonus":12203,"ĠÃ©questre":12204,"ĠÃ©levÃ©es":12205,"Ġcroyance":12206,"ĠSanta":12207,"ĠPÃ©kin":12208,"ourage":12209,"Ġvot":12210,"chard":12211,"ĠCass":12212,"Ġintr":12213,"Ġcompatri":12214,"Ġmarquis":12215,"ĠdÃ©cal":12216,"onneurs":12217,"ĠgÃ©nÃ©ralis":12218,"ovie":12219,"ĠmÃ©moires":12220,"ĠÃ©liminÃ©":12221,"Ġprononc":12222,"archÃ©ologie":12223,"ĠCollege":12224,"Ġrennais":12225,"Ġcoin":12226,"riel":12227,"ĠVettel":12228,"ĠAnim":12229,"agner":12230,"AmÃ©ric":12231,"Ġfamilial":12232,"ĠOuest":12233,"Ġrecrutement":12234,"Ġcontroverse":12235,"ĠprospÃ©ritÃ©":12236,"GÃ©ographie":12237,"appareil":12238,"UN":12239,"aun":12240,"Ġpain":12241,"ĠCode":12242,"ĠblÃ©":12243,"ĠSerbie":12244,"ĠDin":12245,"ĠCher":12246,"Ġmaritimes":12247,"Ġapparence":12248,"ĠInstitu":12249,"ĠautorisÃ©":12250,"sky":12251,"amille":12252,"Ġhivern":12253,"gler":12254,"Ġ68":12255,"ĠSchool":12256,"ĠinvitÃ©s":12257,"Ġtremp":12258,"Ġdiversi":12259,"Ġpartenaires":12260,"Ġtardive":12261,"Ġtriomphe":12262,"domadaire":12263,"non":12264,"tian":12265,"Ġmira":12266,"onto":12267,"cides":12268,"ĠBoc":12269,"Ġsug":12270,"Ġ63":12271,"Ġsuicide":12272,"Ġoffrent":12273,"Ġfondateurs":12274,"Ġcourage":12275,"ĠuniversitÃ©s":12276,"Ġ1875":12277,"installent":12278,"Ġindividuel":12279,"aussÃ©e":12280,"akespe":12281,"ĠdegrÃ©s":12282,"itter":12283,"oly":12284,"ĠrÃ©tic":12285,"ĠTi":12286,"Ġanonyme":12287,"Ġexerce":12288,"ĠChac":12289,"ĠParc":12290,"Ġrepas":12291,"Ġconstamment":12292,"Ġ72":12293,"ĠReal":12294,"Ġ1882":12295,"Ġajoutant":12296,"ĠAffaires":12297,"zo":12298,"ĠMaine":12299,"ĠDavis":12300,"antiers":12301,"Ġdatent":12302,"2005":12303,"Ġspectateur":12304,"Ġsuccessives":12305,"Ġaffronte":12306,"ĠhiÃ©rarchie":12307,"ĠremplaÃ§ant":12308,"rÃ¨tement":12309,"Gr":12310,"Ġpul":12311,"artis":12312,"ĠBog":12313,"ĠIran":12314,"ĠEnf":12315,"fiant":12316,"Ġretrans":12317,"ĠAmÃ©rindiens":12318,"Ġsuffit":12319,"Ġclassification":12320,"Ġillustre":12321,"Ġdiminuer":12322,"Ġrural":12323,"Ġstylis":12324,"ĠColumbia":12325,"ĠSenna":12326,"Ġjury":12327,"ĠrÃ©su":12328,"Ã©mergence":12329,"Ġpromo":12330,"Ġ1885":12331,"ĠconfirmÃ©":12332,"Ã©chapper":12333,"ĠachevÃ©":12334,"EP":12335,"mire":12336,"ronn":12337,"ĠCrois":12338,"ĠAlph":12339,"Ġoffrir":12340,"ĠrelÃ¢":12341,"ĠMcLaren":12342,"ĠmaÃ®tresse":12343,"aos":12344,"Ġcouverte":12345,"ĠBand":12346,"amorph":12347,"ĠRa":12348,"illent":12349,"Ġclan":12350,"quide":12351,"Ġterri":12352,"Ġgouvern":12353,"essor":12354,"Ġ1866":12355,"Ġcommandes":12356,"habil":12357,"Ġprolonge":12358,"Ġindividuelles":12359,"Ġcroyances":12360,"Ġcu":12361,"orÃ©es":12362,"ansen":12363,"olds":12364,"acÃ©":12365,"Ġflui":12366,"Ġdevenus":12367,"ĠproposÃ©e":12368,"Ġ1871":12369,"Ġsoutenue":12370,"ĠtÃ©lÃ©spect":12371,"Ġdin":12372,"entiques":12373,"Ġpente":12374,"Ġgend":12375,"ĠrÃ©m":12376,"Ġinhum":12377,"ĠTig":12378,"ĠprÃ©co":12379,"Ġhumide":12380,"Ġsatisfait":12381,"Argentine":12382,"Rel":12383,"Ġpeste":12384,"ĠLive":12385,"Ġvig":12386,"see":12387,"osants":12388,"Ġsum":12389,"Ġreport":12390,"Ġessentiel":12391,"Ġpoisson":12392,"ĠrÃ©digÃ©":12393,"ĠDenis":12394,"apprentissage":12395,"Ġund":12396,"olition":12397,"aiser":12398,"abilitÃ©s":12399,"Ġprud":12400,"Ġnombres":12401,"ĠWings":12402,"ĠdÃ©crire":12403,"Ġclaire":12404,"ĠMarsh":12405,"clavage":12406,"ĠmÃ©cont":12407,"guerite":12408,"Dis":12409,"OM":12410,"urier":12411,"Ġgenti":12412,"ĠMir":12413,"ĠWell":12414,"Ġreproche":12415,"ĠjugÃ©e":12416,"Ġrenonce":12417,"ĠintermÃ©diaire":12418,"gnÃ©":12419,"Ġincert":12420,"Ġsortent":12421,"Ġfranchir":12422,"ĠVeniz":12423,"ĠmosquÃ©e":12424,"ĠachevÃ©e":12425,"2000":12426,"Her":12427,"IV":12428,"jac":12429,"ken":12430,"quier":12431,"Ġfes":12432,"Ġplonge":12433,"ĠHo":12434,"Ġcomptes":12435,"ĠKurt":12436,"ampleur":12437,"Ġnationalistes":12438,"ĠBrest":12439,"ĠfixÃ©":12440,"Ġfantastique":12441,"ĠavancÃ©es":12442,"Ġfourr":12443,"Ġcandidature":12444,"ĠcÃ©ramique":12445,"PostÃ©ritÃ©":12446,"Ġ00":12447,"Ġsaga":12448,"ilde":12449,"Ġvariables":12450,"ĠMiy":12451,"Ġcarburant":12452,"Ġbombardements":12453,"ĠBruno":12454,"AthÃ¨nes":12455,"ĠbriÃ¨vement":12456,"OS":12457,"Ð¸":12458,"ulte":12459,"ĠGib":12460,"andre":12461,"avie":12462,"Ġintervention":12463,"ĠconfiÃ©":12464,"vergne":12465,"Ġbaron":12466,"Ġdiscussions":12467,"ĠeffectuÃ©e":12468,"ĠÃ©lectronique":12469,"ĠÃ©voquant":12470,"ĠobligÃ©":12471,"ĠDominique":12472,"Val":12473,"jamin":12474,"lez":12475,"ilib":12476,"Ġreviennent":12477,"ĠNight":12478,"ĠConvention":12479,"lettes":12480,"2001":12481,"ristan":12482,"ĠExp":12483,"ĠattestÃ©e":12484,"acuation":12485,"Ðµ":12486,"quille":12487,"Ġtome":12488,"Ġnoctur":12489,"ride":12490,"cho":12491,"Ãªnes":12492,"Ã©tal":12493,"Ġapplication":12494,"Ġimpression":12495,"ĠmaturitÃ©":12496,"ĠempÃªche":12497,"culaire":12498,"Ġcryp":12499,"berht":12500,"calade":12501,"Ġnourrir":12502,"etto":12503,"ĠBird":12504,"Ġprotagonistes":12505,"aristocratie":12506,"Bern":12507,"GV":12508,"Tout":12509,"ni":12510,"ĠRevue":12511,"Ġbattent":12512,"accÃ©der":12513,"Ġlocalement":12514,"Ġcylind":12515,"ĠSecond":12516,"ĠMidi":12517,"ĠpoussÃ©e":12518,"Ġcomportent":12519,"Ġglaciers":12520,"Tour":12521,"bar":12522,"ctive":12523,"ĠLion":12524,"Ġconcile":12525,"ĠhÃ´te":12526,"ĠFay":12527,"prises":12528,"teries":12529,"ĠCham":12530,"ramment":12531,"Ġsignale":12532,"ĠMcK":12533,"ĠFinlande":12534,"Ġautorise":12535,"Ġrebelles":12536,"ĠLucien":12537,"Ġprononce":12538,"Ġmagasins":12539,"olic":12540,"Ġ(+":12541,"Ġexpression":12542,"ĠspÃ©c":12543,"Ġliquide":12544,"ĠfermÃ©":12545,"Ġscolaires":12546,"ĠBanque":12547,"ĠbÃ©nÃ©ficier":12548,"Ġterritoriale":12549,"ĠGrenoble":12550,"ĠVinci":12551,"ĠSuresnes":12552,"ĠEngland":12553,"Mer":12554,"sud":12555,"techn":12556,"ĠPanth":12557,"osphÃ¨re":12558,"Ġmenaces":12559,"ĠÃ©lectriques":12560,"Ġsurfaces":12561,"Ġconfirmer":12562,"ĠdÃ©cisive":12563,"Ġgrotte":12564,"Ġcirconscription":12565,"omorph":12566,"alonique":12567,"rol":12568,"lia":12569,"illant":12570,"Ġnommer":12571,"oyers":12572,"ĠsoulÃ¨vement":12573,"Ġplume":12574,"ĠnumÃ©ros":12575,"ĠRhÃ´ne":12576,"Ġsamedi":12577,"wal":12578,"ramide":12579,"ĠLuis":12580,"lesse":12581,"Laurent":12582,"Ġmineure":12583,"Ġentra":12584,"ĠlocalitÃ©":12585,"Ġcombus":12586,"ĠinvitÃ©":12587,"Ġtalents":12588,"ĠSaturne":12589,"ĠAug":12590,"ĠEc":12591,"ĠFlam":12592,"Ã©tais":12593,"Arch":12594,"anciens":12595,"Champ":12596,"ĠdÃ©tourn":12597,"Ġoccidentaux":12598,"ĠHugh":12599,"Ġsubsiste":12600,"IN":12601,"bonne":12602,"alom":12603,"ĠPu":12604,"ppi":12605,"ĠRoll":12606,"adh":12607,"Ġrenouveau":12608,"Ã©pouse":12609,"tones":12610,"Ġmalt":12611,"Ġsolitaire":12612,"ĠÃ©tranger":12613,"ymne":12614,"Ġabandonner":12615,"Ġparisien":12616,"Ġanalyses":12617,"ĠSydney":12618,"prÃ©sent":12619,"Ġlab":12620,"Ġrelanc":12621,"ends":12622,"icales":12623,"ĠLev":12624,"Ã©nÃ©":12625,"ĠWW":12626,"iciel":12627,"Ġobserver":12628,"ĠprÃ©sentÃ©s":12629,"Ġpermettait":12630,"ĠlivrÃ©":12631,"Ġsubir":12632,"ĠmatÃ©riau":12633,"ĠRenaud":12634,"arrass":12635,"Ġfavorise":12636,"Ġdiminue":12637,"ĠapprÃ©cie":12638,"ĠbÃ©nÃ©ficient":12639,"lavie":12640,"ĠVendÃ©e":12641,"Ġvagues":12642,"Ob":12643,"ouf":12644,"raux":12645,"ĠchÃ´":12646,"ĠDS":12647,"Ġhel":12648,"Ġautoch":12649,"Ġconstituant":12650,"Ġcouramment":12651,"ĠqualifiÃ©s":12652,"ĠÃ©mig":12653,"ĠToronto":12654,"Su":12655,"Sec":12656,"ciale":12657,"ĠBBC":12658,"ĠGram":12659,"ĠgrÃ¨ve":12660,"ĠprÃ©cieux":12661,"Ġdoux":12662,"Ã©quival":12663,"Ġsexuelle":12664,"ĠnÃ©gocier":12665,"ĠrÃ©tablir":12666,"ĠMunich":12667,"asia":12668,"accident":12669,"onnance":12670,"Ġemploie":12671,"Ġ1891":12672,"Ġclients":12673,"Ġsuffrages":12674,"ĠredÃ©c":12675,"Ġpoursuivent":12676,"adapter":12677,"aou":12678,"gard":12679,"plus":12680,"Ġdebout":12681,"Ġfirent":12682,"ĠCFA":12683,"ĠBoh":12684,"ĠDÃ©s":12685,"ĠTrÃ©":12686,"ĠEric":12687,"ĠHend":12688,"Ã´ture":12689,"ĠdÃ©pression":12690,"velt":12691,"Ġquelqu":12692,"Ġartisan":12693,"ĠpossÃ©dait":12694,"Ġrendez":12695,"ĠcommÃ©mor":12696,"ĠPokÃ©mon":12697,"ench":12698,"ening":12699,"Ġsages":12700,"Ġcoute":12701,"ouge":12702,"Ġgain":12703,"âĢ²":12704,"Ġdialogues":12705,"Ġtoucher":12706,"Ġdisposant":12707,"oriÃ©tÃ©":12708,"Ġessaie":12709,"frÃ¨re":12710,"ĠprononcÃ©":12711,"ĠcollÃ¨gues":12712,"Ġfluvi":12713,"Ġtrajectoire":12714,"AL":12715,"Toutefois":12716,"ias":12717,"lot":12718,"pÃ©":12719,"var":12720,"Ã¨ches":12721,"ĠBaud":12722,"Ġ62":12723,"apport":12724,"ĠcinÃ©":12725,"Ġouverts":12726,"Ġhabitations":12727,"Ġmagie":12728,"Ġmiroir":12729,"ĠBourget":12730,"ĠKingdom":12731,"Ġravitaillement":12732,"empÃªcher":12733,"CC":12734,"cap":12735,"dote":12736,"Ġden":12737,"ensions":12738,"inÃ©s":12739,"ĠÃ©duc":12740,"ĠBul":12741,"ĠBron":12742,"Ġhameau":12743,"ĠJr":12744,"ĠjouÃ©e":12745,"versement":12746,"Ġminer":12747,"Ġmatches":12748,"Ġagressi":12749,"ĠÃ©chantill":12750,"Ġsouris":12751,"Ġ1861":12752,"Ġlogo":12753,"ĠrÃ©compenses":12754,"ĠaÃ©rien":12755,"Ġregroupant":12756,"inclin":12757,"ArmÃ©nie":12758,"feu":12759,"ms":12760,"Ġá":12761,"Ġultime":12762,"Ġnett":12763,"ouri":12764,"ĠBry":12765,"ĠTak":12766,"endroit":12767,"ĠprioritÃ©":12768,"ĠBalzac":12769,"ĠÃ©voluer":12770,"ĠfrÃ©quentation":12771,"Ġparisienne":12772,"ĠÃ©puis":12773,"sig":12774,"ĠPÃ¢":12775,"ĠBac":12776,"uisant":12777,"ident":12778,"Ġpermit":12779,"Ġassis":12780,"anciers":12781,"ĠStef":12782,"2002":12783,"ĠdÃ©truits":12784,"IsraÃ«l":12785,"ĠprocÃ©dure":12786,"ĠmathÃ©mati":12787,"ĠamenÃ©":12788,"ditÃ©":12789,"ĠBav":12790,"ossi":12791,"Ã©paisseur":12792,"Ġvisites":12793,"arck":12794,"ĠÃ©conomie":12795,"ĠattribuÃ©e":12796,"Ġmutu":12797,"augmenter":12798,"ĠTintin":12799,"Ġaf":12800,"ĠCop":12801,"osph":12802,"ĠRow":12803,"Ġraff":12804,"ĠclÃ´ture":12805,"ĠimpÃ´ts":12806,"ĠatmosphÃ¨re":12807,"Ġpoche":12808,"ceptions":12809,"Ġfondations":12810,"Ġouvertes":12811,"attus":12812,"Ġmerveille":12813,"Ġfaisaient":12814,"Ġrives":12815,"ĠlittÃ©ralement":12816,"Ġtoiles":12817,"Ġmunicipales":12818,"restation":12819,"ĠChampionnat":12820,"mises":12821,"Ġpionn":12822,"analy":12823,"agine":12824,"tina":12825,"Ġrestitu":12826,"Ġintervenir":12827,"Ġmalades":12828,"ĠcoÃ¯n":12829,"Ġroues":12830,"ĠprÃ©fecture":12831,"ĠBourgui":12832,"ĠquantitÃ©s":12833,"Ġabsolue":12834,"ĠtÃ©lÃ©spectateurs":12835,"Hor":12836,"Ġda":12837,"etz":12838,"chauff":12839,"ĠBrad":12840,"Ġinsectes":12841,"ĠNon":12842,"ĠstabilitÃ©":12843,"amph":12844,"ĠParth":12845,"Ġmanuf":12846,"BNF":12847,"ĠterminÃ©e":12848,"Ġlogis":12849,"Ġloisirs":12850,"Ġatteignant":12851,"iales":12852,"ĠSÃ©v":12853,"Ġchass":12854,"Ġneur":12855,"avenue":12856,"allen":12857,"Ġjud":12858,"Ġcorne":12859,"Ġassy":12860,"Ġpress":12861,"ĠrÃ©vÃ¨lent":12862,"Ġrendue":12863,"Ġweb":12864,"Ġimmob":12865,"Ġcorrespondent":12866,"Ġvraie":12867,"ĠprocÃ©dÃ©s":12868,"ĠidÃ©al":12869,"ygÃ¨ne":12870,"Ġnazis":12871,".).":12872,"DS":12873,"Ġdauph":12874,"Ġsombres":12875,"ĠPenn":12876,"ĠBy":12877,"active":12878,"icaux":12879,"terrest":12880,"Ã©rup":12881,"Ġphon":12882,"ĠjournÃ©es":12883,"ĠSuz":12884,"Ġconcernent":12885,"Georges":12886,"ĠRochelle":12887,"loc":12888,"Ġboss":12889,"ĠSak":12890,"ĠPoi":12891,"ĠBuff":12892,"ĠEmp":12893,"onnent":12894,"ĠprÃ©nom":12895,"oyant":12896,"Ġentretient":12897,"Ġcirculaire":12898,"Ġsouhaitent":12899,"Ġblocus":12900,"ĠassassinÃ©":12901,"Ġcostume":12902,"cass":12903,"gh":12904,"ĠCy":12905,"Ġconvient":12906,"ĠStory":12907,"essai":12908,"Ġponey":12909,"Ġlistes":12910,"islam":12911,"agence":12912,"lip":12913,"ĠFront":12914,"Ġrepous":12915,"Ġplanif":12916,"ĠÃ©norme":12917,"Ġprofondes":12918,"ĠdÃ©mocratie":12919,"ĠJulien":12920,"ĠFRBNF":12921,"Vie":12922,"VII":12923,"ettre":12924,"Ġauth":12925,"chait":12926,"ĠapportÃ©":12927,"osevelt":12928,"Ã©rosion":12929,"Ġoriginales":12930,"ĠrÃ©unis":12931,"acier":12932,"ĠRouge":12933,"ĠLuke":12934,"ĠMurray":12935,"Ġbombardement":12936,"Ġruisseau":12937,"FC":12938,"Ã©Ã¢tre":12939,"ĠpriÃ¨re":12940,"Ġgram":12941,"ĠchÃ¢teaux":12942,"ĠBomb":12943,"dim":12944,"Ã¢le":12945,"insc":12946,"Ġfonctionne":12947,"Ġartisans":12948,"Ġtransporter":12949,"Ġexpliquant":12950,"gÃ©nÃ©ral":12951,"Ġpneum":12952,"Historique":12953,"ÏĢ":12954,"elet":12955,"ĠSib":12956,"ĠPÃ©l":12957,"ĠGon":12958,"Ġarra":12959,"Ġsolid":12960,"lands":12961,"Ġcampus":12962,"ĠClassi":12963,"ĠCannes":12964,"ĠmÃ©diatique":12965,"ĠÃ©questres":12966,"Ġprovoquant":12967,"Ġnourrit":12968,"ĠChampions":12969,"Ġpleinement":12970,"approvisionnement":12971,"ĠbaptisÃ©":12972,"Ġlent":12973,"Ġpare":12974,"Ġcub":12975,"Ġjoy":12976,"Ġintime":12977,"ĠhÃ©rÃ©":12978,"impÃ©ratrice":12979,"ĠÃ©curies":12980,"ifique":12981,"ĠmontÃ©":12982,"Ġagent":12983,"Ġusine":12984,"ĠCaen":12985,"ĠItaliens":12986,"Ġpaquebot":12987,"tinÃ©raire":12988,"Ġhasard":12989,"ĠrÃ©giments":12990,"Ġdame":12991,"ĠClÃ©ment":12992,"Ġby":12993,"Ġrepar":12994,"ibaldi":12995,"lÃ¨vent":12996,"ĠÃīg":12997,"ĠnotoriÃ©tÃ©":12998,"iches":12999,"Ġremparts":13000,"Ġinsurg":13001,"Ġinspire":13002,"instruction":13003,"ĠmÃ©dioc":13004,"ĠengagÃ©e":13005,"ĠcoÃ©quipiers":13006,"Ġtriple":13007,"ackeray":13008,"Ġplomb":13009,"ĠPun":13010,"ĠRach":13011,"Ġmargin":13012,"Ã©dia":13013,"ĠrÃ©alisent":13014,"Ġromaines":13015,"Ġespoir":13016,"Ġcharte":13017,"Ġprogressive":13018,"ĠgravitÃ©":13019,"Ġhydro":13020,"identification":13021,"Aix":13022,"Trans":13023,"bule":13024,"iane":13025,"wart":13026,"ĠcÃ©der":13027,"orc":13028,"Ġnormes":13029,"Ġrelier":13030,"ĠTan":13031,"ĠTam":13032,"ĠNatur":13033,"ĠÃ©cart":13034,"venant":13035,"gueux":13036,"Ġsortes":13037,"ĠÃ¢gÃ©e":13038,"Ġsignification":13039,"ĠKevin":13040,"Ġmobilisation":13041,"ĠGlob":13042,"orbite":13043,"ĠGaule":13044,"ĠvariÃ©tÃ©s":13045,"Ĵuvres":13046,"ĠStÃ©ph":13047,"Ġsarc":13048,"Ġbox":13049,"ĠSquare":13050,"Ġconcession":13051,"ĠMot":13052,"ĠAcc":13053,"ĠDall":13054,"Ġprostitu":13055,"Ġheb":13056,"endus":13057,"ĠNov":13058,"Ġentretien":13059,"icilement":13060,"Ġaccro":13061,"Ġphara":13062,"ĠrÃ©conc":13063,"aÃ¯ques":13064,"Ġassembl":13065,"ĠMetz":13066,"Ġprisonnier":13067,"Ġmasculine":13068,"ĠStudios":13069,"vergure":13070,"100":13071,"Pe":13072,"nis":13073,"Ġmour":13074,"iliers":13075,"ĠDup":13076,"ranch":13077,"ĠVis":13078,"idge":13079,"ancouver":13080,"Ġempre":13081,"engagement":13082,"Ġuniversel":13083,"anneau":13084,"ĠÃ©lites":13085,"ĠconÃ§ue":13086,"Ġrejette":13087,"ĠIrlande":13088,"ĠCarlos":13089,"Ġthermique":13090,"Ġstyles":13091,"ĠDream":13092,"ĠtronÃ§on":13093,"Ġfeux":13094,"ĠST":13095,"ĠPlace":13096,"ĠAustrali":13097,"endrait":13098,"ingham":13099,"ĠpersÃ©cu":13100,"Ġdifficilement":13101,"Ġvols":13102,"Ġgrandeur":13103,"ĠentraÃ®nant":13104,"1999":13105,"Ġ1879":13106,"ĠarrÃªtÃ©s":13107,"ĠWilhelm":13108,"Ġmauvaises":13109,"ĠToy":13110,"ĠallÃ©g":13111,"ĠFranÃ§oise":13112,"ĠrÃ©plique":13113,"Ã©litÃ©":13114,"ĠLisa":13115,"ĠcritiquÃ©":13116,"ĠChevalier":13117,"ĠFriedrich":13118,"ĠmÃ©tiers":13119,"ĠThessalonique":13120,"Rec":13121,"Top":13122,"dor":13123,"ereurs":13124,"vÃ©n":13125,"wig":13126,"ĠLomb":13127,"ĠDave":13128,"endum":13129,"ĠdÃ©cern":13130,"Ġdispositions":13131,"ĠdÃ©bou":13132,"ĠdÃ©ploie":13133,"Ġsocialistes":13134,"Ġsalut":13135,"ĠPetite":13136,"Ġmunitions":13137,"ĠarrÃªter":13138,"Ġpositive":13139,"Ġpartenaire":13140,"ĠHalo":13141,"Ġrenforts":13142,"mel":13143,"tot":13144,"Ġdense":13145,"alo":13146,"agh":13147,"ĠMP":13148,"ĠBla":13149,"ĠdÃ©form":13150,"ĠThierry":13151,"Ġconstructeurs":13152,"Ġorganiser":13153,"Ġ1884":13154,"Ġciviles":13155,"ĠCastel":13156,"ĠByzantins":13157,"Ivoire":13158,"ĠrÃ©sume":13159,"Don":13160,"cor":13161,"ving":13162,"Ġicon":13163,"teaux":13164,"sep":13165,"ĠrÃ©cip":13166,"geance":13167,"ĠÃ©cras":13168,"Ġmalheure":13169,"ĠdÃ©sire":13170,"loyd":13171,"ĠÃ©diteurs":13172,"ĠdÃ©partemental":13173,"ĠenvisagÃ©":13174,"envoyer":13175,"Ġstockage":13176,"ĠpÃ©trole":13177,"ĠindigÃ¨nes":13178,"ĠLuxembourg":13179,"armer":13180,"Ã¨ves":13181,"ĠBord":13182,"ĠFlÃ¨che":13183,"illo":13184,"ĠmarquÃ©es":13185,"Ġressent":13186,"Ġremplis":13187,"Ġcinquant":13188,"ĠrestÃ©e":13189,"dications":13190,"Ġ1886":13191,"Ġfavori":13192,"Ġ1790":13193,"Ġcroissante":13194,"Ġconfrontation":13195,"akespeare":13196,"Ġbic":13197,"Ġgro":13198,"ĠHad":13199,"Ġarbre":13200,"insp":13201,"Ġvirage":13202,"Ġ1892":13203,"Ġmagique":13204,"ĠProst":13205,"Ġviolent":13206,"Ġsyndrome":13207,"Ġadaptations":13208,"Ġ1851":13209,"Ġobservateurs":13210,"Ġgaleries":13211,"Ġexploitation":13212,"ĠpoussÃ©":13213,"Ġbourgeoisie":13214,"Luc":13215,"Nic":13216,"aqu":13217,"arabe":13218,"etnam":13219,"Ġner":13220,"ĠLas":13221,"Ġplaf":13222,"ranus":13223,"ĠKim":13224,"ĠOp":13225,"Ġobtenue":13226,"Ã©quipement":13227,"ahan":13228,"Ã¨gue":13229,"Ġgares":13230,"ĠprÃ©fÃ©rÃ©":13231,"Ġ1881":13232,"Ġ1863":13233,"ĠremplacÃ©s":13234,"rogÃ¨ne":13235,"Ġurbains":13236,"Ġextrait":13237,"Ġexceptionnelle":13238,"ĠinaugurÃ©e":13239,"Ġdiplomatiques":13240,"ĠMaster":13241,"utÃ©es":13242,"ouches":13243,"Ġvole":13244,"Ġband":13245,"ĠIGN":13246,"brer":13247,"Ġinterrog":13248,"Ġapparent":13249,"Ġpromu":13250,"Ġterminus":13251,"ĠrÃ©unions":13252,"Ġmusicaux":13253,"ĠGolden":13254,"Ġdragons":13255,"ĠPower":13256,"ĠDC":13257,"ĠHome":13258,"ĠHMS":13259,"Ġrecr":13260,"Ãītats":13261,"ĠaccÃ¨de":13262,"lavi":13263,"Ġtranse":13264,"Ġ82":13265,"Ġatteinte":13266,"ĠmÃ©pris":13267,"ĠBeaucoup":13268,"ĠÃīcosse":13269,"Diff":13270,"xion":13271,"Ã½":13272,"ĠĠ":13273,"orÃ©g":13274,"ourent":13275,"ĠPakistan":13276,"ĠBuc":13277,"ĠJoy":13278,"Ġdiffuse":13279,"Ġrenaissance":13280,"tionnellement":13281,"Ġinstant":13282,"ĠnÃ©gatif":13283,"Ġ1865":13284,"Ġcontinentale":13285,"ĠajoutÃ©":13286,"ĠGuide":13287,"appuyant":13288,"ĠsystÃ©matiquement":13289,"inventaire":13290,"Ġtouchdown":13291,"ĠVenizÃ©los":13292,"ĠchÃ´mage":13293,"Cri":13294,"Ġmiti":13295,"Ġconduisent":13296,"ĠNet":13297,"ogÃ¨ne":13298,"exil":13299,"alisÃ©es":13300,"ĠgÃ©nÃ©rique":13301,"ĠJeune":13302,"Ġ1864":13303,"Ġvaincu":13304,"Ġillustrations":13305,"individu":13306,"Ġremontent":13307,"ĠrÃªves":13308,"ĠaÃ©riennes":13309,"ĠCharlemagne":13310,"dle":13311,"lock":13312,"ciers":13313,"ĠAC":13314,"aby":13315,"ĠpartagÃ©":13316,"Ġcoupable":13317,"ĠThÃ©od":13318,"ĠLouise":13319,"ĠexpÃ©ditions":13320,"Ġprairies":13321,"ii":13322,"onel":13323,"ĠfÃ©li":13324,"alles":13325,"elÃ©e":13326,"Ġbriques":13327,"tÃ©rie":13328,"tudes":13329,"head":13330,"acht":13331,"sionnaire":13332,"ĠgÃ©org":13333,"ĠpalmarÃ¨s":13334,"effort":13335,"ĠassemblÃ©e":13336,"Ġ1887":13337,"ĠprovoquÃ©":13338,"ĠPalÃ©":13339,"Ġtablettes":13340,"Ġrayonnement":13341,"Ġparfaite":13342,"ĠtchÃ¨que":13343,"bell":13344,"ĠVancouver":13345,"ĠdÃ©fic":13346,"ĠPhilipp":13347,"ĠTele":13348,"Ġfusionn":13349,"Ġrituel":13350,"OR":13351,"court":13352,"relie":13353,"ĠesthÃ©tique":13354,"ctrice":13355,"obÃ©":13356,"ĠassistÃ©":13357,"ĠPedro":13358,"ĠdessinÃ©es":13359,"ĠÃ¢me":13360,"Ġ1794":13361,"Ġsauvet":13362,"Ġadministratives":13363,"ĠDanube":13364,"ajoutent":13365,"ĠdÃ©passant":13366,"explosion":13367,"ĠingÃ©nieur":13368,"ĠPublishing":13369,"olement":13370,"relles":13371,"Ġvulg":13372,"ĠÃ©rup":13373,"ĠCup":13374,"ĠPict":13375,"ĠAk":13376,"ffe":13377,"ĠTo":13378,"oblig":13379,"ĠÃ©gard":13380,"Ġserment":13381,"Ġmontage":13382,"ĠprobabilitÃ©":13383,"Ġrendus":13384,"utelle":13385,"inium":13386,"ĠHugues":13387,"Ġpanneau":13388,"ĠPerses":13389,"Ġengl":13390,"illages":13391,"agnol":13392,"Ġnationaliste":13393,"ĠState":13394,"Ġ1883":13395,"Ġfourni":13396,"ĠsÃ©parÃ©s":13397,"yrus":13398,"mÃ©diaires":13399,"Ġdossier":13400,"Neige":13401,"Ġsouterrain":13402,"Voir":13403,"enh":13404,"arisme":13405,"Ġduchesse":13406,"atar":13407,"Ġot":13408,"ouvrir":13409,"Ġdialogue":13410,"Ġexpose":13411,"aptis":13412,"Ã©taires":13413,"sson":13414,"ĠAnna":13415,"ĠÃ©quipÃ©e":13416,"Paris":13417,"ĠRusses":13418,"ĠSamus":13419,"Ġassimil":13420,"Ġabouti":13421,"horreur":13422,"ĠmacÃ©d":13423,"Aur":13424,"mars":13425,"abond":13426,"ĠRiv":13427,"Ã©rait":13428,"ĠShakespeare":13429,"ĠprÃ©face":13430,"ĠnÃ©glig":13431,"ĠBalkans":13432,"ĠultÃ©rieure":13433,"ĠirrÃ©gu":13434,"ĠcratÃ¨re":13435,"Ġcade":13436,"ourag":13437,"Ġchantiers":13438,"Ġinhabitu":13439,"ĠWolf":13440,"Ġchevau":13441,"Ġindien":13442,"ĠIndi":13443,"accompagn":13444,"Ġessor":13445,"Ġ1862":13446,"Ġconsacrer":13447,"Ġambiti":13448,"Ġjaponaises":13449,"Ġmythes":13450,"ĠSystÃ¨me":13451,"ĠÃ©chapper":13452,"roÃ®tre":13453,"armement":13454,"ĠfÃ©od":13455,"vance":13456,"Ã¨bres":13457,"ĠBus":13458,"ĠBud":13459,"ĠRem":13460,"ĠChopin":13461,"aritions":13462,"ĠsoulÃ¨ve":13463,"Ġoffert":13464,"Ġcontrats":13465,"ĠdÃ©roulement":13466,"Ġ1792":13467,"ĠretirÃ©":13468,"Ġnordique":13469,"Ġpolicier":13470,"Ġcomplot":13471,"lovaque":13472,"instrument":13473,"Ġconfiguration":13474,"ĠEuropÃ©ens":13475,"Ġfoc":13476,"Ġfruit":13477,"Ġnaiss":13478,"ĠLum":13479,"ĠÃ©man":13480,"abs":13481,"ĠÃ©gale":13482,"ĠÃ©pid":13483,"Ġvisuels":13484,"2013":13485,"Ġoccidentales":13486,"Ġpubliquement":13487,"Ġsculpteur":13488,"Augustin":13489,"ismarck":13490,"Ġcrainte":13491,"Ġallusion":13492,"ĠYougoslavie":13493,"178":13494,"mas":13495,"itale":13496,"ĠLittle":13497,"ĠCic":13498,"Ġcontiennent":13499,"ĠMik":13500,"limat":13501,"ĠIan":13502,"adresse":13503,"tint":13504,"ĠaccÃ©der":13505,"ĠMalte":13506,"ĠÃ©quipÃ©":13507,"ĠdiplÃ´me":13508,"Ġguerriers":13509,"ctorat":13510,"Ġnatale":13511,"ĠBrabham":13512,"efficacitÃ©":13513,"ĠWrestling":13514,"ĠCarpenter":13515,"Ġtutelle":13516,"rats":13517,"Ġparlent":13518,"Ġvoile":13519,"ĠPop":13520,"liÃ¨re":13521,"ĠHin":13522,"ogues":13523,"ĠKu":13524,"ĠdÃ©passÃ©":13525,"Ġvive":13526,"unesse":13527,"ĠretrouvÃ©e":13528,"Ġhydra":13529,"ĠFIFA":13530,"Ġtriomph":13531,"ĠBooks":13532,"Ġcoc":13533,"Ġjette":13534,"ĠTrin":13535,"ĠTristan":13536,"Ã¢tel":13537,"ĠÃ©galitÃ©":13538,"ĠÃ©curie":13539,"Anton":13540,"Ġfermes":13541,"Ġparticipant":13542,"Ġdistinctes":13543,"orum":13544,"Ġenrich":13545,"ĠÃ©checs":13546,"Ġge":13547,"ĠHell":13548,"ĠminoritÃ©":13549,"ĠArd":13550,"Ġcoalition":13551,"ĠRoosevelt":13552,"afric":13553,"Ġpratiquer":13554,"Ġdesservi":13555,"ĠMaximilien":13556,"quettes":13557,"Ġtro":13558,"anson":13559,"chap":13560,"ĠCi":13561,"ĠBret":13562,"ĠTest":13563,"Ġhu":13564,"ender":13565,"ouvant":13566,"ĠFÃ©lix":13567,"ĠÃ©th":13568,"visible":13569,"ĠrÃ©cent":13570,"Ġeffectif":13571,"Ġviolente":13572,"ĠspÃ©cialisÃ©s":13573,"Ġaxes":13574,"Allemand":13575,"fre":13576,"à¤":13577,"Ġpire":13578,"ĠLight":13579,"ĠdÃ©rive":13580,"irond":13581,"ubis":13582,"Ġ1878":13583,"intosh":13584,"athlÃ©tisme":13585,"Ġsorties":13586,"Ġfontaine":13587,"oxyde":13588,"ĠcÃ©rÃ©ales":13589,"Ġmasque":13590,"ĠfantÃ´me":13591,"ĠparallÃ¨les":13592,"uin":13593,"estÃ©":13594,"olphe":13595,"ĠrelÃ©gu":13596,"Ġgise":13597,"Ġplaines":13598,"ĠHas":13599,"ĠcrÃ©ations":13600,"Ġvieill":13601,"Ġlimit":13602,"}}}\"":13603,"Ġ1854":13604,"Ġ1872":13605,"ĠillustrÃ©":13606,"Ġlyonnais":13607,"ĠÃ©crivit":13608,"Ġmonnaies":13609,"ĠAdams":13610,"Ġmusulmane":13611,"Ġraids":13612,"Politique":13613,"Rh":13614,"bie":13615,"ipe":13616,"ĠsÃ¨che":13617,"quants":13618,"Ġboy":13619,"ĠFou":13620,"roniques":13621,"emporte":13622,"ynch":13623,"ĠBarry":13624,"Ġtrio":13625,"ĠPhilip":13626,"Ġcommentaire":13627,"Ġphoto":13628,"ĠtransfÃ©rÃ©":13629,"ĠmenacÃ©e":13630,"ĠsÃ©vÃ¨re":13631,"Ġrapprochement":13632,"Ġascension":13633,"ĠVÃ©nus":13634,"Amb":13635,"OL":13636,"Oli":13637,"SN":13638,"mal":13639,"sous":13640,"Ġtaill":13641,"ĠMack":13642,"ĠProm":13643,"Ġ88":13644,"2015":13645,"ĠGuer":13646,"Ã©lÃ©ment":13647,"ĠSebas":13648,"ĠcommandÃ©e":13649,"ĠdÃ©nomination":13650,"Ġconvoi":13651,"Ġvitesses":13652,"ĠÃ©troite":13653,"imagination":13654,"Ġmagasin":13655,"Royal":13656,"hÃ©ritier":13657,"Ġfoyers":13658,"ĠMme":13659,"ĠPre":13660,"elley":13661,"Ġtraction":13662,"Ġcertes":13663,"Ã©loign":13664,"Ġhuman":13665,"Ġsemblables":13666,"Ġmusicales":13667,"Ġbombes":13668,"ĠÃ©volutions":13669,"ĠEmma":13670,"Ġsuccessifs":13671,"Ġsinon":13672,"ĠApple":13673,"ĠGiovanni":13674,"dale":13675,"lante":13676,"ueux":13677,"Ġpath":13678,"inaug":13679,"ĠmÃ©rite":13680,"Ġencl":13681,"rÃ©ation":13682,"Ġcond":13683,"ĠABC":13684,"Ġexacte":13685,"ĠsecrÃ¨te":13686,"arios":13687,"ĠdÃ©pendant":13688,"Ġdominent":13689,"Ġ1859":13690,"ĠRomain":13691,"ĠrÃ©publicaine":13692,"grade":13693,"Ġcompromis":13694,"Ġchapeau":13695,"Pal":13696,"Sources":13697,"Ġtox":13698,"Ġretenue":13699,"Ġconjug":13700,"ĠAventures":13701,"anda":13702,"ĠVous":13703,"Ġcaric":13704,"ĠDef":13705,"ĠrÃ©alisant":13706,"Ġproposant":13707,"ĠopposÃ©s":13708,"ĠvÃ©ritablement":13709,"ĠaccompagnÃ©s":13710,"Ġprimaires":13711,"ĠentourÃ©e":13712,"ĠMississi":13713,"Ġintellectuelle":13714,"Ġexigences":13715,"ĠAnthony":13716,"Im":13717,"Ġdites":13718,"onf":13719,"tip":13720,"ĠSC":13721,"ĠDictionnaire":13722,"Ġnomin":13723,"Ġaccuse":13724,"Ġadmet":13725,"Ġperception":13726,"ĠÃ©pau":13727,"Ġbordure":13728,"ĠrandonnÃ©e":13729,"Col":13730,"cos":13731,"Ã©vent":13732,"anime":13733,"ussion":13734,"ĠÃ©mission":13735,"ĠPoint":13736,"Ġinuti":13737,"Ġautonomie":13738,"ĠÃ©lecteurs":13739,"Ġridi":13740,"ĠnÃ©glige":13741,"ĠenterrÃ©":13742,"ĠFrederick":13743,"Ġcendres":13744,"lef":13745,"Ġvec":13746,"diff":13747,"lÃ¨ne":13748,"Åĵud":13749,"agnols":13750,"ĠUp":13751,"ophile":13752,"Ġsucre":13753,"Ġcertitude":13754,"Ġslalom":13755,"pre":13756,"tÃ¨res":13757,"enaires":13758,"itain":13759,"Ġrez":13760,"ĠDÃ©m":13761,"ĠGaz":13762,"Ġalp":13763,"Ġstopp":13764,"Ġ76":13765,"Ġsituent":13766,"adienne":13767,"Ġvaincre":13768,"Ġsacrifice":13769,"Ġmonstre":13770,"effectuer":13771,"Fer":13772,"ontan":13773,"ĠGab":13774,"uies":13775,"Ġtraiter":13776,"cipation":13777,"emparer":13778,"ĠprÃ©cur":13779,"ĠJohann":13780,"ĠappelÃ©es":13781,"Ġgardes":13782,"ĠarchÃ©ologues":13783,"Ġcantons":13784,"Ġrenvoie":13785,"Ġsignificative":13786,"Ġcollision":13787,"bit":13788,"Ġdues":13789,"attent":13790,"ĠPÃ¨re":13791,"ĠhÃ©ri":13792,"onnier":13793,"ĠHonda":13794,"Ġprestation":13795,"ava":13796,"Ġmonarque":13797,"ĠFrancs":13798,"Ġconfier":13799,"arius":13800,"Ġmilliard":13801,"ĠÃ©cho":13802,"Ġcadres":13803,"Ġviolents":13804,"amÃ©ricaine":13805,"ĠmÃ©caniques":13806,"escad":13807,"arbre":13808,"ily":13809,"ĠConn":13810,"ĠCord":13811,"asie":13812,"Ġbor":13813,"ĠhÃ©ritage":13814,"Ġposth":13815,"very":13816,"ĠColor":13817,"ĠColbert":13818,"ĠentraÃ®ner":13819,"Ġapprendre":13820,"Ġorientales":13821,"ĠGallim":13822,"Ġcrev":13823,"Ġpermanence":13824,"ĠAucun":13825,"ĠforcÃ©ment":13826,"Ġislamique":13827,"07":13828,"Ouv":13829,"Ses":13830,"vain":13831,"ÅĤ":13832,"Ġplumage":13833,"ĠjÃ©s":13834,"ĠOtt":13835,"ĠgÃ©nÃ©rales":13836,"Ã»te":13837,"raphe":13838,"aku":13839,"Ġemplacement":13840,"Ġdonna":13841,"auru":13842,"Ġimmig":13843,"Ġsensiblement":13844,"ĠGaribaldi":13845,"Ġparoissi":13846,"ĠrÃ©dacteur":13847,"Ġdiverg":13848,"ĠSarah":13849,"ĠPitts":13850,"Ã©ruption":13851,"ĠGallimard":13852,"saison":13853,"Ġdragon":13854,"oshi":13855,"ĠFame":13856,"Ġtirage":13857,"Ġcorruption":13858,"guay":13859,"illiers":13860,"ĠcrÃ¢ne":13861,"Ġchoisie":13862,"Ġtribut":13863,"ĠGeneral":13864,"ĠenregistrÃ©e":13865,"ĠvoÃ»te":13866,"Ret":13867,"Sh":13868,"Ġtrot":13869,"Ġbol":13870,"Ġgaul":13871,"cio":13872,"tÃ©n":13873,"associ":13874,"ĠpÃ©rimÃ¨tre":13875,"Ġappartements":13876,"aurÃ©":13877,"industri":13878,"Ġroutier":13879,"ĠdominÃ©e":13880,"Ġ1855":13881,"Ġlibrement":13882,"ĠfermÃ©e":13883,"ĠStadium":13884,"Ġtaxes":13885,"ĠMercure":13886,"Prin":13887,"ÃĤ":13888,"Ġnaval":13889,"ĠLin":13890,"onnet":13891,"cheur":13892,"rente":13893,"ailli":13894,"achus":13895,"ĠsuccÃ¨dent":13896,"ochine":13897,"Ġcomparable":13898,"Ġ1877":13899,"ĠBenjamin":13900,"ĠPerse":13901,"ĠThorpe":13902,"Ġvedette":13903,"ĠinsurgÃ©s":13904,"alan":13905,"Ġaud":13906,"oling":13907,"ĠSti":13908,"cir":13909,"ĠTru":13910,"ogo":13911,"impÃ´t":13912,"ĠKr":13913,"Ġrocher":13914,"Ġserpent":13915,"Ġconcentrer":13916,"ĠonziÃ¨me":13917,"aÃ¯d":13918,"Ġspirituel":13919,"ĠcitoyennetÃ©":13920,"ĠrÃ©pertori":13921,"ĠrÃ©fÃ©rendum":13922,
[...]
